#ifndef GESTURE_MODEL_H
#define GESTURE_MODEL_H


unsigned int gesture_model_len = 7828;
unsigned char gesture_model[] = {
 0x1c, 0x00, 0x00, 0x00, 0x54, 0x46, 0x4c, 0x33, 0x14, 0x00, 0x20, 0x00,
  0x1c, 0x00, 0x18, 0x00, 0x14, 0x00, 0x10, 0x00, 0x0c, 0x00, 0x00, 0x00,
  0x08, 0x00, 0x04, 0x00, 0x14, 0x00, 0x00, 0x00, 0x1c, 0x00, 0x00, 0x00,
  0x90, 0x00, 0x00, 0x00, 0xe8, 0x00, 0x00, 0x00, 0x5c, 0x0e, 0x00, 0x00,
  0x6c, 0x0e, 0x00, 0x00, 0xf0, 0x1d, 0x00, 0x00, 0x03, 0x00, 0x00, 0x00,
  0x01, 0x00, 0x00, 0x00, 0x04, 0x00, 0x00, 0x00, 0xfe, 0xee, 0xff, 0xff,
  0x0c, 0x00, 0x00, 0x00, 0x1c, 0x00, 0x00, 0x00, 0x3c, 0x00, 0x00, 0x00,
  0x0f, 0x00, 0x00, 0x00, 0x73, 0x65, 0x72, 0x76, 0x69, 0x6e, 0x67, 0x5f,
  0x64, 0x65, 0x66, 0x61, 0x75, 0x6c, 0x74, 0x00, 0x01, 0x00, 0x00, 0x00,
  0x04, 0x00, 0x00, 0x00, 0x8c, 0xff, 0xff, 0xff, 0x1a, 0x00, 0x00, 0x00,
  0x04, 0x00, 0x00, 0x00, 0x08, 0x00, 0x00, 0x00, 0x6f, 0x75, 0x74, 0x70,
  0x75, 0x74, 0x5f, 0x30, 0x00, 0x00, 0x00, 0x00, 0x01, 0x00, 0x00, 0x00,
  0x04, 0x00, 0x00, 0x00, 0x66, 0xf1, 0xff, 0xff, 0x04, 0x00, 0x00, 0x00,
  0x10, 0x00, 0x00, 0x00, 0x6b, 0x65, 0x72, 0x61, 0x73, 0x5f, 0x74, 0x65,
  0x6e, 0x73, 0x6f, 0x72, 0x5f, 0x32, 0x39, 0x37, 0x00, 0x00, 0x00, 0x00,
  0x02, 0x00, 0x00, 0x00, 0x34, 0x00, 0x00, 0x00, 0x04, 0x00, 0x00, 0x00,
  0xdc, 0xff, 0xff, 0xff, 0x1d, 0x00, 0x00, 0x00, 0x04, 0x00, 0x00, 0x00,
  0x13, 0x00, 0x00, 0x00, 0x43, 0x4f, 0x4e, 0x56, 0x45, 0x52, 0x53, 0x49,
  0x4f, 0x4e, 0x5f, 0x4d, 0x45, 0x54, 0x41, 0x44, 0x41, 0x54, 0x41, 0x00,
  0x08, 0x00, 0x0c, 0x00, 0x08, 0x00, 0x04, 0x00, 0x08, 0x00, 0x00, 0x00,
  0x1c, 0x00, 0x00, 0x00, 0x04, 0x00, 0x00, 0x00, 0x13, 0x00, 0x00, 0x00,
  0x6d, 0x69, 0x6e, 0x5f, 0x72, 0x75, 0x6e, 0x74, 0x69, 0x6d, 0x65, 0x5f,
  0x76, 0x65, 0x72, 0x73, 0x69, 0x6f, 0x6e, 0x00, 0x1e, 0x00, 0x00, 0x00,
  0x70, 0x0d, 0x00, 0x00, 0x68, 0x0d, 0x00, 0x00, 0x50, 0x0d, 0x00, 0x00,
  0x38, 0x0d, 0x00, 0x00, 0x1c, 0x0d, 0x00, 0x00, 0x00, 0x0d, 0x00, 0x00,
  0xe4, 0x0c, 0x00, 0x00, 0xa4, 0x0c, 0x00, 0x00, 0x7c, 0x0c, 0x00, 0x00,
  0x5c, 0x01, 0x00, 0x00, 0x44, 0x01, 0x00, 0x00, 0x30, 0x01, 0x00, 0x00,
  0x18, 0x01, 0x00, 0x00, 0x04, 0x01, 0x00, 0x00, 0xfc, 0x00, 0x00, 0x00,
  0xf4, 0x00, 0x00, 0x00, 0xec, 0x00, 0x00, 0x00, 0xe4, 0x00, 0x00, 0x00,
  0xdc, 0x00, 0x00, 0x00, 0xd4, 0x00, 0x00, 0x00, 0xcc, 0x00, 0x00, 0x00,
  0xc4, 0x00, 0x00, 0x00, 0xbc, 0x00, 0x00, 0x00, 0xb4, 0x00, 0x00, 0x00,
  0xac, 0x00, 0x00, 0x00, 0xa4, 0x00, 0x00, 0x00, 0x9c, 0x00, 0x00, 0x00,
  0x94, 0x00, 0x00, 0x00, 0x74, 0x00, 0x00, 0x00, 0x04, 0x00, 0x00, 0x00,
  0x5e, 0xf2, 0xff, 0xff, 0x04, 0x00, 0x00, 0x00, 0x60, 0x00, 0x00, 0x00,
  0x0c, 0x00, 0x00, 0x00, 0x08, 0x00, 0x0e, 0x00, 0x08, 0x00, 0x04, 0x00,
  0x08, 0x00, 0x00, 0x00, 0x10, 0x00, 0x00, 0x00, 0x28, 0x00, 0x00, 0x00,
  0x00, 0x00, 0x06, 0x00, 0x08, 0x00, 0x04, 0x00, 0x06, 0x00, 0x00, 0x00,
  0x04, 0x00, 0x00, 0x00, 0x01, 0x00, 0x00, 0x00, 0xea, 0x03, 0x00, 0x00,
  0x0c, 0x00, 0x18, 0x00, 0x14, 0x00, 0x10, 0x00, 0x0c, 0x00, 0x04, 0x00,
  0x0c, 0x00, 0x00, 0x00, 0x32, 0x62, 0x71, 0x9d, 0x9b, 0x0d, 0xa2, 0xa3,
  0x02, 0x00, 0x00, 0x00, 0x02, 0x00, 0x00, 0x00, 0x04, 0x00, 0x00, 0x00,
  0x06, 0x00, 0x00, 0x00, 0x32, 0x2e, 0x31, 0x38, 0x2e, 0x30, 0x00, 0x00,
  0xca, 0xf2, 0xff, 0xff, 0x04, 0x00, 0x00, 0x00, 0x10, 0x00, 0x00, 0x00,
  0x31, 0x2e, 0x31, 0x30, 0x2e, 0x30, 0x00, 0x00, 0x00, 0x00, 0x00, 0x00,
  0x00, 0x00, 0x00, 0x00, 0x30, 0xe4, 0xff, 0xff, 0x34, 0xe4, 0xff, 0xff,
  0x38, 0xe4, 0xff, 0xff, 0x3c, 0xe4, 0xff, 0xff, 0x40, 0xe4, 0xff, 0xff,
  0x44, 0xe4, 0xff, 0xff, 0x48, 0xe4, 0xff, 0xff, 0x4c, 0xe4, 0xff, 0xff,
  0x50, 0xe4, 0xff, 0xff, 0x54, 0xe4, 0xff, 0xff, 0x58, 0xe4, 0xff, 0xff,
  0x5c, 0xe4, 0xff, 0xff, 0x60, 0xe4, 0xff, 0xff, 0x64, 0xe4, 0xff, 0xff,
  0x1e, 0xf3, 0xff, 0xff, 0x04, 0x00, 0x00, 0x00, 0x04, 0x00, 0x00, 0x00,
  0xfd, 0xff, 0xff, 0xff, 0x2e, 0xf3, 0xff, 0xff, 0x04, 0x00, 0x00, 0x00,
  0x08, 0x00, 0x00, 0x00, 0xff, 0xff, 0xff, 0xff, 0x62, 0x01, 0x00, 0x00,
  0x42, 0xf3, 0xff, 0xff, 0x04, 0x00, 0x00, 0x00, 0x04, 0x00, 0x00, 0x00,
  0x01, 0x00, 0x00, 0x00, 0x52, 0xf3, 0xff, 0xff, 0x04, 0x00, 0x00, 0x00,
  0x08, 0x00, 0x00, 0x00, 0x0d, 0xed, 0x37, 0xbd, 0x0f, 0xed, 0x37, 0x3d,
  0x66, 0xf3, 0xff, 0xff, 0x04, 0x00, 0x00, 0x00, 0x10, 0x0b, 0x00, 0x00,
  0xfb, 0x8c, 0x8f, 0xbb, 0x2d, 0x41, 0x8f, 0xbd, 0x8a, 0x83, 0x2e, 0xbc,
  0xc0, 0x39, 0xee, 0xbc, 0xef, 0x51, 0x10, 0xbe, 0x0d, 0x90, 0x45, 0xbe,
  0x44, 0xf6, 0x78, 0xbd, 0x83, 0x0e, 0xb1, 0x3d, 0x89, 0x4a, 0xda, 0xbc,
  0xa4, 0x71, 0x03, 0x3d, 0x97, 0xf7, 0x50, 0xbd, 0x70, 0x7c, 0x7b, 0x3b,
  0x51, 0x84, 0xf1, 0xbd, 0xea, 0x7f, 0xdf, 0x3c, 0x44, 0xb2, 0x20, 0xbe,
  0x1a, 0xf2, 0xbb, 0x3d, 0x20, 0x73, 0xfc, 0xbd, 0x23, 0xab, 0x81, 0xbe,
  0xbc, 0x44, 0x27, 0x3d, 0xcf, 0xe8, 0x7a, 0x3d, 0x77, 0x26, 0xc6, 0xbc,
  0xde, 0x79, 0xd4, 0x3d, 0xf7, 0x40, 0x86, 0xbd, 0xf7, 0x54, 0x2f, 0xbe,
  0xaa, 0xa4, 0x68, 0xbe, 0x7b, 0x1e, 0xd6, 0x3c, 0x5c, 0x53, 0x05, 0xbe,
  0xfe, 0x1c, 0x80, 0xbd, 0x2e, 0x34, 0x28, 0xbe, 0x5b, 0xe6, 0x51, 0xbe,
  0x6b, 0x98, 0x59, 0xbe, 0xff, 0xbf, 0x34, 0xbe, 0x75, 0xf9, 0x3e, 0xbe,
  0xc9, 0x6c, 0x1c, 0xbe, 0xda, 0x8d, 0x70, 0xbd, 0xde, 0xd8, 0xca, 0xbd,
  0xf6, 0x3d, 0x63, 0xbd, 0x67, 0xa9, 0xb9, 0xbd, 0x86, 0xc1, 0xf0, 0xbd,
  0xc0, 0xd9, 0x12, 0xbe, 0x44, 0x09, 0xc6, 0xbc, 0xda, 0xfd, 0x7c, 0xbe,
  0xd6, 0x7c, 0x84, 0x3d, 0xb0, 0x7b, 0x19, 0x3e, 0x06, 0x0f, 0x5b, 0xbe,
  0x8b, 0x79, 0x8e, 0x3e, 0xa4, 0x23, 0xa9, 0x3c, 0x06, 0x51, 0x40, 0xbe,
  0xbe, 0x3a, 0x13, 0x3e, 0x88, 0x9c, 0x52, 0x3e, 0x3a, 0x1f, 0x7c, 0xbe,
  0xe7, 0x0b, 0x8d, 0x3e, 0x45, 0x94, 0xa6, 0x3d, 0x41, 0xd8, 0x73, 0xbe,
  0x52, 0x8e, 0xb2, 0x3d, 0xda, 0xbd, 0x17, 0x3e, 0xc8, 0xd3, 0x06, 0xbe,
  0x52, 0x08, 0x46, 0x3e, 0x7b, 0xad, 0x83, 0x3e, 0x06, 0xca, 0xf8, 0x3d,
  0xde, 0xbe, 0x62, 0x3e, 0x50, 0x7c, 0x1a, 0x3e, 0xe8, 0x59, 0xe0, 0x3c,
  0xbd, 0x1c, 0x1f, 0x3e, 0x0a, 0xa3, 0x37, 0x3e, 0x1d, 0x4e, 0xe3, 0x3d,
  0xad, 0x8d, 0x21, 0x3e, 0x44, 0x5c, 0xc4, 0x3d, 0x41, 0x36, 0xbe, 0x3b,
  0x8c, 0x80, 0xd8, 0x3d, 0x1f, 0x9e, 0x8f, 0x3e, 0x4b, 0x6f, 0x82, 0x3e,
  0xd7, 0x97, 0x88, 0x3d, 0xc0, 0x35, 0x67, 0x3e, 0xef, 0xea, 0x0a, 0x3e,
  0xfd, 0xa5, 0x16, 0x3e, 0x91, 0xdd, 0x4f, 0x3e, 0x97, 0x5a, 0x9a, 0x3e,
  0xa2, 0xb1, 0x96, 0x3e, 0xa1, 0xae, 0x25, 0x3e, 0xec, 0x19, 0xbd, 0x3d,
  0x1c, 0x14, 0x93, 0x3d, 0x9a, 0x39, 0x00, 0x3e, 0x40, 0x7b, 0x7e, 0x3d,
  0xf2, 0x47, 0x91, 0x3e, 0xd8, 0xe1, 0x99, 0x3e, 0xde, 0xfe, 0x28, 0x3e,
  0x48, 0x6d, 0x01, 0x3e, 0xdd, 0x72, 0x17, 0x3e, 0x9f, 0xa4, 0x07, 0x3e,
  0x56, 0x1d, 0x96, 0x3d, 0x1e, 0xe6, 0x68, 0x3e, 0x38, 0xf1, 0xb8, 0x3c,
  0xae, 0xbe, 0x88, 0x3e, 0x12, 0x79, 0x47, 0x3e, 0x7f, 0x27, 0xfc, 0x3d,
  0xef, 0x53, 0x01, 0x3e, 0x65, 0x73, 0x21, 0x3e, 0xce, 0xad, 0xb7, 0x3d,
  0xc2, 0x9e, 0x99, 0x3d, 0x03, 0xe6, 0x85, 0x3e, 0x27, 0xaa, 0x52, 0x3e,
  0x58, 0xc3, 0x40, 0x3e, 0x68, 0x4b, 0x57, 0x3e, 0xa2, 0xd8, 0xf4, 0xbc,
  0xf4, 0x83, 0x4b, 0x3e, 0x6a, 0xde, 0x1b, 0x3e, 0xe9, 0x0b, 0x3f, 0x3e,
  0x70, 0x7e, 0xad, 0x3d, 0xc9, 0x36, 0x7f, 0x3e, 0xc2, 0x84, 0x89, 0xbd,
  0xe8, 0xb9, 0xe6, 0x3d, 0x77, 0xdf, 0x87, 0x3d, 0xa1, 0xcb, 0xde, 0x3d,
  0xfe, 0xd0, 0x2a, 0x3e, 0xa4, 0xa1, 0x88, 0x3e, 0xef, 0xce, 0x94, 0xbd,
  0x8d, 0x41, 0xa1, 0x3d, 0xc7, 0x06, 0x49, 0x3e, 0xe0, 0x7d, 0x00, 0x3e,
  0xc8, 0xd9, 0x01, 0x3d, 0xd8, 0xc9, 0xfe, 0x3d, 0xe8, 0xdc, 0x0e, 0xbd,
  0x19, 0x52, 0x77, 0xbc, 0x4b, 0x92, 0x0c, 0x3e, 0x36, 0x83, 0x3d, 0x3e,
  0xef, 0xd6, 0x64, 0x3e, 0x71, 0xcb, 0x76, 0x3d, 0x50, 0x89, 0xdd, 0x3d,
  0xf3, 0xa2, 0xa0, 0xbd, 0x74, 0xfe, 0x99, 0x3d, 0xc2, 0x66, 0x67, 0x3e,
  0x7f, 0xf9, 0x28, 0x3e, 0x8f, 0x89, 0x3d, 0x3e, 0x4f, 0x4a, 0x84, 0x3d,
  0x61, 0x0b, 0xe0, 0xbd, 0xcf, 0x2c, 0x31, 0x3e, 0x8b, 0xbd, 0x9d, 0x3d,
  0xda, 0x55, 0x4f, 0x3c, 0xda, 0x86, 0x8f, 0x3e, 0x52, 0xfa, 0x3e, 0x3d,
  0x82, 0xfa, 0xad, 0xbd, 0xdd, 0x0e, 0x6d, 0x3e, 0xe8, 0x4d, 0x41, 0xbd,
  0x7b, 0xc4, 0xb2, 0xbd, 0xbc, 0x3a, 0x68, 0x3e, 0x3c, 0x3e, 0x04, 0xbd,
  0x62, 0x7b, 0x42, 0xbe, 0x5c, 0xba, 0x04, 0x3e, 0xfc, 0x18, 0x58, 0xbe,
  0x3d, 0x2f, 0x3b, 0xbe, 0xd6, 0xf4, 0x45, 0x3e, 0xbe, 0xe5, 0x17, 0xbe,
  0xf2, 0x7b, 0x87, 0xbe, 0x1a, 0x92, 0xa2, 0x3d, 0x75, 0x03, 0x74, 0x3c,
  0xbc, 0x3d, 0x70, 0xbd, 0xcc, 0x68, 0x78, 0x3e, 0xf3, 0x1b, 0xb6, 0xbd,
  0x5c, 0xee, 0x03, 0xbe, 0xfe, 0x95, 0xad, 0x3d, 0x7b, 0xd6, 0x39, 0x3e,
  0x6a, 0x65, 0x65, 0x3e, 0xc9, 0x9c, 0x84, 0x3e, 0xae, 0x51, 0xef, 0xbc,
  0x2c, 0x86, 0x90, 0x3d, 0x68, 0xbe, 0x50, 0x3e, 0x30, 0x7c, 0x24, 0x3b,
  0x20, 0x7c, 0x74, 0x3e, 0x79, 0xe1, 0x8e, 0x3d, 0x4d, 0x0a, 0x70, 0x3e,
  0x90, 0xc6, 0x8e, 0x3d, 0xa4, 0xf7, 0x1e, 0x3e, 0xaa, 0xb4, 0x84, 0x3e,
  0xf3, 0xf7, 0x89, 0x3d, 0xe0, 0x61, 0x92, 0x3e, 0x6f, 0x7f, 0x0a, 0x3d,
  0x25, 0xf0, 0xac, 0x3b, 0x79, 0x36, 0xa0, 0x3d, 0x1f, 0x37, 0xa2, 0x3d,
  0x50, 0x62, 0xdb, 0x3d, 0xd8, 0xc3, 0x00, 0x3e, 0xbe, 0xda, 0x74, 0x3e,
  0xd3, 0xce, 0xaf, 0x3d, 0x6d, 0x4d, 0x93, 0x3e, 0xc4, 0x9d, 0x73, 0x3e,
  0x09, 0xd4, 0x88, 0x3e, 0xd8, 0x82, 0x8c, 0x3d, 0x91, 0x44, 0x5e, 0x3e,
  0xe5, 0xbc, 0xad, 0x3d, 0x82, 0x25, 0xf4, 0x3d, 0x93, 0x10, 0x6f, 0x3e,
  0x9b, 0xf2, 0x38, 0x3e, 0xc9, 0x8a, 0x66, 0x3e, 0x03, 0x04, 0x57, 0x3c,
  0x80, 0x3b, 0x83, 0x3d, 0xec, 0xb7, 0x2e, 0x3d, 0xfb, 0x30, 0x65, 0x3e,
  0xa9, 0x5f, 0xa6, 0x3d, 0xf8, 0x7b, 0x7e, 0x3e, 0x96, 0xd0, 0x3f, 0x3e,
  0xf2, 0x40, 0x0d, 0x3e, 0xa4, 0x00, 0x84, 0x3d, 0x41, 0x19, 0x0f, 0xbe,
  0xef, 0x71, 0x5a, 0xbd, 0xb7, 0x42, 0x14, 0x3d, 0xf3, 0x55, 0x0b, 0xbe,
  0x4f, 0xbf, 0x34, 0xbe, 0x0b, 0x0d, 0xa5, 0x3d, 0x0f, 0x92, 0x42, 0x3b,
  0xde, 0x8b, 0x47, 0x3d, 0x05, 0xef, 0x49, 0x3e, 0xa8, 0xac, 0x50, 0x3e,
  0xbd, 0xb8, 0x37, 0x3e, 0xab, 0xaa, 0x50, 0x3e, 0x01, 0x0a, 0x2c, 0x3d,
  0x36, 0x07, 0x29, 0x3d, 0x50, 0x1d, 0x25, 0x3e, 0x52, 0x8a, 0x0b, 0x3e,
  0x9d, 0x1d, 0xee, 0x3d, 0xa2, 0x2b, 0x3a, 0x3e, 0x5b, 0x3d, 0x32, 0x3e,
  0x58, 0x01, 0xbf, 0x3d, 0x97, 0x7d, 0xb0, 0x3d, 0xa4, 0x8f, 0x04, 0x3e,
  0xd8, 0xf2, 0x3a, 0x3e, 0xf4, 0xc9, 0xae, 0x3d, 0x20, 0x42, 0x0e, 0x3e,
  0x34, 0x3b, 0x83, 0xbd, 0x5e, 0xa2, 0x1a, 0x3e, 0xbc, 0x3a, 0xe8, 0xbd,
  0x08, 0x96, 0x11, 0x3e, 0x23, 0x0e, 0xd3, 0x3d, 0x30, 0x11, 0xee, 0xbd,
  0xf0, 0xb0, 0x12, 0xbe, 0xb6, 0x09, 0xc8, 0xbc, 0x0f, 0x6f, 0x69, 0xbd,
  0x16, 0x87, 0x63, 0xbd, 0xc0, 0x7d, 0x1e, 0xbe, 0xb5, 0xa3, 0x4a, 0xbe,
  0xbc, 0x3a, 0x31, 0xbe, 0xb3, 0x37, 0xc9, 0xbd, 0x68, 0x19, 0xa0, 0xbd,
  0xd8, 0x4d, 0xd7, 0xbd, 0xdd, 0x38, 0x10, 0xbe, 0x98, 0xbf, 0xcd, 0xbd,
  0x5c, 0xdb, 0x52, 0xbe, 0x06, 0x32, 0x36, 0xbe, 0x03, 0x5e, 0x20, 0xbe,
  0xcf, 0xf8, 0x66, 0xbe, 0xd5, 0xb6, 0xc7, 0xbd, 0x69, 0x01, 0x28, 0x3d,
  0x0f, 0x59, 0x3a, 0xbd, 0xde, 0xd8, 0xb7, 0xbc, 0x83, 0x8c, 0xc2, 0xbd,
  0xb7, 0x85, 0x15, 0xbe, 0x28, 0xd4, 0xbf, 0xbc, 0xc3, 0x31, 0x0c, 0xbe,
  0x9f, 0x33, 0x3c, 0xbd, 0x3f, 0x38, 0x31, 0xbe, 0xd7, 0xe5, 0x4e, 0xbe,
  0xb1, 0xfc, 0x29, 0xbe, 0xd7, 0x8d, 0x94, 0xbd, 0xe4, 0xe3, 0x85, 0xbe,
  0x78, 0xe2, 0xa9, 0xbd, 0xb3, 0xe0, 0x7f, 0xbe, 0x0e, 0x55, 0xa3, 0xbd,
  0x1a, 0xdb, 0xfd, 0xbc, 0xa5, 0x37, 0x89, 0xbe, 0x2e, 0xec, 0x54, 0xbe,
  0xbb, 0xce, 0x2c, 0xbe, 0x76, 0xea, 0x1f, 0xbd, 0x65, 0x9e, 0xa4, 0xbd,
  0xe2, 0xc0, 0x5c, 0xbe, 0xa2, 0x93, 0x27, 0xbe, 0x48, 0xaf, 0xce, 0xbd,
  0x5e, 0xb6, 0x5f, 0xbe, 0xe8, 0x3a, 0x12, 0xbe, 0xe0, 0xf3, 0x9e, 0xbc,
  0x5e, 0x03, 0xf7, 0xbd, 0x01, 0xa5, 0xfd, 0xbd, 0x74, 0xec, 0x69, 0xbd,
  0x67, 0x63, 0x75, 0xbd, 0xfc, 0x99, 0x44, 0xbd, 0x07, 0xaa, 0xf2, 0xbd,
  0x95, 0x67, 0x59, 0xbe, 0x04, 0xa7, 0x86, 0xbe, 0x6e, 0x96, 0x98, 0xbe,
  0x4c, 0xdd, 0x12, 0xbe, 0x6e, 0x40, 0x85, 0xbe, 0xb0, 0x5e, 0x9a, 0xbc,
  0x0f, 0x5f, 0xdb, 0xbd, 0x9b, 0x74, 0x6f, 0xbe, 0x21, 0x9d, 0x2d, 0xbe,
  0x6a, 0x0d, 0x4f, 0xbe, 0x76, 0xe2, 0x5b, 0xbe, 0x95, 0xfe, 0x82, 0xbd,
  0x70, 0x97, 0x91, 0x3d, 0x2e, 0x9a, 0x12, 0x3d, 0xeb, 0x59, 0x07, 0xbe,
  0x82, 0x5b, 0x64, 0xbd, 0x2a, 0x1f, 0x25, 0x3e, 0x2a, 0x3e, 0x02, 0xbe,
  0x81, 0x35, 0x0e, 0x3d, 0x78, 0xd9, 0x9c, 0xbd, 0xbc, 0x50, 0x8b, 0xbe,
  0xad, 0x6c, 0x57, 0xbe, 0x0a, 0xe4, 0x25, 0xbe, 0x48, 0x13, 0x83, 0xbd,
  0x8b, 0xd8, 0x39, 0xbe, 0x9f, 0xb5, 0x15, 0xbe, 0x7a, 0x91, 0x37, 0xbe,
  0x5c, 0x9b, 0x8e, 0xbd, 0xec, 0x28, 0x64, 0xbd, 0xf2, 0xb8, 0x83, 0xbd,
  0xc7, 0x49, 0xf9, 0xbd, 0xa8, 0x8c, 0xc6, 0xbd, 0xb6, 0x51, 0x5b, 0xbe,
  0x22, 0x65, 0x6d, 0xbe, 0xe2, 0xaf, 0x88, 0xbd, 0xae, 0x55, 0x53, 0xbb,
  0x58, 0xc2, 0x65, 0xbe, 0xa7, 0xf8, 0xcc, 0xbd, 0xe0, 0xe2, 0x63, 0xbd,
  0x95, 0x82, 0xc4, 0xbd, 0xf5, 0xd0, 0x24, 0xbe, 0x9a, 0xb8, 0xf8, 0xbd,
  0x9c, 0x48, 0x4c, 0xbd, 0x6e, 0x90, 0x2a, 0xbc, 0x36, 0xbf, 0x59, 0xbe,
  0xba, 0xf0, 0x3b, 0xbe, 0x64, 0xe7, 0x4e, 0xbe, 0x2d, 0x4a, 0xd7, 0xbd,
  0x84, 0xa7, 0x8b, 0xbd, 0x34, 0x7d, 0x11, 0x3c, 0x7e, 0xc6, 0x23, 0xbd,
  0xdb, 0x57, 0xc2, 0xbc, 0x7f, 0x8b, 0xc8, 0xbd, 0xf9, 0x7b, 0xa7, 0xbd,
  0xb7, 0xa1, 0xa7, 0xbd, 0x1c, 0xea, 0xcc, 0xbc, 0x71, 0xcf, 0x13, 0xbe,
  0xcb, 0x37, 0x01, 0xbe, 0x2a, 0x65, 0xbc, 0x3d, 0xa7, 0xea, 0x3a, 0xbe,
  0xc4, 0x84, 0x21, 0x3c, 0x67, 0x05, 0x49, 0x3d, 0xd6, 0x55, 0xd2, 0xbd,
  0xc5, 0x44, 0xc2, 0x3d, 0xb7, 0xf9, 0xfd, 0xbc, 0x14, 0x70, 0xd7, 0xbd,
  0xd6, 0xb3, 0x00, 0x3e, 0x84, 0xca, 0x52, 0x3c, 0x81, 0xa0, 0x2e, 0xbe,
  0x8d, 0xa3, 0x6c, 0xbc, 0x0b, 0xdd, 0xac, 0xbc, 0xfe, 0x14, 0x64, 0x3e,
  0x87, 0x2a, 0x45, 0x3d, 0x3c, 0xae, 0x75, 0x3b, 0x02, 0x63, 0x36, 0x3e,
  0x47, 0xb1, 0x62, 0x3d, 0x4d, 0x44, 0x81, 0x3d, 0x91, 0xdd, 0xf6, 0x3d,
  0x35, 0x4d, 0x06, 0x3e, 0x36, 0x46, 0xde, 0x3d, 0xb2, 0x67, 0x74, 0xbc,
  0x02, 0xa5, 0x3b, 0xbd, 0xaf, 0x9f, 0x3d, 0xbe, 0x11, 0x6b, 0xd9, 0x3d,
  0x3b, 0x01, 0x69, 0xbe, 0xd3, 0xdb, 0x4c, 0xbd, 0xab, 0x00, 0x1a, 0x3e,
  0x37, 0xdd, 0x9c, 0x3d, 0xdb, 0x6c, 0x36, 0xbe, 0xd4, 0x5f, 0x69, 0x3e,
  0x38, 0xa4, 0xd0, 0x3c, 0xea, 0x37, 0x49, 0x3e, 0x5f, 0xbb, 0x98, 0x3e,
  0xa5, 0xc0, 0xe1, 0x3d, 0x0c, 0x3a, 0x15, 0xbe, 0x53, 0x56, 0x60, 0x3d,
  0xd1, 0xdf, 0xf2, 0x3b, 0xf1, 0x24, 0x90, 0x3e, 0xa3, 0x34, 0xaa, 0x3e,
  0x85, 0x5f, 0x57, 0x3e, 0x84, 0x77, 0x87, 0x3e, 0xab, 0x8e, 0x5c, 0x3e,
  0x1c, 0x5b, 0x9c, 0x3e, 0xd1, 0x54, 0x9d, 0x3d, 0xbf, 0x8b, 0x3d, 0x3e,
  0x9d, 0x01, 0x70, 0x3e, 0x52, 0xab, 0xcc, 0xbd, 0x36, 0x5c, 0x6a, 0x3e,
  0x48, 0xa7, 0xf9, 0x3d, 0x1b, 0xad, 0x9a, 0xbc, 0xb7, 0x8e, 0x8b, 0x3d,
  0x26, 0xb0, 0xf9, 0xbc, 0x13, 0x8c, 0x6e, 0xbe, 0x35, 0xb1, 0xba, 0x3d,
  0xf9, 0xbd, 0x07, 0xbe, 0xbb, 0xac, 0x10, 0xbd, 0xf8, 0x57, 0xc1, 0x3d,
  0xec, 0x93, 0x9e, 0xbd, 0xbd, 0x6c, 0xb9, 0xbd, 0xec, 0x94, 0xfd, 0x3c,
  0x4f, 0x2b, 0x80, 0xbe, 0xe3, 0x7b, 0xad, 0xbd, 0xa2, 0x50, 0xa5, 0x3d,
  0x10, 0x8a, 0x68, 0xbe, 0xcd, 0x1c, 0x6c, 0xbe, 0xf5, 0xac, 0xa4, 0x3d,
  0xc6, 0xb3, 0x84, 0xbe, 0x8b, 0xb6, 0x1b, 0xbe, 0xde, 0x74, 0xb8, 0xbd,
  0x9d, 0xcb, 0x92, 0xbd, 0xf6, 0xf9, 0xe6, 0xbd, 0x8e, 0x05, 0x1d, 0xbe,
  0xd4, 0x19, 0x40, 0xbe, 0xbd, 0xe4, 0x61, 0xbe, 0xf9, 0x12, 0xab, 0xbd,
  0x2b, 0x8f, 0x94, 0xbe, 0x32, 0x5c, 0x6a, 0xbe, 0x75, 0x89, 0xbc, 0xbd,
  0x7b, 0x78, 0x40, 0xbe, 0x24, 0x25, 0xf8, 0xbd, 0xb2, 0xc4, 0x5b, 0xbe,
  0x8f, 0x90, 0x85, 0xbe, 0xf4, 0x19, 0xa8, 0xbd, 0x68, 0x0e, 0x14, 0xbe,
  0x07, 0xab, 0x38, 0xbe, 0xc6, 0xaf, 0x1b, 0xbe, 0xa0, 0xdd, 0xcc, 0xbd,
  0x5f, 0x84, 0x69, 0xbe, 0xab, 0x2b, 0x03, 0xbe, 0x66, 0x0f, 0x65, 0xbe,
  0x08, 0x5f, 0x7d, 0xbe, 0x67, 0xf0, 0x7f, 0xbe, 0xda, 0xbb, 0x00, 0xbe,
  0xdf, 0x25, 0x7b, 0xbe, 0x6e, 0x63, 0x9d, 0xbe, 0xd2, 0x23, 0x07, 0xbe,
  0x86, 0xbe, 0x4a, 0xbe, 0xfe, 0x02, 0x86, 0xbe, 0xb9, 0xfa, 0x8a, 0xbe,
  0xcc, 0x46, 0x9c, 0xbe, 0x6b, 0x8c, 0x32, 0xbe, 0xcc, 0x60, 0x43, 0xbe,
  0xc6, 0x8e, 0x1b, 0xbe, 0xc0, 0x24, 0xd9, 0xbd, 0xc9, 0x6a, 0x8a, 0xbd,
  0x9a, 0xe3, 0xf1, 0xbd, 0x17, 0x3a, 0x21, 0xbe, 0x26, 0xb5, 0x35, 0xbe,
  0xc0, 0x06, 0x14, 0xbe, 0x22, 0xf0, 0x38, 0xbe, 0x5e, 0xcd, 0xb6, 0xbd,
  0xc2, 0x38, 0xaf, 0xbc, 0x56, 0x30, 0x91, 0xbd, 0x5a, 0x67, 0x30, 0xbe,
  0xa6, 0x07, 0xb8, 0xbd, 0x89, 0x68, 0x53, 0xbe, 0x40, 0xe6, 0xdf, 0xbd,
  0xa5, 0x3c, 0x46, 0xbe, 0x81, 0xa5, 0x3c, 0xbe, 0xf7, 0xd3, 0xb7, 0x3d,
  0x97, 0xac, 0xb3, 0x3d, 0x8e, 0x05, 0x31, 0xbe, 0xf5, 0xf8, 0x89, 0xbe,
  0xdf, 0xa3, 0x6b, 0xbd, 0xcd, 0x75, 0x5b, 0xbe, 0x3e, 0x14, 0x0d, 0x3d,
  0x2b, 0x57, 0x08, 0xbe, 0x0a, 0xbe, 0x86, 0xbc, 0xd5, 0xc0, 0x7a, 0xbe,
  0x29, 0xd3, 0x01, 0xbd, 0x51, 0xf1, 0xe3, 0xbd, 0x37, 0x34, 0x1c, 0xbe,
  0xf7, 0x9a, 0xbd, 0x3d, 0x07, 0x0a, 0x21, 0xbd, 0x3c, 0x0b, 0x95, 0xbe,
  0xa5, 0x48, 0x0a, 0xbc, 0x5d, 0x22, 0x3e, 0xbe, 0xd7, 0x08, 0x0d, 0xbd,
  0x02, 0x45, 0x86, 0xbd, 0xa1, 0xcc, 0x81, 0xbd, 0xc1, 0xba, 0xf8, 0xbd,
  0xf9, 0x56, 0x37, 0xbe, 0x96, 0x8c, 0x4a, 0xbe, 0x28, 0x2e, 0x52, 0x3d,
  0x66, 0x04, 0x39, 0x3e, 0x18, 0x61, 0x61, 0xbe, 0xe5, 0x34, 0x69, 0xbe,
  0x17, 0x7f, 0x1d, 0xbe, 0xd6, 0x44, 0x09, 0xbe, 0x7a, 0xf3, 0xe5, 0x3a,
  0x3e, 0x16, 0xf6, 0x3d, 0xbf, 0x7a, 0x28, 0xbe, 0x0e, 0x67, 0x2c, 0x3e,
  0xd4, 0x98, 0x0a, 0x3e, 0xa6, 0xe7, 0xd0, 0xbd, 0x9a, 0xbe, 0x00, 0xbd,
  0xd7, 0x77, 0xbe, 0x3d, 0x00, 0x03, 0x98, 0x3c, 0x90, 0xb3, 0x7f, 0x3d,
  0x60, 0x75, 0xf4, 0x3d, 0x00, 0xc6, 0x61, 0xbe, 0xfb, 0x48, 0xbe, 0x3d,
  0x4f, 0x1d, 0x35, 0x3e, 0x9f, 0xf6, 0xa6, 0xbc, 0xa6, 0x4c, 0xb0, 0x3c,
  0x70, 0x55, 0x0e, 0xbe, 0x0c, 0x65, 0x1b, 0xbe, 0x72, 0x91, 0xce, 0x3d,
  0x25, 0xc8, 0x89, 0x3e, 0xa1, 0xa1, 0xe6, 0xbd, 0xfa, 0x14, 0xb0, 0x3c,
  0xdf, 0xc1, 0x1c, 0xbb, 0x46, 0x70, 0x41, 0xbe, 0x2b, 0xc0, 0xd0, 0xbc,
  0xa7, 0x99, 0xb4, 0x3d, 0xea, 0x7e, 0x48, 0xbe, 0x29, 0x74, 0x66, 0xbe,
  0xfb, 0x47, 0x4b, 0xbe, 0x80, 0x38, 0xda, 0xbd, 0xb6, 0xfb, 0x5d, 0x3b,
  0xb7, 0xbb, 0xa1, 0xbd, 0x77, 0x6d, 0x8c, 0xbe, 0x28, 0x3b, 0x76, 0xbe,
  0x24, 0xdd, 0x15, 0xbd, 0x0e, 0x3d, 0x92, 0xbd, 0xd3, 0xc2, 0x28, 0xbd,
  0x12, 0x09, 0x7e, 0xbe, 0xbb, 0xbf, 0x53, 0xbe, 0x5d, 0x74, 0x4d, 0xbe,
  0x02, 0x7c, 0x5c, 0xbe, 0xe8, 0x8b, 0x3c, 0xbe, 0x84, 0xd2, 0x35, 0xbd,
  0x06, 0x04, 0x4e, 0xbe, 0x7a, 0x94, 0x62, 0xbd, 0x31, 0x4d, 0x2f, 0xbe,
  0xaa, 0x25, 0x87, 0xbe, 0x25, 0xf4, 0x57, 0xbe, 0x32, 0x01, 0xc7, 0xbc,
  0xb8, 0x1c, 0x39, 0xbe, 0x2e, 0xb0, 0x88, 0xbe, 0xf1, 0xcc, 0x8b, 0xbe,
  0x57, 0x86, 0xd9, 0xbd, 0x38, 0xea, 0x08, 0xbe, 0x0f, 0xae, 0x41, 0xbe,
  0xae, 0xe3, 0xe7, 0xbd, 0xd8, 0xe6, 0x02, 0xbe, 0xce, 0x38, 0x53, 0xbe,
  0x41, 0xbe, 0x4a, 0xbe, 0xf1, 0x42, 0x39, 0xbe, 0x8a, 0x74, 0xfe, 0xbd,
  0x2e, 0xbb, 0x1e, 0xbd, 0x70, 0xcc, 0x87, 0x3d, 0x43, 0x27, 0xab, 0x3d,
  0x27, 0x23, 0x87, 0x3c, 0x8c, 0xbc, 0x5c, 0xbd, 0x88, 0x67, 0xea, 0xbc,
  0x72, 0x05, 0x2d, 0x3e, 0xe4, 0x00, 0x0f, 0x3b, 0xdd, 0x0c, 0x72, 0x3d,
  0x47, 0x69, 0x85, 0x3c, 0x72, 0x89, 0x2a, 0xbe, 0x4f, 0x76, 0x40, 0xbe,
  0x8b, 0x86, 0x0e, 0xbe, 0x3c, 0x36, 0xd2, 0xbb, 0x07, 0x19, 0x75, 0xbd,
  0xff, 0xf0, 0x48, 0xbe, 0x0d, 0x8e, 0x7a, 0xbe, 0xf5, 0x62, 0x54, 0xbe,
  0x8d, 0x2e, 0x42, 0xbe, 0x3a, 0xeb, 0x9c, 0xbb, 0x47, 0x62, 0xb5, 0x3c,
  0xf8, 0x9f, 0x60, 0xbc, 0xff, 0xda, 0xcd, 0xbc, 0x5b, 0x3e, 0xbb, 0xbb,
  0x83, 0x35, 0xfb, 0x3c, 0xe5, 0xa0, 0xe5, 0xbd, 0x86, 0x7d, 0x36, 0xbc,
  0x18, 0xe7, 0xd3, 0x3c, 0x87, 0xef, 0x3a, 0xbe, 0x2b, 0xa8, 0x0d, 0x3d,
  0x0b, 0x7d, 0x01, 0xbe, 0xdc, 0x58, 0x61, 0x3d, 0xfa, 0xdd, 0x94, 0x3d,
  0xe0, 0x6d, 0x59, 0x3e, 0x29, 0xec, 0x01, 0x3e, 0x51, 0x64, 0x15, 0x3e,
  0xf9, 0x80, 0xbb, 0x3d, 0x42, 0x6d, 0x69, 0x3e, 0x89, 0x28, 0x8a, 0x3c,
  0x53, 0x1a, 0x47, 0x3e, 0x5a, 0x89, 0x10, 0x3e, 0x50, 0xa9, 0xb3, 0xbb,
  0x20, 0x10, 0x35, 0x3d, 0x83, 0x23, 0x19, 0x3e, 0xf6, 0x89, 0x49, 0x3e,
  0x6b, 0x9c, 0x4c, 0xbb, 0x15, 0xf2, 0x34, 0x3e, 0x3d, 0xf5, 0x5c, 0xbd,
  0x05, 0xdc, 0x64, 0x3d, 0x31, 0xc6, 0x90, 0x3d, 0xdf, 0x39, 0x08, 0xbd,
  0x58, 0x1c, 0x89, 0x3e, 0x10, 0x8b, 0x84, 0x3e, 0x20, 0x90, 0x38, 0x3e,
  0x8d, 0xbf, 0x36, 0x3e, 0xa7, 0xa4, 0x3c, 0x3e, 0x42, 0x01, 0xd5, 0x3d,
  0xa3, 0x28, 0x19, 0x3e, 0x37, 0xbb, 0x82, 0x3e, 0x22, 0xe9, 0xea, 0x3d,
  0x19, 0xec, 0xc1, 0x3d, 0xd5, 0xfa, 0x6f, 0x3e, 0x6b, 0xc7, 0x9d, 0x3e,
  0x85, 0x82, 0x99, 0x3d, 0xf3, 0x1e, 0x50, 0x3e, 0x21, 0xcb, 0x6c, 0x3e,
  0x7e, 0xa9, 0x3b, 0x3e, 0x72, 0xfe, 0x81, 0x3e, 0x74, 0x27, 0x6a, 0x3e,
  0x26, 0x2c, 0x3a, 0x3e, 0xb2, 0x38, 0x29, 0x3e, 0xbf, 0xb9, 0x6a, 0x3e,
  0x8a, 0x7d, 0x88, 0x3d, 0xdf, 0xdb, 0xe1, 0x3d, 0x2e, 0x8b, 0x02, 0x3e,
  0x49, 0x5d, 0x82, 0x3e, 0x2f, 0x62, 0x35, 0x3d, 0x18, 0xd9, 0x90, 0xb8,
  0x6b, 0x6a, 0x8d, 0x3e, 0x8a, 0x4f, 0x05, 0x3e, 0x47, 0x5b, 0x94, 0x3d,
  0x0c, 0x1c, 0x2d, 0x3e, 0x24, 0x22, 0x9a, 0x3e, 0x5e, 0x41, 0xde, 0x3d,
  0x80, 0xf2, 0x89, 0x3e, 0xa6, 0xd5, 0x5f, 0x3e, 0xb1, 0x1f, 0x0f, 0x3e,
  0x42, 0x8b, 0xb8, 0x3c, 0xf3, 0x60, 0x2a, 0x3e, 0x54, 0xdc, 0x39, 0x3e,
  0x26, 0x48, 0xd5, 0x3d, 0x65, 0x28, 0x50, 0x3e, 0x46, 0xda, 0x81, 0x3e,
  0x34, 0x6a, 0x02, 0x3e, 0x2b, 0x6e, 0x3e, 0x3e, 0xf3, 0x35, 0xfc, 0x3d,
  0x10, 0xc2, 0x82, 0xbb, 0x3d, 0x13, 0xd8, 0x3c, 0xe0, 0x7e, 0x7b, 0x3c,
  0x6e, 0x9d, 0x8f, 0x3d, 0xc0, 0x53, 0xf0, 0xbc, 0x23, 0x06, 0xe0, 0x3d,
  0xc4, 0xea, 0x24, 0xbc, 0x3b, 0x50, 0xca, 0x3d, 0x3b, 0xe1, 0x5b, 0x3e,
  0x9a, 0xe2, 0x58, 0x3e, 0x95, 0xb1, 0x35, 0x3e, 0xc6, 0xf9, 0x27, 0x3e,
  0x32, 0xb8, 0x42, 0x3e, 0x7f, 0xfd, 0x86, 0x3c, 0x83, 0xac, 0x20, 0x3e,
  0x6a, 0xa9, 0x8b, 0x3e, 0x39, 0xce, 0x99, 0x3b, 0xa3, 0x0a, 0x99, 0x3d,
  0x2a, 0x04, 0x6d, 0x3e, 0xdc, 0x26, 0x8e, 0x3c, 0xb4, 0xaa, 0x1a, 0x3d,
  0x59, 0x94, 0x1e, 0x3e, 0x88, 0xda, 0x37, 0x3e, 0x67, 0x83, 0x92, 0x3d,
  0x0e, 0x76, 0x31, 0x3e, 0x4b, 0x22, 0x6a, 0x3e, 0x08, 0x9d, 0xaa, 0x3d,
  0xd8, 0xa6, 0x1c, 0x3d, 0xd6, 0x81, 0x81, 0x3d, 0x83, 0x4d, 0x04, 0x3e,
  0x71, 0x88, 0x15, 0x3e, 0xe1, 0x46, 0x68, 0x3e, 0x52, 0x4e, 0x61, 0x3e,
  0x4a, 0xff, 0x08, 0x3e, 0x44, 0x1c, 0x0d, 0x3d, 0x70, 0xc1, 0xb9, 0x3d,
  0xa7, 0xe9, 0x85, 0xbc, 0x3f, 0x2d, 0x08, 0xbe, 0x20, 0x68, 0xcd, 0x3d,
  0x8e, 0x13, 0x24, 0x3e, 0x52, 0xfc, 0xca, 0xbc, 0x43, 0xb6, 0x62, 0xbd,
  0x17, 0x71, 0x1f, 0xbc, 0x0e, 0x15, 0xe3, 0x3d, 0xe3, 0x37, 0xfa, 0x3d,
  0x99, 0xe3, 0x37, 0xbd, 0xb2, 0x6a, 0x96, 0xbc, 0x54, 0xeb, 0x58, 0x3c,
  0x52, 0x1e, 0x2e, 0xbe, 0xf0, 0x5b, 0x4b, 0xbc, 0xb6, 0xeb, 0x34, 0x3e,
  0x90, 0x1d, 0x7a, 0x3d, 0x01, 0x8f, 0x1e, 0xbe, 0xd6, 0xb8, 0x1b, 0x3e,
  0xab, 0x77, 0xc3, 0xbd, 0x17, 0x45, 0x88, 0x3d, 0xb8, 0xf0, 0xf9, 0x3d,
  0x82, 0xfe, 0xff, 0xff, 0x04, 0x00, 0x00, 0x00, 0x18, 0x00, 0x00, 0x00,
  0x1a, 0xa8, 0xfc, 0x3d, 0xd6, 0x42, 0x41, 0x3f, 0xe0, 0x98, 0xc4, 0xbd,
  0xab, 0xbc, 0x22, 0xbf, 0x00, 0xfd, 0x56, 0xbd, 0x68, 0xa1, 0x8f, 0x3d,
  0xa6, 0xfe, 0xff, 0xff, 0x04, 0x00, 0x00, 0x00, 0x30, 0x00, 0x00, 0x00,
  0xd6, 0xc4, 0xba, 0x3c, 0x98, 0x60, 0xf6, 0xbd, 0xdb, 0xd9, 0x96, 0x3e,
  0x3e, 0x41, 0xa2, 0xbe, 0xb5, 0x9c, 0x2c, 0x3f, 0xc8, 0x7a, 0x11, 0xbf,
  0xf2, 0x3b, 0x05, 0x3f, 0x07, 0xec, 0xe6, 0xbe, 0x4e, 0xa3, 0x04, 0xbf,
  0xe9, 0xf3, 0x26, 0xbf, 0x88, 0x47, 0xce, 0x3e, 0x76, 0xe9, 0xd5, 0x3e,
  0xe2, 0xfe, 0xff, 0xff, 0x04, 0x00, 0x00, 0x00, 0x0c, 0x00, 0x00, 0x00,
  0xff, 0xff, 0xff, 0xff, 0xc8, 0x02, 0x00, 0x00, 0x02, 0x00, 0x00, 0x00,
  0xfa, 0xfe, 0xff, 0xff, 0x04, 0x00, 0x00, 0x00, 0x0c, 0x00, 0x00, 0x00,
  0xff, 0xff, 0xff, 0xff, 0x64, 0x01, 0x00, 0x00, 0x02, 0x00, 0x00, 0x00,
  0x12, 0xff, 0xff, 0xff, 0x04, 0x00, 0x00, 0x00, 0x0c, 0x00, 0x00, 0x00,
  0xff, 0xff, 0xff, 0xff, 0x62, 0x01, 0x00, 0x00, 0x02, 0x00, 0x00, 0x00,
  0x2a, 0xff, 0xff, 0xff, 0x04, 0x00, 0x00, 0x00, 0x08, 0x00, 0x00, 0x00,
  0x3e, 0x68, 0x7e, 0xbd, 0x00, 0x00, 0x00, 0x00, 0x3e, 0xff, 0xff, 0xff,
  0x04, 0x00, 0x00, 0x00, 0x08, 0x00, 0x00, 0x00, 0x9e, 0x5c, 0x74, 0xbd,
  0x2a, 0x6a, 0x5e, 0xbd, 0x9c, 0xf0, 0xff, 0xff, 0xa0, 0xf0, 0xff, 0xff,
  0x0f, 0x00, 0x00, 0x00, 0x4d, 0x4c, 0x49, 0x52, 0x20, 0x43, 0x6f, 0x6e,
  0x76, 0x65, 0x72, 0x74, 0x65, 0x64, 0x2e, 0x00, 0x01, 0x00, 0x00, 0x00,
  0x14, 0x00, 0x00, 0x00, 0x00, 0x00, 0x0e, 0x00, 0x18, 0x00, 0x14, 0x00,
  0x10, 0x00, 0x0c, 0x00, 0x08, 0x00, 0x04, 0x00, 0x0e, 0x00, 0x00, 0x00,
  0x14, 0x00, 0x00, 0x00, 0x1c, 0x00, 0x00, 0x00, 0x50, 0x03, 0x00, 0x00,
  0x54, 0x03, 0x00, 0x00, 0x58, 0x03, 0x00, 0x00, 0x04, 0x00, 0x00, 0x00,
  0x6d, 0x61, 0x69, 0x6e, 0x00, 0x00, 0x00, 0x00, 0x0e, 0x00, 0x00, 0x00,
  0x08, 0x03, 0x00, 0x00, 0xa4, 0x02, 0x00, 0x00, 0x6c, 0x02, 0x00, 0x00,
  0x30, 0x02, 0x00, 0x00, 0xdc, 0x01, 0x00, 0x00, 0xb4, 0x01, 0x00, 0x00,
  0x84, 0x01, 0x00, 0x00, 0x3c, 0x01, 0x00, 0x00, 0x14, 0x01, 0x00, 0x00,
  0xe4, 0x00, 0x00, 0x00, 0xa0, 0x00, 0x00, 0x00, 0x78, 0x00, 0x00, 0x00,
  0x40, 0x00, 0x00, 0x00, 0x04, 0x00, 0x00, 0x00, 0x9e, 0xfd, 0xff, 0xff,
  0x1c, 0x00, 0x00, 0x00, 0x00, 0x00, 0x00, 0x09, 0x1c, 0x00, 0x00, 0x00,
  0x20, 0x00, 0x00, 0x00, 0x05, 0x00, 0x00, 0x00, 0x00, 0x00, 0x06, 0x00,
  0x08, 0x00, 0x04, 0x00, 0x06, 0x00, 0x00, 0x00, 0x00, 0x00, 0x80, 0x3f,
  0x01, 0x00, 0x00, 0x00, 0x1a, 0x00, 0x00, 0x00, 0x01, 0x00, 0x00, 0x00,
  0x19, 0x00, 0x00, 0x00, 0xd6, 0xfd, 0xff, 0xff, 0x14, 0x00, 0x00, 0x00,
  0x00, 0x00, 0x00, 0x08, 0x10, 0x00, 0x00, 0x00, 0x14, 0x00, 0x00, 0x00,
  0x04, 0x00, 0x00, 0x00, 0x80, 0xf1, 0xff, 0xff, 0x01, 0x00, 0x00, 0x00,
  0x19, 0x00, 0x00, 0x00, 0x03, 0x00, 0x00, 0x00, 0x18, 0x00, 0x00, 0x00,
  0x08, 0x00, 0x00, 0x00, 0x09, 0x00, 0x00, 0x00, 0x3a, 0xfe, 0xff, 0xff,
  0x0c, 0x00, 0x00, 0x00, 0x10, 0x00, 0x00, 0x00, 0x02, 0x00, 0x00, 0x00,
  0x01, 0x00, 0x00, 0x00, 0x18, 0x00, 0x00, 0x00, 0x02, 0x00, 0x00, 0x00,
  0x17, 0x00, 0x00, 0x00, 0x0b, 0x00, 0x00, 0x00, 0x2e, 0xfe, 0xff, 0xff,
  0x14, 0x00, 0x00, 0x00, 0x00, 0x00, 0x00, 0x05, 0x24, 0x00, 0x00, 0x00,
  0x28, 0x00, 0x00, 0x00, 0x03, 0x00, 0x00, 0x00, 0xda, 0xfe, 0xff, 0xff,
  0x01, 0x00, 0x00, 0x00, 0x02, 0x00, 0x00, 0x00, 0x01, 0x00, 0x00, 0x00,
  0x02, 0x00, 0x00, 0x00, 0x00, 0x00, 0x00, 0x01, 0x01, 0x00, 0x00, 0x00,
  0x17, 0x00, 0x00, 0x00, 0x01, 0x00, 0x00, 0x00, 0x16, 0x00, 0x00, 0x00,
  0x0e, 0xfe, 0xff, 0xff, 0x10, 0x00, 0x00, 0x00, 0x00, 0x00, 0x00, 0x34,
  0x0c, 0x00, 0x00, 0x00, 0x10, 0x00, 0x00, 0x00, 0x14, 0xf2, 0xff, 0xff,
  0x01, 0x00, 0x00, 0x00, 0x16, 0x00, 0x00, 0x00, 0x02, 0x00, 0x00, 0x00,
  0x15, 0x00, 0x00, 0x00, 0x0a, 0x00, 0x00, 0x00, 0xca, 0xfe, 0xff, 0xff,
  0x0c, 0x00, 0x00, 0x00, 0x10, 0x00, 0x00, 0x00, 0x02, 0x00, 0x00, 0x00,
  0x01, 0x00, 0x00, 0x00, 0x15, 0x00, 0x00, 0x00, 0x02, 0x00, 0x00, 0x00,
  0x14, 0x00, 0x00, 0x00, 0x03, 0x00, 0x00, 0x00, 0xbe, 0xfe, 0xff, 0xff,
  0x14, 0x00, 0x00, 0x00, 0x00, 0x00, 0x00, 0x01, 0x20, 0x00, 0x00, 0x00,
  0x24, 0x00, 0x00, 0x00, 0x01, 0x00, 0x00, 0x00, 0xb0, 0xfe, 0xff, 0xff,
  0x00, 0x00, 0x00, 0x01, 0x01, 0x00, 0x00, 0x00, 0x01, 0x00, 0x00, 0x00,
  0x00, 0x00, 0x00, 0x01, 0x01, 0x00, 0x00, 0x00, 0x14, 0x00, 0x00, 0x00,
  0x03, 0x00, 0x00, 0x00, 0x13, 0x00, 0x00, 0x00, 0x06, 0x00, 0x00, 0x00,
  0x01, 0x00, 0x00, 0x00, 0xa2, 0xfe, 0xff, 0xff, 0x10, 0x00, 0x00, 0x00,
  0x00, 0x00, 0x00, 0x34, 0x0c, 0x00, 0x00, 0x00, 0x10, 0x00, 0x00, 0x00,
  0xa8, 0xf2, 0xff, 0xff, 0x01, 0x00, 0x00, 0x00, 0x13, 0x00, 0x00, 0x00,
  0x02, 0x00, 0x00, 0x00, 0x12, 0x00, 0x00, 0x00, 0x0c, 0x00, 0x00, 0x00,
  0x5e, 0xff, 0xff, 0xff, 0x0c, 0x00, 0x00, 0x00, 0x10, 0x00, 0x00, 0x00,
  0x02, 0x00, 0x00, 0x00, 0x01, 0x00, 0x00, 0x00, 0x12, 0x00, 0x00, 0x00,
  0x02, 0x00, 0x00, 0x00, 0x11, 0x00, 0x00, 0x00, 0x04, 0x00, 0x00, 0x00,
  0x52, 0xff, 0xff, 0xff, 0x24, 0x00, 0x00, 0x00, 0x00, 0x00, 0x00, 0x05,
  0x34, 0x00, 0x00, 0x00, 0x38, 0x00, 0x00, 0x00, 0x03, 0x00, 0x00, 0x00,
  0x00, 0x00, 0x0e, 0x00, 0x18, 0x00, 0x17, 0x00, 0x10, 0x00, 0x0c, 0x00,
  0x08, 0x00, 0x04, 0x00, 0x0e, 0x00, 0x00, 0x00, 0x01, 0x00, 0x00, 0x00,
  0x02, 0x00, 0x00, 0x00, 0x01, 0x00, 0x00, 0x00, 0x02, 0x00, 0x00, 0x00,
  0x00, 0x00, 0x00, 0x01, 0x01, 0x00, 0x00, 0x00, 0x11, 0x00, 0x00, 0x00,
  0x01, 0x00, 0x00, 0x00, 0x10, 0x00, 0x00, 0x00, 0x42, 0xff, 0xff, 0xff,
  0x10, 0x00, 0x00, 0x00, 0x00, 0x00, 0x00, 0x34, 0x0c, 0x00, 0x00, 0x00,
  0x10, 0x00, 0x00, 0x00, 0x48, 0xf3, 0xff, 0xff, 0x01, 0x00, 0x00, 0x00,
  0x10, 0x00, 0x00, 0x00, 0x02, 0x00, 0x00, 0x00, 0x0f, 0x00, 0x00, 0x00,
  0x0a, 0x00, 0x00, 0x00, 0x00, 0x00, 0x0a, 0x00, 0x10, 0x00, 0x0c, 0x00,
  0x08, 0x00, 0x04, 0x00, 0x0a, 0x00, 0x00, 0x00, 0x0c, 0x00, 0x00, 0x00,
  0x10, 0x00, 0x00, 0x00, 0x02, 0x00, 0x00, 0x00, 0x01, 0x00, 0x00, 0x00,
  0x0f, 0x00, 0x00, 0x00, 0x02, 0x00, 0x00, 0x00, 0x0e, 0x00, 0x00, 0x00,
  0x05, 0x00, 0x00, 0x00, 0x00, 0x00, 0x0e, 0x00, 0x18, 0x00, 0x14, 0x00,
  0x10, 0x00, 0x0c, 0x00, 0x0b, 0x00, 0x04, 0x00, 0x0e, 0x00, 0x00, 0x00,
  0x20, 0x00, 0x00, 0x00, 0x00, 0x00, 0x00, 0x01, 0x2c, 0x00, 0x00, 0x00,
  0x30, 0x00, 0x00, 0x00, 0x01, 0x00, 0x00, 0x00, 0x0c, 0x00, 0x14, 0x00,
  0x13, 0x00, 0x0c, 0x00, 0x08, 0x00, 0x07, 0x00, 0x0c, 0x00, 0x00, 0x00,
  0x00, 0x00, 0x00, 0x01, 0x01, 0x00, 0x00, 0x00, 0x01, 0x00, 0x00, 0x00,
  0x00, 0x00, 0x00, 0x01, 0x01, 0x00, 0x00, 0x00, 0x0e, 0x00, 0x00, 0x00,
  0x03, 0x00, 0x00, 0x00, 0x0d, 0x00, 0x00, 0x00, 0x07, 0x00, 0x00, 0x00,
  0x02, 0x00, 0x00, 0x00, 0x00, 0x00, 0x0e, 0x00, 0x14, 0x00, 0x00, 0x00,
  0x10, 0x00, 0x0c, 0x00, 0x0b, 0x00, 0x04, 0x00, 0x0e, 0x00, 0x00, 0x00,
  0x10, 0x00, 0x00, 0x00, 0x00, 0x00, 0x00, 0x34, 0x0c, 0x00, 0x00, 0x00,
  0x10, 0x00, 0x00, 0x00, 0x14, 0xf4, 0xff, 0xff, 0x01, 0x00, 0x00, 0x00,
  0x0d, 0x00, 0x00, 0x00, 0x02, 0x00, 0x00, 0x00, 0x00, 0x00, 0x00, 0x00,
  0x0c, 0x00, 0x00, 0x00, 0x01, 0x00, 0x00, 0x00, 0x1a, 0x00, 0x00, 0x00,
  0x01, 0x00, 0x00, 0x00, 0x00, 0x00, 0x00, 0x00, 0x1b, 0x00, 0x00, 0x00,
  0x94, 0x0b, 0x00, 0x00, 0x40, 0x0b, 0x00, 0x00, 0xec, 0x0a, 0x00, 0x00,
  0xac, 0x0a, 0x00, 0x00, 0x54, 0x0a, 0x00, 0x00, 0x14, 0x0a, 0x00, 0x00,
  0xcc, 0x09, 0x00, 0x00, 0x84, 0x09, 0x00, 0x00, 0x44, 0x09, 0x00, 0x00,
  0x08, 0x09, 0x00, 0x00, 0xcc, 0x08, 0x00, 0x00, 0x88, 0x08, 0x00, 0x00,
  0x48, 0x08, 0x00, 0x00, 0xc4, 0x07, 0x00, 0x00, 0xd4, 0x06, 0x00, 0x00,
  0x14, 0x06, 0x00, 0x00, 0x8c, 0x05, 0x00, 0x00, 0x0c, 0x05, 0x00, 0x00,
  0x8c, 0x04, 0x00, 0x00, 0x08, 0x04, 0x00, 0x00, 0x18, 0x03, 0x00, 0x00,
  0x58, 0x02, 0x00, 0x00, 0xd0, 0x01, 0x00, 0x00, 0x50, 0x01, 0x00, 0x00,
  0xe8, 0x00, 0x00, 0x00, 0x60, 0x00, 0x00, 0x00, 0x04, 0x00, 0x00, 0x00,
  0xee, 0xf4, 0xff, 0xff, 0x00, 0x00, 0x00, 0x01, 0x14, 0x00, 0x00, 0x00,
  0x1c, 0x00, 0x00, 0x00, 0x1c, 0x00, 0x00, 0x00, 0x1b, 0x00, 0x00, 0x00,
  0x34, 0x00, 0x00, 0x00, 0x02, 0x00, 0x00, 0x00, 0xff, 0xff, 0xff, 0xff,
  0x02, 0x00, 0x00, 0x00, 0xd4, 0xf4, 0xff, 0xff, 0x1b, 0x00, 0x00, 0x00,
  0x53, 0x74, 0x61, 0x74, 0x65, 0x66, 0x75, 0x6c, 0x50, 0x61, 0x72, 0x74,
  0x69, 0x74, 0x69, 0x6f, 0x6e, 0x65, 0x64, 0x43, 0x61, 0x6c, 0x6c, 0x5f,
  0x31, 0x3a, 0x30, 0x00, 0x02, 0x00, 0x00, 0x00, 0x01, 0x00, 0x00, 0x00,
  0x02, 0x00, 0x00, 0x00, 0x46, 0xf5, 0xff, 0xff, 0x00, 0x00, 0x00, 0x01,
  0x14, 0x00, 0x00, 0x00, 0x1c, 0x00, 0x00, 0x00, 0x1c, 0x00, 0x00, 0x00,
  0x1a, 0x00, 0x00, 0x00, 0x60, 0x00, 0x00, 0x00, 0x02, 0x00, 0x00, 0x00,
  0xff, 0xff, 0xff, 0xff, 0x02, 0x00, 0x00, 0x00, 0x2c, 0xf5, 0xff, 0xff,
  0x44, 0x00, 0x00, 0x00, 0x73, 0x65, 0x71, 0x75, 0x65, 0x6e, 0x74, 0x69,
  0x61, 0x6c, 0x5f, 0x32, 0x31, 0x5f, 0x31, 0x2f, 0x64, 0x65, 0x6e, 0x73,
  0x65, 0x5f, 0x34, 0x33, 0x5f, 0x31, 0x2f, 0x4d, 0x61, 0x74, 0x4d, 0x75,
  0x6c, 0x3b, 0x73, 0x65, 0x71, 0x75, 0x65, 0x6e, 0x74, 0x69, 0x61, 0x6c,
  0x5f, 0x32, 0x31, 0x5f, 0x31, 0x2f, 0x64, 0x65, 0x6e, 0x73, 0x65, 0x5f,
  0x34, 0x33, 0x5f, 0x31, 0x2f, 0x42, 0x69, 0x61, 0x73, 0x41, 0x64, 0x64,
  0x00, 0x00, 0x00, 0x00, 0x02, 0x00, 0x00, 0x00, 0x01, 0x00, 0x00, 0x00,
  0x02, 0x00, 0x00, 0x00, 0xca, 0xf5, 0xff, 0xff, 0x00, 0x00, 0x00, 0x01,
  0x14, 0x00, 0x00, 0x00, 0x1c, 0x00, 0x00, 0x00, 0x1c, 0x00, 0x00, 0x00,
  0x19, 0x00, 0x00, 0x00, 0x40, 0x00, 0x00, 0x00, 0x02, 0x00, 0x00, 0x00,
  0xff, 0xff, 0xff, 0xff, 0x62, 0x01, 0x00, 0x00, 0xb0, 0xf5, 0xff, 0xff,
  0x24, 0x00, 0x00, 0x00, 0x73, 0x65, 0x71, 0x75, 0x65, 0x6e, 0x74, 0x69,
  0x61, 0x6c, 0x5f, 0x32, 0x31, 0x5f, 0x31, 0x2f, 0x66, 0x6c, 0x61, 0x74,
  0x74, 0x65, 0x6e, 0x5f, 0x31, 0x30, 0x5f, 0x31, 0x2f, 0x52, 0x65, 0x73,
  0x68, 0x61, 0x70, 0x65, 0x00, 0x00, 0x00, 0x00, 0x02, 0x00, 0x00, 0x00,
  0x01, 0x00, 0x00, 0x00, 0x62, 0x01, 0x00, 0x00, 0x2e, 0xf6, 0xff, 0xff,
  0x00, 0x00, 0x00, 0x01, 0x14, 0x00, 0x00, 0x00, 0x24, 0x00, 0x00, 0x00,
  0x24, 0x00, 0x00, 0x00, 0x18, 0x00, 0x00, 0x00, 0x50, 0x00, 0x00, 0x00,
  0x04, 0x00, 0x00, 0x00, 0xff, 0xff, 0xff, 0xff, 0x01, 0x00, 0x00, 0x00,
  0xb1, 0x00, 0x00, 0x00, 0x02, 0x00, 0x00, 0x00, 0x1c, 0xf6, 0xff, 0xff,
  0x2c, 0x00, 0x00, 0x00, 0x73, 0x65, 0x71, 0x75, 0x65, 0x6e, 0x74, 0x69,
  0x61, 0x6c, 0x5f, 0x32, 0x31, 0x5f, 0x31, 0x2f, 0x6d, 0x61, 0x78, 0x5f,
  0x70, 0x6f, 0x6f, 0x6c, 0x69, 0x6e, 0x67, 0x31, 0x64, 0x5f, 0x32, 0x31,
  0x5f, 0x31, 0x2f, 0x4d, 0x61, 0x78, 0x50, 0x6f, 0x6f, 0x6c, 0x31, 0x64,
  0x00, 0x00, 0x00, 0x00, 0x04, 0x00, 0x00, 0x00, 0x01, 0x00, 0x00, 0x00,
  0x01, 0x00, 0x00, 0x00, 0xb1, 0x00, 0x00, 0x00, 0x02, 0x00, 0x00, 0x00,
  0xaa, 0xf6, 0xff, 0xff, 0x00, 0x00, 0x00, 0x01, 0x14, 0x00, 0x00, 0x00,
  0x24, 0x00, 0x00, 0x00, 0x24, 0x00, 0x00, 0x00, 0x17, 0x00, 0x00, 0x00,
  0x58, 0x00, 0x00, 0x00, 0x04, 0x00, 0x00, 0x00, 0xff, 0xff, 0xff, 0xff,
  0x01, 0x00, 0x00, 0x00, 0x62, 0x01, 0x00, 0x00, 0x02, 0x00, 0x00, 0x00,
  0x98, 0xf6, 0xff, 0xff, 0x37, 0x00, 0x00, 0x00, 0x73, 0x65, 0x71, 0x75,
  0x65, 0x6e, 0x74, 0x69, 0x61, 0x6c, 0x5f, 0x32, 0x31, 0x5f, 0x31, 0x2f,
  0x6d, 0x61, 0x78, 0x5f, 0x70, 0x6f, 0x6f, 0x6c, 0x69, 0x6e, 0x67, 0x31,
  0x64, 0x5f, 0x32, 0x31, 0x5f, 0x31, 0x2f, 0x4d, 0x61, 0x78, 0x50, 0x6f,
  0x6f, 0x6c, 0x31, 0x64, 0x2f, 0x45, 0x78, 0x70, 0x61, 0x6e, 0x64, 0x44,
  0x69, 0x6d, 0x73, 0x00, 0x04, 0x00, 0x00, 0x00, 0x01, 0x00, 0x00, 0x00,
  0x01, 0x00, 0x00, 0x00, 0x62, 0x01, 0x00, 0x00, 0x02, 0x00, 0x00, 0x00,
  0x2e, 0xf7, 0xff, 0xff, 0x00, 0x00, 0x00, 0x01, 0x14, 0x00, 0x00, 0x00,
  0x20, 0x00, 0x00, 0x00, 0x20, 0x00, 0x00, 0x00, 0x16, 0x00, 0x00, 0x00,
  0x94, 0x00, 0x00, 0x00, 0x03, 0x00, 0x00, 0x00, 0xff, 0xff, 0xff, 0xff,
  0x62, 0x01, 0x00, 0x00, 0x02, 0x00, 0x00, 0x00, 0x18, 0xf7, 0xff, 0xff,
  0x75, 0x00, 0x00, 0x00, 0x73, 0x65, 0x71, 0x75, 0x65, 0x6e, 0x74, 0x69,
  0x61, 0x6c, 0x5f, 0x32, 0x31, 0x5f, 0x31, 0x2f, 0x63, 0x6f, 0x6e, 0x76,
  0x31, 0x64, 0x5f, 0x32, 0x31, 0x5f, 0x31, 0x2f, 0x52, 0x65, 0x6c, 0x75,
  0x3b, 0x73, 0x65, 0x71, 0x75, 0x65, 0x6e, 0x74, 0x69, 0x61, 0x6c, 0x5f,
  0x32, 0x31, 0x5f, 0x31, 0x2f, 0x63, 0x6f, 0x6e, 0x76, 0x31, 0x64, 0x5f,
  0x32, 0x31, 0x5f, 0x31, 0x2f, 0x42, 0x69, 0x61, 0x73, 0x41, 0x64, 0x64,
  0x3b, 0x73, 0x65, 0x71, 0x75, 0x65, 0x6e, 0x74, 0x69, 0x61, 0x6c, 0x5f,
  0x32, 0x31, 0x5f, 0x31, 0x2f, 0x63, 0x6f, 0x6e, 0x76, 0x31, 0x64, 0x5f,
  0x32, 0x31, 0x5f, 0x31, 0x2f, 0x63, 0x6f, 0x6e, 0x76, 0x6f, 0x6c, 0x75,
  0x74, 0x69, 0x6f, 0x6e, 0x2f, 0x53, 0x71, 0x75, 0x65, 0x65, 0x7a, 0x65,
  0x3b, 0x00, 0x00, 0x00, 0x03, 0x00, 0x00, 0x00, 0x01, 0x00, 0x00, 0x00,
  0x62, 0x01, 0x00, 0x00, 0x02, 0x00, 0x00, 0x00, 0xea, 0xf7, 0xff, 0xff,
  0x00, 0x00, 0x00, 0x01, 0x14, 0x00, 0x00, 0x00, 0x24, 0x00, 0x00, 0x00,
  0x24, 0x00, 0x00, 0x00, 0x15, 0x00, 0x00, 0x00, 0xc0, 0x00, 0x00, 0x00,
  0x04, 0x00, 0x00, 0x00, 0xff, 0xff, 0xff, 0xff, 0x01, 0x00, 0x00, 0x00,
  0x62, 0x01, 0x00, 0x00, 0x02, 0x00, 0x00, 0x00, 0xd8, 0xf7, 0xff, 0xff,
  0x9d, 0x00, 0x00, 0x00, 0x73, 0x65, 0x71, 0x75, 0x65, 0x6e, 0x74, 0x69,
  0x61, 0x6c, 0x5f, 0x32, 0x31, 0x5f, 0x31, 0x2f, 0x63, 0x6f, 0x6e, 0x76,
  0x31, 0x64, 0x5f, 0x32, 0x31, 0x5f, 0x31, 0x2f, 0x52, 0x65, 0x6c, 0x75,
  0x3b, 0x73, 0x65, 0x71, 0x75, 0x65, 0x6e, 0x74, 0x69, 0x61, 0x6c, 0x5f,
  0x32, 0x31, 0x5f, 0x31, 0x2f, 0x63, 0x6f, 0x6e, 0x76, 0x31, 0x64, 0x5f,
  0x32, 0x31, 0x5f, 0x31, 0x2f, 0x42, 0x69, 0x61, 0x73, 0x41, 0x64, 0x64,
  0x3b, 0x73, 0x65, 0x71, 0x75, 0x65, 0x6e, 0x74, 0x69, 0x61, 0x6c, 0x5f,
  0x32, 0x31, 0x5f, 0x31, 0x2f, 0x63, 0x6f, 0x6e, 0x76, 0x31, 0x64, 0x5f,
  0x32, 0x31, 0x5f, 0x31, 0x2f, 0x63, 0x6f, 0x6e, 0x76, 0x6f, 0x6c, 0x75,
  0x74, 0x69, 0x6f, 0x6e, 0x2f, 0x53, 0x71, 0x75, 0x65, 0x65, 0x7a, 0x65,
  0x3b, 0x3b, 0x73, 0x65, 0x71, 0x75, 0x65, 0x6e, 0x74, 0x69, 0x61, 0x6c,
  0x5f, 0x32, 0x31, 0x5f, 0x31, 0x2f, 0x63, 0x6f, 0x6e, 0x76, 0x31, 0x64,
  0x5f, 0x32, 0x31, 0x5f, 0x31, 0x2f, 0x63, 0x6f, 0x6e, 0x76, 0x6f, 0x6c,
  0x75, 0x74, 0x69, 0x6f, 0x6e, 0x00, 0x00, 0x00, 0x04, 0x00, 0x00, 0x00,
  0x01, 0x00, 0x00, 0x00, 0x01, 0x00, 0x00, 0x00, 0x62, 0x01, 0x00, 0x00,
  0x02, 0x00, 0x00, 0x00, 0xd6, 0xf8, 0xff, 0xff, 0x00, 0x00, 0x00, 0x01,
  0x14, 0x00, 0x00, 0x00, 0x24, 0x00, 0x00, 0x00, 0x24, 0x00, 0x00, 0x00,
  0x14, 0x00, 0x00, 0x00, 0x54, 0x00, 0x00, 0x00, 0x04, 0x00, 0x00, 0x00,
  0xff, 0xff, 0xff, 0xff, 0x01, 0x00, 0x00, 0x00, 0x64, 0x01, 0x00, 0x00,
  0x02, 0x00, 0x00, 0x00, 0xc4, 0xf8, 0xff, 0xff, 0x32, 0x00, 0x00, 0x00,
  0x73, 0x65, 0x71, 0x75, 0x65, 0x6e, 0x74, 0x69, 0x61, 0x6c, 0x5f, 0x32,
  0x31, 0x5f, 0x31, 0x2f, 0x63, 0x6f, 0x6e, 0x76, 0x31, 0x64, 0x5f, 0x32,
  0x31, 0x5f, 0x31, 0x2f, 0x63, 0x6f, 0x6e, 0x76, 0x6f, 0x6c, 0x75, 0x74,
  0x69, 0x6f, 0x6e, 0x2f, 0x45, 0x78, 0x70, 0x61, 0x6e, 0x64, 0x44, 0x69,
  0x6d, 0x73, 0x00, 0x00, 0x04, 0x00, 0x00, 0x00, 0x01, 0x00, 0x00, 0x00,
  0x01, 0x00, 0x00, 0x00, 0x64, 0x01, 0x00, 0x00, 0x02, 0x00, 0x00, 0x00,
  0x56, 0xf9, 0xff, 0xff, 0x00, 0x00, 0x00, 0x01, 0x14, 0x00, 0x00, 0x00,
  0x20, 0x00, 0x00, 0x00, 0x20, 0x00, 0x00, 0x00, 0x13, 0x00, 0x00, 0x00,
  0x54, 0x00, 0x00, 0x00, 0x03, 0x00, 0x00, 0x00, 0xff, 0xff, 0xff, 0xff,
  0x64, 0x01, 0x00, 0x00, 0x02, 0x00, 0x00, 0x00, 0x40, 0xf9, 0xff, 0xff,
  0x34, 0x00, 0x00, 0x00, 0x73, 0x65, 0x71, 0x75, 0x65, 0x6e, 0x74, 0x69,
  0x61, 0x6c, 0x5f, 0x32, 0x31, 0x5f, 0x31, 0x2f, 0x6d, 0x61, 0x78, 0x5f,
  0x70, 0x6f, 0x6f, 0x6c, 0x69, 0x6e, 0x67, 0x31, 0x64, 0x5f, 0x32, 0x30,
  0x5f, 0x31, 0x2f, 0x4d, 0x61, 0x78, 0x50, 0x6f, 0x6f, 0x6c, 0x31, 0x64,
  0x2f, 0x53, 0x71, 0x75, 0x65, 0x65, 0x7a, 0x65, 0x00, 0x00, 0x00, 0x00,
  0x03, 0x00, 0x00, 0x00, 0x01, 0x00, 0x00, 0x00, 0x64, 0x01, 0x00, 0x00,
  0x02, 0x00, 0x00, 0x00, 0xd2, 0xf9, 0xff, 0xff, 0x00, 0x00, 0x00, 0x01,
  0x14, 0x00, 0x00, 0x00, 0x24, 0x00, 0x00, 0x00, 0x24, 0x00, 0x00, 0x00,
  0x12, 0x00, 0x00, 0x00, 0x50, 0x00, 0x00, 0x00, 0x04, 0x00, 0x00, 0x00,
  0xff, 0xff, 0xff, 0xff, 0x01, 0x00, 0x00, 0x00, 0x64, 0x01, 0x00, 0x00,
  0x02, 0x00, 0x00, 0x00, 0xc0, 0xf9, 0xff, 0xff, 0x2c, 0x00, 0x00, 0x00,
  0x73, 0x65, 0x71, 0x75, 0x65, 0x6e, 0x74, 0x69, 0x61, 0x6c, 0x5f, 0x32,
  0x31, 0x5f, 0x31, 0x2f, 0x6d, 0x61, 0x78, 0x5f, 0x70, 0x6f, 0x6f, 0x6c,
  0x69, 0x6e, 0x67, 0x31, 0x64, 0x5f, 0x32, 0x30, 0x5f, 0x31, 0x2f, 0x4d,
  0x61, 0x78, 0x50, 0x6f, 0x6f, 0x6c, 0x31, 0x64, 0x00, 0x00, 0x00, 0x00,
  0x04, 0x00, 0x00, 0x00, 0x01, 0x00, 0x00, 0x00, 0x01, 0x00, 0x00, 0x00,
  0x64, 0x01, 0x00, 0x00, 0x02, 0x00, 0x00, 0x00, 0x4e, 0xfa, 0xff, 0xff,
  0x00, 0x00, 0x00, 0x01, 0x14, 0x00, 0x00, 0x00, 0x24, 0x00, 0x00, 0x00,
  0x24, 0x00, 0x00, 0x00, 0x11, 0x00, 0x00, 0x00, 0x58, 0x00, 0x00, 0x00,
  0x04, 0x00, 0x00, 0x00, 0xff, 0xff, 0xff, 0xff, 0x01, 0x00, 0x00, 0x00,
  0xc8, 0x02, 0x00, 0x00, 0x02, 0x00, 0x00, 0x00, 0x3c, 0xfa, 0xff, 0xff,
  0x37, 0x00, 0x00, 0x00, 0x73, 0x65, 0x71, 0x75, 0x65, 0x6e, 0x74, 0x69,
  0x61, 0x6c, 0x5f, 0x32, 0x31, 0x5f, 0x31, 0x2f, 0x6d, 0x61, 0x78, 0x5f,
  0x70, 0x6f, 0x6f, 0x6c, 0x69, 0x6e, 0x67, 0x31, 0x64, 0x5f, 0x32, 0x30,
  0x5f, 0x31, 0x2f, 0x4d, 0x61, 0x78, 0x50, 0x6f, 0x6f, 0x6c, 0x31, 0x64,
  0x2f, 0x45, 0x78, 0x70, 0x61, 0x6e, 0x64, 0x44, 0x69, 0x6d, 0x73, 0x00,
  0x04, 0x00, 0x00, 0x00, 0x01, 0x00, 0x00, 0x00, 0x01, 0x00, 0x00, 0x00,
  0xc8, 0x02, 0x00, 0x00, 0x02, 0x00, 0x00, 0x00, 0xd2, 0xfa, 0xff, 0xff,
  0x00, 0x00, 0x00, 0x01, 0x14, 0x00, 0x00, 0x00, 0x20, 0x00, 0x00, 0x00,
  0x20, 0x00, 0x00, 0x00, 0x10, 0x00, 0x00, 0x00, 0x94, 0x00, 0x00, 0x00,
  0x03, 0x00, 0x00, 0x00, 0xff, 0xff, 0xff, 0xff, 0xc8, 0x02, 0x00, 0x00,
  0x02, 0x00, 0x00, 0x00, 0xbc, 0xfa, 0xff, 0xff, 0x75, 0x00, 0x00, 0x00,
  0x73, 0x65, 0x71, 0x75, 0x65, 0x6e, 0x74, 0x69, 0x61, 0x6c, 0x5f, 0x32,
  0x31, 0x5f, 0x31, 0x2f, 0x63, 0x6f, 0x6e, 0x76, 0x31, 0x64, 0x5f, 0x32,
  0x30, 0x5f, 0x31, 0x2f, 0x52, 0x65, 0x6c, 0x75, 0x3b, 0x73, 0x65, 0x71,
  0x75, 0x65, 0x6e, 0x74, 0x69, 0x61, 0x6c, 0x5f, 0x32, 0x31, 0x5f, 0x31,
  0x2f, 0x63, 0x6f, 0x6e, 0x76, 0x31, 0x64, 0x5f, 0x32, 0x30, 0x5f, 0x31,
  0x2f, 0x42, 0x69, 0x61, 0x73, 0x41, 0x64, 0x64, 0x3b, 0x73, 0x65, 0x71,
  0x75, 0x65, 0x6e, 0x74, 0x69, 0x61, 0x6c, 0x5f, 0x32, 0x31, 0x5f, 0x31,
  0x2f, 0x63, 0x6f, 0x6e, 0x76, 0x31, 0x64, 0x5f, 0x32, 0x30, 0x5f, 0x31,
  0x2f, 0x63, 0x6f, 0x6e, 0x76, 0x6f, 0x6c, 0x75, 0x74, 0x69, 0x6f, 0x6e,
  0x2f, 0x53, 0x71, 0x75, 0x65, 0x65, 0x7a, 0x65, 0x3b, 0x00, 0x00, 0x00,
  0x03, 0x00, 0x00, 0x00, 0x01, 0x00, 0x00, 0x00, 0xc8, 0x02, 0x00, 0x00,
  0x02, 0x00, 0x00, 0x00, 0x8e, 0xfb, 0xff, 0xff, 0x00, 0x00, 0x00, 0x01,
  0x14, 0x00, 0x00, 0x00, 0x24, 0x00, 0x00, 0x00, 0x24, 0x00, 0x00, 0x00,
  0x0f, 0x00, 0x00, 0x00, 0xc0, 0x00, 0x00, 0x00, 0x04, 0x00, 0x00, 0x00,
  0xff, 0xff, 0xff, 0xff, 0x01, 0x00, 0x00, 0x00, 0xc8, 0x02, 0x00, 0x00,
  0x02, 0x00, 0x00, 0x00, 0x7c, 0xfb, 0xff, 0xff, 0x9d, 0x00, 0x00, 0x00,
  0x73, 0x65, 0x71, 0x75, 0x65, 0x6e, 0x74, 0x69, 0x61, 0x6c, 0x5f, 0x32,
  0x31, 0x5f, 0x31, 0x2f, 0x63, 0x6f, 0x6e, 0x76, 0x31, 0x64, 0x5f, 0x32,
  0x30, 0x5f, 0x31, 0x2f, 0x52, 0x65, 0x6c, 0x75, 0x3b, 0x73, 0x65, 0x71,
  0x75, 0x65, 0x6e, 0x74, 0x69, 0x61, 0x6c, 0x5f, 0x32, 0x31, 0x5f, 0x31,
  0x2f, 0x63, 0x6f, 0x6e, 0x76, 0x31, 0x64, 0x5f, 0x32, 0x30, 0x5f, 0x31,
  0x2f, 0x42, 0x69, 0x61, 0x73, 0x41, 0x64, 0x64, 0x3b, 0x73, 0x65, 0x71,
  0x75, 0x65, 0x6e, 0x74, 0x69, 0x61, 0x6c, 0x5f, 0x32, 0x31, 0x5f, 0x31,
  0x2f, 0x63, 0x6f, 0x6e, 0x76, 0x31, 0x64, 0x5f, 0x32, 0x30, 0x5f, 0x31,
  0x2f, 0x63, 0x6f, 0x6e, 0x76, 0x6f, 0x6c, 0x75, 0x74, 0x69, 0x6f, 0x6e,
  0x2f, 0x53, 0x71, 0x75, 0x65, 0x65, 0x7a, 0x65, 0x3b, 0x3b, 0x73, 0x65,
  0x71, 0x75, 0x65, 0x6e, 0x74, 0x69, 0x61, 0x6c, 0x5f, 0x32, 0x31, 0x5f,
  0x31, 0x2f, 0x63, 0x6f, 0x6e, 0x76, 0x31, 0x64, 0x5f, 0x32, 0x30, 0x5f,
  0x31, 0x2f, 0x63, 0x6f, 0x6e, 0x76, 0x6f, 0x6c, 0x75, 0x74, 0x69, 0x6f,
  0x6e, 0x00, 0x00, 0x00, 0x04, 0x00, 0x00, 0x00, 0x01, 0x00, 0x00, 0x00,
  0x01, 0x00, 0x00, 0x00, 0xc8, 0x02, 0x00, 0x00, 0x02, 0x00, 0x00, 0x00,
  0x7a, 0xfc, 0xff, 0xff, 0x00, 0x00, 0x00, 0x01, 0x14, 0x00, 0x00, 0x00,
  0x24, 0x00, 0x00, 0x00, 0x24, 0x00, 0x00, 0x00, 0x0e, 0x00, 0x00, 0x00,
  0x54, 0x00, 0x00, 0x00, 0x04, 0x00, 0x00, 0x00, 0xff, 0xff, 0xff, 0xff,
  0x01, 0x00, 0x00, 0x00, 0xca, 0x02, 0x00, 0x00, 0x01, 0x00, 0x00, 0x00,
  0x68, 0xfc, 0xff, 0xff, 0x32, 0x00, 0x00, 0x00, 0x73, 0x65, 0x71, 0x75,
  0x65, 0x6e, 0x74, 0x69, 0x61, 0x6c, 0x5f, 0x32, 0x31, 0x5f, 0x31, 0x2f,
  0x63, 0x6f, 0x6e, 0x76, 0x31, 0x64, 0x5f, 0x32, 0x30, 0x5f, 0x31, 0x2f,
  0x63, 0x6f, 0x6e, 0x76, 0x6f, 0x6c, 0x75, 0x74, 0x69, 0x6f, 0x6e, 0x2f,
  0x45, 0x78, 0x70, 0x61, 0x6e, 0x64, 0x44, 0x69, 0x6d, 0x73, 0x00, 0x00,
  0x04, 0x00, 0x00, 0x00, 0x01, 0x00, 0x00, 0x00, 0x01, 0x00, 0x00, 0x00,
  0xca, 0x02, 0x00, 0x00, 0x01, 0x00, 0x00, 0x00, 0xd6, 0xfd, 0xff, 0xff,
  0x00, 0x00, 0x00, 0x01, 0x14, 0x00, 0x00, 0x00, 0x14, 0x00, 0x00, 0x00,
  0x0d, 0x00, 0x00, 0x00, 0x00, 0x00, 0x00, 0x02, 0x20, 0x00, 0x00, 0x00,
  0xd4, 0xfc, 0xff, 0xff, 0x10, 0x00, 0x00, 0x00, 0x61, 0x72, 0x69, 0x74,
  0x68, 0x2e, 0x63, 0x6f, 0x6e, 0x73, 0x74, 0x61, 0x6e, 0x74, 0x31, 0x31,
  0x00, 0x00, 0x00, 0x00, 0x00, 0x00, 0x00, 0x00, 0x12, 0xfe, 0xff, 0xff,
  0x00, 0x00, 0x00, 0x01, 0x14, 0x00, 0x00, 0x00, 0x14, 0x00, 0x00, 0x00,
  0x0c, 0x00, 0x00, 0x00, 0x00, 0x00, 0x00, 0x02, 0x20, 0x00, 0x00, 0x00,
  0x10, 0xfd, 0xff, 0xff, 0x10, 0x00, 0x00, 0x00, 0x61, 0x72, 0x69, 0x74,
  0x68, 0x2e, 0x63, 0x6f, 0x6e, 0x73, 0x74, 0x61, 0x6e, 0x74, 0x31, 0x30,
  0x00, 0x00, 0x00, 0x00, 0x01, 0x00, 0x00, 0x00, 0x02, 0x00, 0x00, 0x00,
  0x52, 0xfe, 0xff, 0xff, 0x00, 0x00, 0x00, 0x01, 0x14, 0x00, 0x00, 0x00,
  0x14, 0x00, 0x00, 0x00, 0x0b, 0x00, 0x00, 0x00, 0x00, 0x00, 0x00, 0x02,
  0x1c, 0x00, 0x00, 0x00, 0x50, 0xfd, 0xff, 0xff, 0x0f, 0x00, 0x00, 0x00,
  0x61, 0x72, 0x69, 0x74, 0x68, 0x2e, 0x63, 0x6f, 0x6e, 0x73, 0x74, 0x61,
  0x6e, 0x74, 0x39, 0x00, 0x00, 0x00, 0x00, 0x00, 0xfe, 0xfd, 0xff, 0xff,
  0x00, 0x00, 0x00, 0x01, 0x10, 0x00, 0x00, 0x00, 0x10, 0x00, 0x00, 0x00,
  0x0a, 0x00, 0x00, 0x00, 0x1c, 0x00, 0x00, 0x00, 0x84, 0xfd, 0xff, 0xff,
  0x0f, 0x00, 0x00, 0x00, 0x61, 0x72, 0x69, 0x74, 0x68, 0x2e, 0x63, 0x6f,
  0x6e, 0x73, 0x74, 0x61, 0x6e, 0x74, 0x38, 0x00, 0x01, 0x00, 0x00, 0x00,
  0x02, 0x00, 0x00, 0x00, 0x36, 0xfe, 0xff, 0xff, 0x00, 0x00, 0x00, 0x01,
  0x10, 0x00, 0x00, 0x00, 0x10, 0x00, 0x00, 0x00, 0x09, 0x00, 0x00, 0x00,
  0x1c, 0x00, 0x00, 0x00, 0xbc, 0xfd, 0xff, 0xff, 0x0f, 0x00, 0x00, 0x00,
  0x61, 0x72, 0x69, 0x74, 0x68, 0x2e, 0x63, 0x6f, 0x6e, 0x73, 0x74, 0x61,
  0x6e, 0x74, 0x37, 0x00, 0x02, 0x00, 0x00, 0x00, 0x02, 0x00, 0x00, 0x00,
  0x62, 0x01, 0x00, 0x00, 0x72, 0xfe, 0xff, 0xff, 0x00, 0x00, 0x00, 0x01,
  0x10, 0x00, 0x00, 0x00, 0x10, 0x00, 0x00, 0x00, 0x08, 0x00, 0x00, 0x00,
  0x1c, 0x00, 0x00, 0x00, 0xf8, 0xfd, 0xff, 0xff, 0x0f, 0x00, 0x00, 0x00,
  0x61, 0x72, 0x69, 0x74, 0x68, 0x2e, 0x63, 0x6f, 0x6e, 0x73, 0x74, 0x61,
  0x6e, 0x74, 0x36, 0x00, 0x04, 0x00, 0x00, 0x00, 0x02, 0x00, 0x00, 0x00,
  0x01, 0x00, 0x00, 0x00, 0x03, 0x00, 0x00, 0x00, 0x01, 0x00, 0x00, 0x00,
  0xb6, 0xfe, 0xff, 0xff, 0x00, 0x00, 0x00, 0x01, 0x10, 0x00, 0x00, 0x00,
  0x10, 0x00, 0x00, 0x00, 0x07, 0x00, 0x00, 0x00, 0x1c, 0x00, 0x00, 0x00,
  0x3c, 0xfe, 0xff, 0xff, 0x0f, 0x00, 0x00, 0x00, 0x61, 0x72, 0x69, 0x74,
  0x68, 0x2e, 0x63, 0x6f, 0x6e, 0x73, 0x74, 0x61, 0x6e, 0x74, 0x35, 0x00,
  0x04, 0x00, 0x00, 0x00, 0x02, 0x00, 0x00, 0x00, 0x01, 0x00, 0x00, 0x00,
  0x03, 0x00, 0x00, 0x00, 0x02, 0x00, 0x00, 0x00, 0x86, 0xff, 0xff, 0xff,
  0x00, 0x00, 0x00, 0x01, 0x14, 0x00, 0x00, 0x00, 0x14, 0x00, 0x00, 0x00,
  0x06, 0x00, 0x00, 0x00, 0x00, 0x00, 0x00, 0x02, 0x1c, 0x00, 0x00, 0x00,
  0x84, 0xfe, 0xff, 0xff, 0x0f, 0x00, 0x00, 0x00, 0x61, 0x72, 0x69, 0x74,
  0x68, 0x2e, 0x63, 0x6f, 0x6e, 0x73, 0x74, 0x61, 0x6e, 0x74, 0x34, 0x00,
  0x01, 0x00, 0x00, 0x00, 0x03, 0x00, 0x00, 0x00, 0xc2, 0xff, 0xff, 0xff,
  0x00, 0x00, 0x00, 0x01, 0x14, 0x00, 0x00, 0x00, 0x14, 0x00, 0x00, 0x00,
  0x05, 0x00, 0x00, 0x00, 0x00, 0x00, 0x00, 0x02, 0x1c, 0x00, 0x00, 0x00,
  0xc0, 0xfe, 0xff, 0xff, 0x0f, 0x00, 0x00, 0x00, 0x61, 0x72, 0x69, 0x74,
  0x68, 0x2e, 0x63, 0x6f, 0x6e, 0x73, 0x74, 0x61, 0x6e, 0x74, 0x33, 0x00,
  0x01, 0x00, 0x00, 0x00, 0x03, 0x00, 0x00, 0x00, 0x00, 0x00, 0x16, 0x00,
  0x1c, 0x00, 0x18, 0x00, 0x17, 0x00, 0x10, 0x00, 0x0c, 0x00, 0x08, 0x00,
  0x00, 0x00, 0x00, 0x00, 0x00, 0x00, 0x07, 0x00, 0x16, 0x00, 0x00, 0x00,
  0x00, 0x00, 0x00, 0x01, 0x14, 0x00, 0x00, 0x00, 0x14, 0x00, 0x00, 0x00,
  0x04, 0x00, 0x00, 0x00, 0x00, 0x00, 0x00, 0x02, 0x1c, 0x00, 0x00, 0x00,
  0x14, 0xff, 0xff, 0xff, 0x0f, 0x00, 0x00, 0x00, 0x61, 0x72, 0x69, 0x74,
  0x68, 0x2e, 0x63, 0x6f, 0x6e, 0x73, 0x74, 0x61, 0x6e, 0x74, 0x32, 0x00,
  0x01, 0x00, 0x00, 0x00, 0x03, 0x00, 0x00, 0x00, 0xc6, 0xff, 0xff, 0xff,
  0x00, 0x00, 0x00, 0x01, 0x10, 0x00, 0x00, 0x00, 0x10, 0x00, 0x00, 0x00,
  0x03, 0x00, 0x00, 0x00, 0x1c, 0x00, 0x00, 0x00, 0x4c, 0xff, 0xff, 0xff,
  0x0f, 0x00, 0x00, 0x00, 0x61, 0x72, 0x69, 0x74, 0x68, 0x2e, 0x63, 0x6f,
  0x6e, 0x73, 0x74, 0x61, 0x6e, 0x74, 0x31, 0x00, 0x01, 0x00, 0x00, 0x00,
  0x02, 0x00, 0x00, 0x00, 0x00, 0x00, 0x16, 0x00, 0x18, 0x00, 0x14, 0x00,
  0x00, 0x00, 0x10, 0x00, 0x0c, 0x00, 0x08, 0x00, 0x00, 0x00, 0x00, 0x00,
  0x00, 0x00, 0x07, 0x00, 0x16, 0x00, 0x00, 0x00, 0x00, 0x00, 0x00, 0x01,
  0x10, 0x00, 0x00, 0x00, 0x10, 0x00, 0x00, 0x00, 0x02, 0x00, 0x00, 0x00,
  0x1c, 0x00, 0x00, 0x00, 0x9c, 0xff, 0xff, 0xff, 0x0e, 0x00, 0x00, 0x00,
  0x61, 0x72, 0x69, 0x74, 0x68, 0x2e, 0x63, 0x6f, 0x6e, 0x73, 0x74, 0x61,
  0x6e, 0x74, 0x00, 0x00, 0x01, 0x00, 0x00, 0x00, 0x02, 0x00, 0x00, 0x00,
  0x00, 0x00, 0x16, 0x00, 0x1c, 0x00, 0x18, 0x00, 0x00, 0x00, 0x14, 0x00,
  0x10, 0x00, 0x0c, 0x00, 0x00, 0x00, 0x00, 0x00, 0x08, 0x00, 0x07, 0x00,
  0x16, 0x00, 0x00, 0x00, 0x00, 0x00, 0x00, 0x01, 0x14, 0x00, 0x00, 0x00,
  0x24, 0x00, 0x00, 0x00, 0x24, 0x00, 0x00, 0x00, 0x01, 0x00, 0x00, 0x00,
  0x44, 0x00, 0x00, 0x00, 0x03, 0x00, 0x00, 0x00, 0xff, 0xff, 0xff, 0xff,
  0xca, 0x02, 0x00, 0x00, 0x01, 0x00, 0x00, 0x00, 0x04, 0x00, 0x04, 0x00,
  0x04, 0x00, 0x00, 0x00, 0x22, 0x00, 0x00, 0x00, 0x73, 0x65, 0x72, 0x76,
  0x69, 0x6e, 0x67, 0x5f, 0x64, 0x65, 0x66, 0x61, 0x75, 0x6c, 0x74, 0x5f,
  0x6b, 0x65, 0x72, 0x61, 0x73, 0x5f, 0x74, 0x65, 0x6e, 0x73, 0x6f, 0x72,
  0x5f, 0x32, 0x39, 0x37, 0x3a, 0x30, 0x00, 0x00, 0x03, 0x00, 0x00, 0x00,
  0x01, 0x00, 0x00, 0x00, 0xca, 0x02, 0x00, 0x00, 0x01, 0x00, 0x00, 0x00,
  0x06, 0x00, 0x00, 0x00, 0x60, 0x00, 0x00, 0x00, 0x44, 0x00, 0x00, 0x00,
  0x34, 0x00, 0x00, 0x00, 0x24, 0x00, 0x00, 0x00, 0x14, 0x00, 0x00, 0x00,
  0x04, 0x00, 0x00, 0x00, 0xc4, 0xff, 0xff, 0xff, 0x19, 0x00, 0x00, 0x00,
  0x00, 0x00, 0x00, 0x19, 0xd0, 0xff, 0xff, 0xff, 0x09, 0x00, 0x00, 0x00,
  0x00, 0x00, 0x00, 0x09, 0xdc, 0xff, 0xff, 0xff, 0x11, 0x00, 0x00, 0x00,
  0x00, 0x00, 0x00, 0x11, 0xe8, 0xff, 0xff, 0xff, 0x16, 0x00, 0x00, 0x00,
  0x00, 0x00, 0x00, 0x16, 0xf4, 0xff, 0xff, 0xff, 0x03, 0x00, 0x00, 0x00,
  0x00, 0x00, 0x00, 0x03, 0x0c, 0x00, 0x0c, 0x00, 0x0b, 0x00, 0x00, 0x00,
  0x00, 0x00, 0x04, 0x00, 0x0c, 0x00, 0x00, 0x00, 0x46, 0x00, 0x00, 0x00,
  0x00, 0x00, 0x00, 0x46
};

#endif //GESTURE_MODEL_H