#ifndef GESTURE_MODEL_H
#define GESTURE_MODEL_H


unsigned int gesture_model_len = 8068;
unsigned char gesture_model[] = {
 0x1c, 0x00, 0x00, 0x00, 0x54, 0x46, 0x4c, 0x33, 0x14, 0x00, 0x20, 0x00,
  0x1c, 0x00, 0x18, 0x00, 0x14, 0x00, 0x10, 0x00, 0x0c, 0x00, 0x00, 0x00,
  0x08, 0x00, 0x04, 0x00, 0x14, 0x00, 0x00, 0x00, 0x1c, 0x00, 0x00, 0x00,
  0x90, 0x00, 0x00, 0x00, 0xe8, 0x00, 0x00, 0x00, 0x4c, 0x0f, 0x00, 0x00,
  0x5c, 0x0f, 0x00, 0x00, 0xe0, 0x1e, 0x00, 0x00, 0x03, 0x00, 0x00, 0x00,
  0x01, 0x00, 0x00, 0x00, 0x04, 0x00, 0x00, 0x00, 0x0e, 0xee, 0xff, 0xff,
  0x0c, 0x00, 0x00, 0x00, 0x1c, 0x00, 0x00, 0x00, 0x3c, 0x00, 0x00, 0x00,
  0x0f, 0x00, 0x00, 0x00, 0x73, 0x65, 0x72, 0x76, 0x69, 0x6e, 0x67, 0x5f,
  0x64, 0x65, 0x66, 0x61, 0x75, 0x6c, 0x74, 0x00, 0x01, 0x00, 0x00, 0x00,
  0x04, 0x00, 0x00, 0x00, 0x8c, 0xff, 0xff, 0xff, 0x1a, 0x00, 0x00, 0x00,
  0x04, 0x00, 0x00, 0x00, 0x08, 0x00, 0x00, 0x00, 0x6f, 0x75, 0x74, 0x70,
  0x75, 0x74, 0x5f, 0x30, 0x00, 0x00, 0x00, 0x00, 0x01, 0x00, 0x00, 0x00,
  0x04, 0x00, 0x00, 0x00, 0x76, 0xf0, 0xff, 0xff, 0x04, 0x00, 0x00, 0x00,
  0x10, 0x00, 0x00, 0x00, 0x6b, 0x65, 0x72, 0x61, 0x73, 0x5f, 0x74, 0x65,
  0x6e, 0x73, 0x6f, 0x72, 0x5f, 0x34, 0x37, 0x31, 0x00, 0x00, 0x00, 0x00,
  0x02, 0x00, 0x00, 0x00, 0x34, 0x00, 0x00, 0x00, 0x04, 0x00, 0x00, 0x00,
  0xdc, 0xff, 0xff, 0xff, 0x1d, 0x00, 0x00, 0x00, 0x04, 0x00, 0x00, 0x00,
  0x13, 0x00, 0x00, 0x00, 0x43, 0x4f, 0x4e, 0x56, 0x45, 0x52, 0x53, 0x49,
  0x4f, 0x4e, 0x5f, 0x4d, 0x45, 0x54, 0x41, 0x44, 0x41, 0x54, 0x41, 0x00,
  0x08, 0x00, 0x0c, 0x00, 0x08, 0x00, 0x04, 0x00, 0x08, 0x00, 0x00, 0x00,
  0x1c, 0x00, 0x00, 0x00, 0x04, 0x00, 0x00, 0x00, 0x13, 0x00, 0x00, 0x00,
  0x6d, 0x69, 0x6e, 0x5f, 0x72, 0x75, 0x6e, 0x74, 0x69, 0x6d, 0x65, 0x5f,
  0x76, 0x65, 0x72, 0x73, 0x69, 0x6f, 0x6e, 0x00, 0x1e, 0x00, 0x00, 0x00,
  0x60, 0x0e, 0x00, 0x00, 0x58, 0x0e, 0x00, 0x00, 0x40, 0x0e, 0x00, 0x00,
  0x10, 0x0e, 0x00, 0x00, 0xf4, 0x0d, 0x00, 0x00, 0xd8, 0x0d, 0x00, 0x00,
  0xbc, 0x0d, 0x00, 0x00, 0xec, 0x0c, 0x00, 0x00, 0x7c, 0x0c, 0x00, 0x00,
  0x5c, 0x01, 0x00, 0x00, 0x44, 0x01, 0x00, 0x00, 0x30, 0x01, 0x00, 0x00,
  0x18, 0x01, 0x00, 0x00, 0x04, 0x01, 0x00, 0x00, 0xfc, 0x00, 0x00, 0x00,
  0xf4, 0x00, 0x00, 0x00, 0xec, 0x00, 0x00, 0x00, 0xe4, 0x00, 0x00, 0x00,
  0xdc, 0x00, 0x00, 0x00, 0xd4, 0x00, 0x00, 0x00, 0xcc, 0x00, 0x00, 0x00,
  0xc4, 0x00, 0x00, 0x00, 0xbc, 0x00, 0x00, 0x00, 0xb4, 0x00, 0x00, 0x00,
  0xac, 0x00, 0x00, 0x00, 0xa4, 0x00, 0x00, 0x00, 0x9c, 0x00, 0x00, 0x00,
  0x94, 0x00, 0x00, 0x00, 0x74, 0x00, 0x00, 0x00, 0x04, 0x00, 0x00, 0x00,
  0x6e, 0xf1, 0xff, 0xff, 0x04, 0x00, 0x00, 0x00, 0x60, 0x00, 0x00, 0x00,
  0x0c, 0x00, 0x00, 0x00, 0x08, 0x00, 0x0e, 0x00, 0x08, 0x00, 0x04, 0x00,
  0x08, 0x00, 0x00, 0x00, 0x10, 0x00, 0x00, 0x00, 0x28, 0x00, 0x00, 0x00,
  0x00, 0x00, 0x06, 0x00, 0x08, 0x00, 0x04, 0x00, 0x06, 0x00, 0x00, 0x00,
  0x04, 0x00, 0x00, 0x00, 0x01, 0x00, 0x00, 0x00, 0xea, 0x03, 0x00, 0x00,
  0x0c, 0x00, 0x18, 0x00, 0x14, 0x00, 0x10, 0x00, 0x0c, 0x00, 0x04, 0x00,
  0x0c, 0x00, 0x00, 0x00, 0xa0, 0xd6, 0x8f, 0xf4, 0x89, 0x7f, 0x9e, 0x77,
  0x02, 0x00, 0x00, 0x00, 0x02, 0x00, 0x00, 0x00, 0x04, 0x00, 0x00, 0x00,
  0x06, 0x00, 0x00, 0x00, 0x32, 0x2e, 0x31, 0x38, 0x2e, 0x30, 0x00, 0x00,
  0xda, 0xf1, 0xff, 0xff, 0x04, 0x00, 0x00, 0x00, 0x10, 0x00, 0x00, 0x00,
  0x31, 0x2e, 0x31, 0x30, 0x2e, 0x30, 0x00, 0x00, 0x00, 0x00, 0x00, 0x00,
  0x00, 0x00, 0x00, 0x00, 0x40, 0xe3, 0xff, 0xff, 0x44, 0xe3, 0xff, 0xff,
  0x48, 0xe3, 0xff, 0xff, 0x4c, 0xe3, 0xff, 0xff, 0x50, 0xe3, 0xff, 0xff,
  0x54, 0xe3, 0xff, 0xff, 0x58, 0xe3, 0xff, 0xff, 0x5c, 0xe3, 0xff, 0xff,
  0x60, 0xe3, 0xff, 0xff, 0x64, 0xe3, 0xff, 0xff, 0x68, 0xe3, 0xff, 0xff,
  0x6c, 0xe3, 0xff, 0xff, 0x70, 0xe3, 0xff, 0xff, 0x74, 0xe3, 0xff, 0xff,
  0x2e, 0xf2, 0xff, 0xff, 0x04, 0x00, 0x00, 0x00, 0x04, 0x00, 0x00, 0x00,
  0xfd, 0xff, 0xff, 0xff, 0x3e, 0xf2, 0xff, 0xff, 0x04, 0x00, 0x00, 0x00,
  0x08, 0x00, 0x00, 0x00, 0xff, 0xff, 0xff, 0xff, 0x62, 0x01, 0x00, 0x00,
  0x52, 0xf2, 0xff, 0xff, 0x04, 0x00, 0x00, 0x00, 0x04, 0x00, 0x00, 0x00,
  0x01, 0x00, 0x00, 0x00, 0x62, 0xf2, 0xff, 0xff, 0x04, 0x00, 0x00, 0x00,
  0x08, 0x00, 0x00, 0x00, 0x24, 0x8b, 0x8a, 0xbd, 0x21, 0x8b, 0x8a, 0x3d,
  0x76, 0xf2, 0xff, 0xff, 0x04, 0x00, 0x00, 0x00, 0x10, 0x0b, 0x00, 0x00,
  0xbf, 0x5b, 0xce, 0xbd, 0xd1, 0x11, 0x04, 0xbe, 0xf3, 0x2d, 0x46, 0x3c,
  0x12, 0xdb, 0xdb, 0xbd, 0xdf, 0x79, 0x58, 0x3e, 0x36, 0x3c, 0x32, 0xbe,
  0xfa, 0x3e, 0x96, 0xbd, 0x13, 0xbd, 0x0c, 0xbe, 0x63, 0x0e, 0x55, 0x3d,
  0x18, 0x7f, 0xc6, 0x3c, 0xa4, 0x0e, 0x75, 0x3e, 0x13, 0xaf, 0x14, 0xbe,
  0xd4, 0xb2, 0x36, 0xbd, 0x46, 0x92, 0x53, 0xbd, 0x74, 0xcd, 0x77, 0xbb,
  0x4f, 0x46, 0x69, 0x3d, 0x70, 0xb0, 0xef, 0x3d, 0xf2, 0x2e, 0x4e, 0xbe,
  0x16, 0x0c, 0xfc, 0xbd, 0x31, 0x40, 0xd4, 0xbd, 0xcb, 0x84, 0x4a, 0x3a,
  0x3c, 0x1e, 0xdc, 0xbd, 0xa6, 0xd2, 0x82, 0x3e, 0x31, 0xc7, 0x0d, 0xbe,
  0x06, 0x9b, 0x61, 0xbe, 0xf8, 0x70, 0x92, 0x3a, 0xfc, 0xca, 0x15, 0xbe,
  0x67, 0xef, 0xb4, 0xbd, 0x8a, 0x10, 0x71, 0x3e, 0xea, 0x00, 0x67, 0xbe,
  0x62, 0x6e, 0x12, 0xbe, 0x40, 0xd1, 0x82, 0xbe, 0xfb, 0x86, 0x8d, 0xbe,
  0xc7, 0x75, 0x49, 0xbe, 0x63, 0x91, 0xd9, 0x3d, 0x8a, 0xac, 0x49, 0xbe,
  0xa6, 0x86, 0x7f, 0xbd, 0x42, 0x88, 0x86, 0x3c, 0x82, 0xf2, 0x70, 0xbe,
  0xa0, 0x94, 0x5d, 0x3c, 0xa8, 0xa0, 0x63, 0x3e, 0x26, 0xcc, 0x5e, 0x3d,
  0x17, 0x70, 0x02, 0xbe, 0x73, 0x37, 0xda, 0x3d, 0xdd, 0x24, 0x35, 0xbe,
  0x58, 0xe1, 0x3b, 0xbc, 0xd1, 0x49, 0x8c, 0x3e, 0x79, 0x9d, 0xf0, 0x3d,
  0xdf, 0xf3, 0xfc, 0xbd, 0x2e, 0x13, 0xb7, 0xbd, 0x80, 0x4f, 0x7a, 0x3e,
  0x33, 0x94, 0x8c, 0x3d, 0x28, 0xe3, 0x9d, 0x3e, 0xeb, 0x63, 0x2a, 0x3e,
  0x2c, 0xfc, 0xa0, 0xbd, 0xa4, 0x90, 0x48, 0x3e, 0x80, 0x0c, 0x8e, 0x3e,
  0x72, 0xe4, 0xbb, 0x3c, 0xb8, 0x3d, 0x59, 0x3e, 0x3d, 0x7d, 0xe2, 0x3c,
  0xa4, 0xed, 0x4f, 0xbe, 0x29, 0x03, 0x19, 0x3e, 0xbe, 0x0c, 0x81, 0x3e,
  0xa1, 0x2c, 0x10, 0x3d, 0x66, 0x5f, 0xbc, 0x3d, 0xbd, 0x20, 0x33, 0x3e,
  0xa1, 0xc1, 0x30, 0xbe, 0x1f, 0x18, 0x9a, 0x3d, 0x2e, 0x4a, 0x97, 0x3d,
  0xbc, 0xd7, 0x29, 0x3d, 0x89, 0xa6, 0x59, 0x3e, 0xa5, 0xeb, 0xdd, 0x3d,
  0x64, 0x70, 0x3b, 0xbe, 0x62, 0xa9, 0x8a, 0x3e, 0x0e, 0x91, 0x32, 0x3e,
  0xf3, 0xe4, 0x19, 0x3e, 0xc1, 0x15, 0x9d, 0x3d, 0xe5, 0xc5, 0x5e, 0x3c,
  0x19, 0x1a, 0xd9, 0x3d, 0xe5, 0xfb, 0x73, 0x3e, 0xd2, 0x4e, 0x6f, 0x3e,
  0x3f, 0x6d, 0xce, 0x3d, 0x81, 0xf3, 0x80, 0x3e, 0x4a, 0x07, 0xd1, 0x3d,
  0xb8, 0xf7, 0x7b, 0x3d, 0x15, 0x56, 0x3a, 0x3e, 0x9e, 0x6a, 0x9a, 0x3d,
  0xbc, 0x10, 0x89, 0x3e, 0xae, 0x07, 0x9a, 0x3e, 0xed, 0x1e, 0x5c, 0x3e,
  0xf0, 0x06, 0x53, 0x3d, 0xc5, 0xe9, 0x82, 0x3c, 0xe0, 0xda, 0xa2, 0x3d,
  0x56, 0xa3, 0x1d, 0x3e, 0xaa, 0xb6, 0x1a, 0x3e, 0xe8, 0xf2, 0x4b, 0x3e,
  0xdc, 0x09, 0x9b, 0x3a, 0x08, 0xad, 0x17, 0x3e, 0x78, 0x33, 0xd3, 0x3d,
  0xe5, 0x87, 0x0f, 0x3e, 0xda, 0x67, 0x1c, 0x3e, 0x59, 0xc8, 0x8b, 0x3d,
  0x5e, 0x19, 0xe2, 0x3d, 0x5a, 0x72, 0xeb, 0x3c, 0xa9, 0x9c, 0x6c, 0x3e,
  0x96, 0xed, 0xed, 0x3d, 0xbc, 0xc4, 0x5b, 0x3e, 0x76, 0xf0, 0x27, 0x3e,
  0x38, 0xb6, 0xdb, 0x3d, 0xf5, 0x4f, 0xf2, 0x3d, 0xea, 0x45, 0x2e, 0x3e,
  0xef, 0xf1, 0xef, 0xbc, 0x7a, 0xd4, 0x61, 0x3d, 0x92, 0x92, 0x14, 0x3e,
  0xd5, 0x60, 0x32, 0x3e, 0x27, 0x2e, 0xa2, 0xbc, 0xbc, 0x6b, 0x11, 0x3e,
  0x17, 0x8f, 0xe5, 0x3d, 0xee, 0x25, 0x12, 0x3b, 0xcb, 0x31, 0xd6, 0x3d,
  0x2e, 0x68, 0x58, 0x3e, 0x32, 0x57, 0x6f, 0x3e, 0xf8, 0xce, 0x03, 0x3d,
  0x3a, 0x8e, 0xe1, 0xbc, 0x07, 0x8e, 0x51, 0x3c, 0x6a, 0x14, 0x15, 0x3d,
  0x17, 0x0a, 0x94, 0x3d, 0x11, 0x22, 0xd2, 0x3d, 0xb5, 0x5e, 0x54, 0x3d,
  0x0f, 0x16, 0xd4, 0x3d, 0x17, 0xc8, 0x9c, 0x3d, 0x68, 0x78, 0xf9, 0x3d,
  0xa2, 0x9b, 0x74, 0x3d, 0xec, 0xbe, 0x68, 0x3e, 0x0c, 0x49, 0x81, 0x3e,
  0xdb, 0x77, 0x82, 0x3d, 0xf3, 0x87, 0x5e, 0x3d, 0xce, 0x04, 0x07, 0x3e,
  0x6d, 0xdb, 0x46, 0x3e, 0x0e, 0xae, 0x51, 0x3e, 0xad, 0x61, 0x85, 0x3e,
  0xd2, 0x4b, 0xcd, 0x3c, 0xb5, 0xa9, 0xe2, 0x3d, 0x15, 0xf9, 0x46, 0xbd,
  0x20, 0x3c, 0xa0, 0xbd, 0x56, 0xf1, 0x93, 0x3d, 0xf3, 0xd1, 0x0d, 0x3e,
  0xe1, 0x3c, 0x72, 0x3d, 0x85, 0x26, 0xb5, 0xbc, 0xd7, 0x5a, 0x52, 0xbe,
  0x17, 0xbf, 0xbd, 0xbd, 0xc3, 0x30, 0xfc, 0x3d, 0xa9, 0x2d, 0x27, 0x3e,
  0xeb, 0x21, 0x63, 0xbe, 0x38, 0xaf, 0xd2, 0xbd, 0x6d, 0x30, 0x24, 0xbe,
  0x53, 0x88, 0x5f, 0x3d, 0xdc, 0xfe, 0x83, 0x3d, 0xdd, 0xcc, 0x0d, 0x3e,
  0xef, 0x0d, 0x22, 0xbe, 0x16, 0xb8, 0x37, 0xbe, 0x82, 0x7a, 0x02, 0xbe,
  0xbc, 0x41, 0x38, 0xbc, 0xa1, 0xd6, 0x0d, 0x3e, 0xdd, 0x4c, 0x76, 0x3e,
  0x4b, 0x5a, 0x3a, 0xbe, 0xad, 0xd3, 0x82, 0xbd, 0xfd, 0x3a, 0x99, 0x3d,
  0xa5, 0x93, 0x31, 0x3e, 0x8c, 0x07, 0xe1, 0x3d, 0x30, 0x57, 0xcf, 0x3d,
  0x27, 0x77, 0xb6, 0xbc, 0x89, 0xd4, 0xf4, 0xbd, 0x1a, 0x48, 0xf3, 0xbc,
  0x00, 0x76, 0xfc, 0x3c, 0x0a, 0xd6, 0x36, 0xbc, 0xb8, 0x54, 0xfa, 0x3d,
  0x2a, 0x57, 0xfc, 0xbc, 0xee, 0x48, 0x8d, 0xbe, 0xd5, 0x4a, 0x3b, 0x3d,
  0x68, 0x25, 0x47, 0x3e, 0xa0, 0x64, 0x1a, 0x39, 0x14, 0xb7, 0xa8, 0x3d,
  0x3e, 0xd7, 0xdf, 0x3d, 0xe8, 0x88, 0x3b, 0xbd, 0xb5, 0x34, 0x91, 0x3d,
  0xd9, 0xe3, 0x9b, 0x3d, 0x47, 0xc0, 0x9e, 0x3d, 0x02, 0xf3, 0x97, 0x3d,
  0x25, 0x5f, 0x55, 0x3c, 0xc6, 0xfe, 0x48, 0xbe, 0xe0, 0x21, 0xe7, 0x3d,
  0xec, 0xa4, 0xe8, 0x3d, 0x4d, 0xdc, 0xdf, 0x3d, 0x4a, 0xf5, 0x7d, 0x3d,
  0xe6, 0xda, 0x80, 0x3d, 0xf5, 0x73, 0x90, 0xbc, 0x2c, 0x31, 0x90, 0x3a,
  0x44, 0xf7, 0x87, 0x3d, 0x83, 0xf4, 0x5f, 0x3d, 0x7c, 0xc3, 0xd3, 0x3c,
  0x19, 0xaf, 0x0a, 0x3e, 0xd8, 0x73, 0x3d, 0x3d, 0x13, 0x54, 0x5f, 0xbe,
  0x1b, 0xef, 0xcd, 0x3c, 0xd6, 0x3a, 0xed, 0xbd, 0xcb, 0x12, 0xfc, 0x3d,
  0x6a, 0x56, 0x35, 0xbe, 0xbe, 0x45, 0x55, 0xbe, 0x2f, 0xdc, 0x85, 0xbd,
  0xe4, 0x2d, 0xc3, 0x3d, 0xda, 0x46, 0xd8, 0x3d, 0x35, 0xed, 0x3b, 0x3e,
  0xd1, 0x0f, 0xcf, 0xbc, 0x80, 0xc4, 0xd9, 0xbd, 0x02, 0x95, 0x08, 0xbe,
  0x02, 0x66, 0x52, 0x3e, 0x0f, 0xf5, 0xc3, 0x3c, 0xf3, 0xe4, 0x04, 0x3e,
  0xa4, 0xa4, 0x92, 0xbd, 0x9c, 0xf5, 0x26, 0xbd, 0xc7, 0x46, 0x23, 0x3d,
  0x8d, 0x0c, 0x4a, 0x3e, 0x03, 0x08, 0x59, 0x3d, 0xbd, 0x35, 0x6d, 0x3d,
  0x25, 0x54, 0xe2, 0x3d, 0xd6, 0xcc, 0xf9, 0xbc, 0x5d, 0x70, 0xe7, 0xbc,
  0xac, 0x74, 0x76, 0x3d, 0x08, 0x51, 0xf5, 0x3c, 0x3d, 0x2a, 0xee, 0x3d,
  0x75, 0x60, 0x4b, 0xbc, 0xd4, 0x9b, 0xf7, 0xbd, 0x7d, 0x27, 0x25, 0xbe,
  0x2f, 0x2e, 0x0d, 0x3e, 0xed, 0xc8, 0x62, 0xbe, 0x11, 0x5b, 0x12, 0x3e,
  0x0d, 0x4d, 0x4a, 0x3d, 0x52, 0xcb, 0xfa, 0xbd, 0xc1, 0xc5, 0x11, 0xbe,
  0x25, 0x2b, 0x7a, 0xbd, 0xb6, 0xaf, 0x32, 0x3c, 0x7e, 0x51, 0xa5, 0xbd,
  0xdd, 0x74, 0x2e, 0xbe, 0xce, 0xc5, 0xea, 0xbd, 0xb3, 0x88, 0x20, 0xbe,
  0xc9, 0x95, 0x57, 0xbd, 0x57, 0xcf, 0x4d, 0xbe, 0xe7, 0xf2, 0x04, 0xbe,
  0x81, 0x4b, 0x3a, 0xbe, 0xfc, 0x88, 0xa7, 0x3d, 0x43, 0x64, 0xf6, 0xbd,
  0x1a, 0x86, 0xf1, 0xba, 0x4e, 0xfa, 0x11, 0xbd, 0x59, 0x02, 0x8f, 0xbd,
  0x27, 0x79, 0x22, 0xbd, 0xb6, 0x69, 0x15, 0xbd, 0x7c, 0xc0, 0xa5, 0x3c,
  0xdf, 0xf4, 0x99, 0xbd, 0xa9, 0xd9, 0xe5, 0xbd, 0x31, 0x38, 0x3c, 0xbe,
  0x2f, 0x08, 0xb7, 0xbd, 0x84, 0xb7, 0x07, 0x3e, 0x5c, 0x27, 0x4c, 0xbe,
  0xd8, 0x1f, 0x02, 0xbe, 0xeb, 0x29, 0xcc, 0xbd, 0x78, 0xa7, 0x42, 0xbe,
  0xc5, 0x85, 0xef, 0x3d, 0x7c, 0x46, 0x2a, 0xbc, 0xf0, 0xb4, 0xbf, 0xbd,
  0xa2, 0x8b, 0x26, 0xbe, 0x11, 0xa1, 0x35, 0xbe, 0x6e, 0x98, 0x6f, 0xbe,
  0xe0, 0xed, 0x35, 0x3d, 0x47, 0x8b, 0x45, 0x3e, 0x9c, 0x88, 0x02, 0xbe,
  0xd9, 0x64, 0xc0, 0xbd, 0x33, 0xc1, 0x67, 0xbe, 0x09, 0x8b, 0x1d, 0xbe,
  0x24, 0x06, 0xfc, 0xbd, 0x9e, 0x8f, 0xcc, 0x3d, 0x90, 0xb5, 0x5b, 0xbe,
  0xf6, 0x60, 0xf5, 0xbd, 0x9d, 0xc3, 0x0c, 0xbe, 0x10, 0xcb, 0x0b, 0xbe,
  0x19, 0x99, 0x01, 0xbb, 0xad, 0x2c, 0x5c, 0x3d, 0x4b, 0xc5, 0x2b, 0xbe,
  0x9d, 0x93, 0x53, 0xbe, 0x17, 0x66, 0xa4, 0xbc, 0x56, 0xf4, 0xb0, 0xbd,
  0x2e, 0xdd, 0xdf, 0xbb, 0xf2, 0x23, 0x1b, 0x3e, 0x39, 0xd5, 0x7e, 0x3c,
  0x35, 0xfc, 0x98, 0xbd, 0xa1, 0xca, 0x6b, 0x3d, 0x7a, 0x26, 0xbc, 0x3c,
  0xa3, 0xfe, 0x91, 0x3d, 0x2f, 0x64, 0x3e, 0x3d, 0x7b, 0x8b, 0x85, 0xbc,
  0x00, 0x55, 0x0b, 0xbe, 0x8e, 0x22, 0x1b, 0xbe, 0xdf, 0x17, 0x0a, 0xbe,
  0x58, 0x1c, 0x64, 0x3d, 0x6b, 0xd3, 0x20, 0xbc, 0xce, 0x76, 0xe9, 0xbd,
  0xa8, 0x6a, 0x3f, 0xbe, 0xf8, 0x10, 0x07, 0xbe, 0xb7, 0x00, 0x2b, 0xbd,
  0x76, 0xe6, 0x26, 0xbe, 0x0b, 0x28, 0xa6, 0x3c, 0x0d, 0xe6, 0xbc, 0xbd,
  0x8a, 0x52, 0x1e, 0xbe, 0x13, 0xf6, 0x53, 0xbe, 0xac, 0xa7, 0x93, 0xbd,
  0x0a, 0x70, 0x16, 0xbe, 0x48, 0xee, 0x00, 0x3e, 0x4e, 0x12, 0x12, 0xbc,
  0xa0, 0xbb, 0xdc, 0xbd, 0x16, 0x8d, 0x14, 0xbb, 0x00, 0x04, 0x0d, 0xbe,
  0x7c, 0xa4, 0x08, 0x3d, 0xb1, 0xc2, 0xbb, 0xbc, 0xe3, 0x16, 0xcf, 0xbd,
  0x8d, 0xce, 0x01, 0xbe, 0xa4, 0x76, 0x8c, 0xbc, 0x8c, 0x33, 0x6c, 0xbe,
  0x89, 0x91, 0xd7, 0x3c, 0x00, 0x83, 0xf3, 0x3c, 0x46, 0xe1, 0xf4, 0xbd,
  0xed, 0x30, 0x19, 0xbe, 0x3c, 0x39, 0x7d, 0xbc, 0xcc, 0xd4, 0x0f, 0xbd,
  0x35, 0x95, 0x13, 0x3e, 0x15, 0x7c, 0x2f, 0x3d, 0x1c, 0xde, 0xe7, 0xbd,
  0x45, 0xaf, 0x8e, 0xbd, 0xdc, 0x41, 0x79, 0x3d, 0x6f, 0xb3, 0x81, 0xbc,
  0x3b, 0x8f, 0x7d, 0xbd, 0xc2, 0xfe, 0x1d, 0x3e, 0xdd, 0x34, 0x3c, 0x3c,
  0xb2, 0x21, 0x45, 0xbd, 0xcf, 0xc7, 0x56, 0x3d, 0x7c, 0x9a, 0xbc, 0x3c,
  0x56, 0xcd, 0xc0, 0xbc, 0xea, 0xf0, 0x32, 0x3e, 0x13, 0x66, 0x02, 0xbe,
  0x78, 0x0c, 0x75, 0x3c, 0x16, 0x3d, 0x13, 0xbb, 0x19, 0x50, 0x85, 0x3d,
  0x72, 0xe3, 0xd2, 0x3d, 0xd6, 0x8a, 0x97, 0xbb, 0x92, 0x62, 0x95, 0xbb,
  0x43, 0xb5, 0x6c, 0x3d, 0x90, 0x98, 0x96, 0x3d, 0x31, 0xaf, 0xdf, 0x3c,
  0x57, 0xd2, 0x10, 0x3e, 0x9f, 0x3f, 0x58, 0xbe, 0xb0, 0x80, 0x2e, 0x3e,
  0x74, 0x2a, 0xa4, 0x3d, 0x03, 0xc5, 0x99, 0xbc, 0x2a, 0xd8, 0x0d, 0xbd,
  0xdc, 0x4f, 0x9c, 0x3d, 0x50, 0x7f, 0x3d, 0xbe, 0xc5, 0x8f, 0x4f, 0x3e,
  0xd0, 0xab, 0xbd, 0x3d, 0xac, 0x19, 0x8d, 0x3d, 0xd7, 0xa7, 0x4e, 0x3b,
  0x86, 0x46, 0x1f, 0xbd, 0x33, 0x48, 0x03, 0xbe, 0x3d, 0x80, 0x08, 0x3d,
  0x6e, 0x5c, 0x9d, 0x3d, 0x67, 0x49, 0xae, 0x3d, 0xf4, 0xc0, 0x03, 0xbe,
  0xda, 0x38, 0xce, 0xbd, 0x65, 0x96, 0x86, 0xbe, 0xcd, 0xc6, 0xea, 0x3d,
  0xc6, 0x1b, 0x68, 0x3d, 0xdf, 0x83, 0x2d, 0x3e, 0xae, 0x6f, 0x29, 0x3b,
  0xe3, 0xf0, 0x68, 0x3c, 0xb0, 0x96, 0x65, 0xbe, 0xbb, 0x64, 0x7a, 0x3e,
  0x28, 0xb6, 0x58, 0x3e, 0xb1, 0xef, 0x2c, 0x3d, 0x71, 0x10, 0x9a, 0x3e,
  0x10, 0xae, 0xfc, 0x3c, 0xeb, 0x35, 0x7e, 0xbd, 0x78, 0xa8, 0xf6, 0xbc,
  0xea, 0x9c, 0xf7, 0x3d, 0x43, 0x88, 0x3d, 0x3d, 0x10, 0x1a, 0x35, 0x3e,
  0xc9, 0x01, 0x1c, 0x3d, 0xd9, 0x2b, 0x2b, 0xbe, 0xb9, 0x8a, 0x20, 0x3e,
  0x71, 0x81, 0x59, 0x3d, 0x5b, 0x06, 0xb2, 0xbd, 0xdb, 0x65, 0x25, 0xbc,
  0xc1, 0xbb, 0xbd, 0x3d, 0xaf, 0x94, 0x43, 0xbe, 0x9e, 0x8b, 0xbe, 0x3b,
  0x3d, 0xc1, 0x76, 0x3e, 0x9f, 0x0f, 0x7a, 0x3d, 0x3b, 0xf9, 0xea, 0xbd,
  0x76, 0xc9, 0xf4, 0xbd, 0xe2, 0x1c, 0x9a, 0xbd, 0x37, 0x8f, 0x18, 0xbe,
  0xd3, 0xb8, 0x89, 0x3e, 0x99, 0x80, 0x3d, 0xbe, 0x5f, 0xeb, 0x30, 0xbe,
  0x66, 0xb5, 0x9c, 0xbd, 0x07, 0xee, 0x85, 0xbd, 0xea, 0xa2, 0x34, 0x3c,
  0x2a, 0xa5, 0x8a, 0x3d, 0xf0, 0xb7, 0x04, 0xbe, 0x3f, 0x55, 0xa0, 0xbe,
  0xe4, 0xa2, 0x31, 0xbd, 0xd3, 0x71, 0x21, 0xbe, 0x1f, 0x21, 0x5a, 0xbe,
  0xc4, 0x1b, 0x9a, 0x3d, 0xda, 0xf8, 0x00, 0xbe, 0x18, 0x79, 0xa3, 0xbd,
  0x95, 0x9f, 0x0e, 0xbe, 0x45, 0x57, 0x8f, 0xbe, 0xce, 0x61, 0x65, 0xbe,
  0xb6, 0x26, 0x46, 0x3e, 0xaa, 0xc7, 0xf7, 0xbd, 0xae, 0xc5, 0xf3, 0xbd,
  0x7c, 0x35, 0x8b, 0xbe, 0x60, 0x12, 0x58, 0xbe, 0x00, 0x63, 0xc5, 0xbd,
  0xb3, 0x17, 0x05, 0xbe, 0xed, 0x3b, 0x6e, 0xbe, 0xde, 0x37, 0x1b, 0xbe,
  0x2d, 0x69, 0x36, 0xbe, 0x43, 0x38, 0x71, 0xbe, 0x41, 0x8b, 0xfd, 0xbd,
  0x5a, 0x88, 0x92, 0xbd, 0x72, 0x0a, 0x8c, 0xbe, 0x6d, 0x17, 0xd2, 0xbd,
  0x10, 0x55, 0xa2, 0xbd, 0xcd, 0x5c, 0x72, 0xbe, 0xa9, 0xa2, 0xd3, 0x3c,
  0x71, 0x34, 0x90, 0xbc, 0x33, 0x09, 0x1d, 0xbe, 0x74, 0xff, 0x04, 0xbe,
  0x5c, 0x4c, 0x03, 0xbe, 0x8f, 0xc2, 0x39, 0xbe, 0xc0, 0xe5, 0x37, 0xbd,
  0x90, 0xab, 0xb0, 0x3a, 0x8f, 0x41, 0x36, 0xbe, 0x48, 0xc4, 0x22, 0xbe,
  0xc4, 0xec, 0x2f, 0xbe, 0xee, 0x33, 0xac, 0xbd, 0x8b, 0x77, 0xa1, 0xbc,
  0x11, 0x20, 0xb2, 0xbd, 0x15, 0x7f, 0x1d, 0xbe, 0xf3, 0x94, 0x57, 0xbe,
  0xbd, 0xc1, 0xf8, 0xbc, 0x19, 0xf2, 0x09, 0xbe, 0xe2, 0x91, 0xce, 0xbd,
  0x9d, 0x93, 0xa0, 0xbd, 0xe6, 0xba, 0x4d, 0xbd, 0xed, 0xb2, 0x2a, 0xbe,
  0x50, 0xe3, 0xde, 0xbd, 0x62, 0x73, 0x39, 0xbe, 0x0b, 0x61, 0x41, 0xbe,
  0x3d, 0x02, 0x08, 0xbd, 0x87, 0xf4, 0x25, 0xbe, 0x9f, 0xba, 0x18, 0xbe,
  0x7e, 0x12, 0x0d, 0xbe, 0xe9, 0xae, 0x46, 0xbd, 0xae, 0x42, 0x96, 0xbd,
  0xe0, 0xcd, 0x77, 0xbd, 0xd7, 0xaa, 0x9f, 0xbc, 0x58, 0x4e, 0x44, 0xbd,
  0xfa, 0xae, 0x2c, 0xbe, 0xe4, 0xb3, 0x1e, 0xbe, 0xd0, 0xa1, 0xdc, 0xbd,
  0x4b, 0x00, 0x2e, 0xbe, 0xe8, 0x75, 0x66, 0xbe, 0xfc, 0x23, 0x8c, 0xbe,
  0x90, 0x98, 0x64, 0xbd, 0xaf, 0xed, 0x3c, 0xbd, 0xe1, 0xe3, 0x1e, 0xbe,
  0x30, 0x40, 0x80, 0xbe, 0x6c, 0x74, 0x6a, 0xbd, 0x50, 0xee, 0x05, 0xbe,
  0xab, 0x62, 0xe6, 0x3c, 0x92, 0x17, 0x52, 0xbe, 0xd8, 0xaa, 0x37, 0xbc,
  0x8d, 0xa2, 0x42, 0xbe, 0xea, 0xcb, 0x67, 0xbb, 0xcd, 0x60, 0xfe, 0xbd,
  0x0a, 0xd4, 0xf1, 0xbd, 0xb9, 0xd6, 0x23, 0x3d, 0x77, 0x2b, 0x93, 0x3c,
  0x5c, 0x1e, 0xf9, 0x3d, 0x99, 0x86, 0x4a, 0xbd, 0x3d, 0xf9, 0x17, 0xbe,
  0xd7, 0xe0, 0xfa, 0x3d, 0x0c, 0x7c, 0xdd, 0x3d, 0xfc, 0xa2, 0xb1, 0x3d,
  0x28, 0x0e, 0x4c, 0x3e, 0x61, 0x9a, 0x54, 0x3d, 0x90, 0x94, 0x1e, 0xbe,
  0xe9, 0x51, 0x2f, 0x3d, 0x8f, 0x96, 0x81, 0x3e, 0x39, 0x57, 0x3d, 0x3e,
  0x50, 0xe2, 0x1a, 0xbd, 0x26, 0x5c, 0x5a, 0xbd, 0x54, 0x63, 0x02, 0xbe,
  0x8f, 0x1c, 0x17, 0x3e, 0x5d, 0x81, 0x29, 0x3e, 0x28, 0x75, 0xdd, 0xbd,
  0x3d, 0x46, 0xa6, 0x3b, 0x73, 0x7c, 0x70, 0xbd, 0x10, 0x2c, 0x7b, 0xbe,
  0xa4, 0xeb, 0x57, 0x3e, 0x93, 0xdb, 0xf3, 0x3d, 0x6a, 0x4e, 0x7e, 0xbd,
  0xac, 0xf9, 0x78, 0xbc, 0xb8, 0xf1, 0x53, 0xbe, 0x68, 0xf0, 0x95, 0xbd,
  0xa2, 0x3b, 0xe5, 0x3c, 0xe2, 0xb4, 0xd4, 0x3c, 0xf7, 0x0f, 0x4d, 0x3c,
  0xde, 0x8e, 0x65, 0xbe, 0x1b, 0x96, 0xf9, 0xbc, 0x2d, 0x8b, 0xdb, 0xbd,
  0xc2, 0x6c, 0xee, 0x3c, 0x4f, 0xb8, 0x04, 0x3e, 0x64, 0x1a, 0xa4, 0xbc,
  0x57, 0x51, 0x14, 0xbe, 0xfc, 0x91, 0xc8, 0xbd, 0xa2, 0x46, 0x23, 0xbe,
  0xab, 0x50, 0x7a, 0xbd, 0x18, 0xc9, 0x95, 0x3e, 0x7c, 0x24, 0xb7, 0xbd,
  0x0a, 0x57, 0x06, 0xbe, 0x4d, 0x2b, 0x54, 0xbe, 0x2b, 0xea, 0xff, 0xbd,
  0x77, 0x56, 0xbb, 0xbd, 0x67, 0x88, 0x17, 0x3e, 0xb8, 0x2e, 0x69, 0xbd,
  0xd2, 0xe7, 0x1a, 0xbd, 0x27, 0x77, 0xaf, 0xbc, 0xf6, 0xf3, 0xde, 0xbd,
  0x7d, 0x66, 0xae, 0xbd, 0x04, 0x69, 0x10, 0x3e, 0xe9, 0x3b, 0x6a, 0x3d,
  0x25, 0x68, 0x09, 0xbe, 0x52, 0xfe, 0x2e, 0x3c, 0xf3, 0xcf, 0x7c, 0xbd,
  0xc2, 0xb0, 0x0f, 0x3d, 0xcf, 0x00, 0xec, 0xbc, 0x78, 0x29, 0xd3, 0x3d,
  0x62, 0x16, 0x1c, 0x3e, 0x6c, 0x21, 0x57, 0x3e, 0xab, 0x1b, 0xae, 0xbd,
  0xd6, 0xb8, 0xf4, 0xbb, 0x65, 0x84, 0xd7, 0xba, 0x8c, 0x60, 0x94, 0xbd,
  0xb2, 0xa9, 0x3f, 0xbe, 0xb8, 0x5b, 0xf5, 0xbb, 0x8e, 0xe6, 0x42, 0xbe,
  0xec, 0xed, 0x49, 0x3d, 0x85, 0xb4, 0x9e, 0xbd, 0x49, 0x75, 0xb2, 0xbc,
  0xf4, 0xa1, 0x2b, 0xbe, 0x08, 0x9c, 0x0b, 0xbe, 0x6c, 0x96, 0x82, 0xbe,
  0x9a, 0xfc, 0xc6, 0x3d, 0x6f, 0x68, 0x15, 0x3c, 0x36, 0xd2, 0xcd, 0x3d,
  0x7e, 0xb6, 0x81, 0xbc, 0xed, 0x15, 0x7b, 0xbd, 0x2e, 0x20, 0x34, 0xbd,
  0x43, 0x4d, 0xf5, 0xbc, 0xd8, 0x50, 0x22, 0x3d, 0xfc, 0x89, 0xe0, 0x3d,
  0xb9, 0x2d, 0x38, 0xbe, 0xff, 0x31, 0x0d, 0x3e, 0xd9, 0x04, 0x25, 0xbe,
  0x92, 0xf1, 0x0e, 0x3e, 0x6e, 0xc8, 0x4d, 0x3e, 0xe9, 0x79, 0x2d, 0x3e,
  0x05, 0x1d, 0x2f, 0xbe, 0x2c, 0x87, 0x99, 0x3d, 0xbd, 0x3e, 0xde, 0xbd,
  0x17, 0x12, 0x5a, 0x3d, 0x31, 0xed, 0x52, 0x3e, 0xd6, 0xe3, 0xe7, 0x3b,
  0xa2, 0xeb, 0xfe, 0x3d, 0x30, 0xc7, 0x17, 0x3e, 0x7f, 0x76, 0x10, 0xbc,
  0xf9, 0x12, 0x30, 0x3c, 0x60, 0xab, 0xd1, 0x3d, 0xf6, 0x4a, 0x1f, 0x3e,
  0x7d, 0x6e, 0x84, 0xbd, 0x2a, 0x10, 0x46, 0xbb, 0x45, 0x77, 0xa8, 0xbd,
  0x46, 0xeb, 0x5c, 0x3e, 0x2c, 0x65, 0xa9, 0xbd, 0xb8, 0x54, 0x1d, 0xba,
  0xf3, 0x33, 0xb5, 0x3d, 0x94, 0x43, 0xd3, 0x3d, 0xa9, 0x10, 0xe7, 0x3d,
  0x4d, 0xc2, 0x3c, 0x3e, 0x21, 0x1d, 0x80, 0xbd, 0x95, 0xc9, 0x39, 0x3e,
  0x56, 0x0b, 0xc8, 0x3d, 0x54, 0x53, 0x4a, 0x3e, 0x30, 0x3e, 0xf3, 0x3d,
  0xb7, 0x34, 0x88, 0xbc, 0x6d, 0xb5, 0x23, 0xbd, 0x1f, 0xaa, 0x86, 0x3c,
  0xbf, 0x2c, 0x31, 0x3e, 0xdc, 0xe7, 0x58, 0x3e, 0x35, 0x17, 0x2b, 0x3e,
  0x2f, 0xee, 0xbc, 0x3d, 0xca, 0xa1, 0x21, 0xbe, 0x96, 0x06, 0x92, 0x3d,
  0x14, 0x98, 0x5e, 0x3e, 0x7c, 0x6a, 0xb8, 0x3d, 0x2d, 0xce, 0x4f, 0x3d,
  0x46, 0x94, 0x08, 0x3c, 0xe1, 0x7f, 0xc2, 0xbd, 0x4f, 0x36, 0x70, 0x3e,
  0x90, 0xfe, 0x8c, 0x3d, 0xf0, 0xfb, 0x62, 0x3e, 0x53, 0x3b, 0x4a, 0x3e,
  0xbd, 0xa9, 0x04, 0x3d, 0x6c, 0x46, 0x5b, 0xbe, 0x11, 0xfd, 0x5f, 0x3e,
  0x11, 0xff, 0x04, 0x3e, 0x06, 0x0a, 0x11, 0x3e, 0x71, 0xb7, 0x09, 0x3e,
  0x78, 0x68, 0xab, 0x3c, 0x45, 0xe8, 0x32, 0xbe, 0x9b, 0x72, 0xa3, 0x3a,
  0x11, 0x02, 0x89, 0x3e, 0xf4, 0xa1, 0x1b, 0xbd, 0x02, 0x61, 0x55, 0x3e,
  0x6c, 0xdd, 0x09, 0xba, 0x4a, 0xff, 0x0c, 0xbe, 0x8c, 0xe4, 0x1e, 0x3d,
  0x9a, 0xe2, 0xb8, 0x3c, 0x6b, 0xf0, 0xa4, 0x3d, 0xce, 0x74, 0x8e, 0xbb,
  0x18, 0x86, 0xc3, 0x3d, 0x9e, 0x7a, 0xea, 0xbd, 0x4d, 0xf3, 0x7d, 0x3d,
  0xd5, 0x88, 0x24, 0x3e, 0x2f, 0x89, 0xb2, 0x3d, 0xf0, 0x79, 0xf8, 0x3d,
  0x63, 0x89, 0xd1, 0xbc, 0x3d, 0x0b, 0x1d, 0xbe, 0x83, 0x93, 0x29, 0x3e,
  0xdb, 0x29, 0xc5, 0x3d, 0xc4, 0x12, 0x13, 0x3e, 0x50, 0xfd, 0xfd, 0xbc,
  0x6f, 0x4a, 0xfb, 0xbc, 0xbc, 0x02, 0xd2, 0xbd, 0x18, 0xce, 0x25, 0x3e,
  0x95, 0xb6, 0xd5, 0x3d, 0x71, 0x2b, 0x3f, 0x3e, 0x2f, 0x1a, 0x83, 0x3e,
  0x9a, 0x0e, 0xa7, 0x3d, 0xf9, 0x57, 0x50, 0xbc, 0x11, 0xa5, 0x89, 0x3d,
  0x9b, 0x9f, 0x5f, 0x3e, 0x9a, 0x7a, 0x86, 0x3c, 0x1e, 0x3e, 0xbf, 0xbb,
  0xc4, 0xdb, 0x6d, 0x3d, 0xd4, 0x4e, 0xb0, 0xbb, 0x50, 0x83, 0x03, 0x3e,
  0x7f, 0xd8, 0x03, 0x3e, 0x5c, 0xf5, 0x1f, 0x3e, 0x9a, 0x67, 0x77, 0x3e,
  0x23, 0x89, 0xd5, 0x3d, 0x8c, 0xc6, 0x2b, 0xbe, 0xfe, 0x40, 0x97, 0xbb,
  0x67, 0xd2, 0x98, 0x3d, 0xa6, 0xb8, 0x0f, 0x3e, 0x69, 0x8e, 0x02, 0x3d,
  0x8c, 0xec, 0x96, 0xbd, 0xad, 0x92, 0xbf, 0xbd, 0x3c, 0xc0, 0x30, 0x3e,
  0x4f, 0xa7, 0x10, 0x3e, 0xc7, 0x41, 0x98, 0xbd, 0x70, 0xb0, 0x06, 0x3e,
  0x0e, 0x2f, 0x31, 0xbd, 0x5a, 0x9d, 0x3b, 0xbe, 0x17, 0x12, 0x0e, 0x3e,
  0xb9, 0x1f, 0x6e, 0x3d, 0x51, 0x04, 0x46, 0x3b, 0x46, 0x5a, 0x00, 0x3e,
  0xb8, 0x3d, 0xc4, 0xbd, 0xb4, 0x82, 0x02, 0xbd, 0x69, 0xc7, 0x68, 0xbd,
  0xef, 0x38, 0xd2, 0xbc, 0x02, 0xaa, 0x9c, 0xbd, 0x61, 0x7a, 0x94, 0xbd,
  0x27, 0xba, 0x81, 0x3c, 0x5a, 0xbc, 0x83, 0x3c, 0xb1, 0x9a, 0xde, 0x3d,
  0x92, 0xfd, 0xff, 0xff, 0x04, 0x00, 0x00, 0x00, 0x60, 0x00, 0x00, 0x00,
  0x28, 0x68, 0x88, 0xbe, 0x03, 0x94, 0xf0, 0x3e, 0x67, 0xd6, 0xa1, 0xbe,
  0xcf, 0xd7, 0x12, 0x3f, 0x20, 0x30, 0xdc, 0x3e, 0x98, 0xea, 0xbb, 0xbc,
  0x1a, 0x20, 0x20, 0xbe, 0xe0, 0x92, 0xb8, 0xbd, 0x62, 0xb4, 0x1d, 0xbe,
  0x92, 0xd3, 0x09, 0xbe, 0xe0, 0xbb, 0xf1, 0xbc, 0x10, 0xa6, 0xad, 0xbe,
  0x76, 0x43, 0x14, 0x3e, 0x42, 0xdf, 0x5b, 0xbe, 0xde, 0x86, 0x5a, 0xbe,
  0xf6, 0x49, 0x63, 0xbe, 0x26, 0x82, 0x89, 0xbe, 0xe4, 0xaa, 0xde, 0x3d,
  0x04, 0x6d, 0x8a, 0x3e, 0x62, 0xfe, 0xb0, 0x3e, 0x98, 0x12, 0x0b, 0x3f,
  0x9e, 0xc4, 0x2b, 0xbe, 0x1c, 0xdf, 0xcb, 0xbe, 0x00, 0x5c, 0x83, 0xbd,
  0xfe, 0xfd, 0xff, 0xff, 0x04, 0x00, 0x00, 0x00, 0xc0, 0x00, 0x00, 0x00,
  0xa2, 0x7c, 0x1d, 0x3f, 0xee, 0xa0, 0x1e, 0xbe, 0xde, 0x78, 0xd8, 0x3e,
  0x88, 0xec, 0xa2, 0x3d, 0x83, 0x05, 0x94, 0xbe, 0x18, 0x08, 0x54, 0x3d,
  0xbe, 0x9a, 0xc2, 0x3e, 0x40, 0x27, 0xab, 0x3e, 0xd5, 0x73, 0x3a, 0xbd,
  0x5c, 0x3d, 0x19, 0x3f, 0x00, 0xd3, 0xe4, 0xbd, 0x4a, 0x1e, 0xb2, 0xbe,
  0xf8, 0x71, 0x8c, 0x3d, 0x58, 0xe5, 0xb0, 0x3d, 0x10, 0x22, 0x82, 0x3e,
  0xb2, 0x9c, 0x85, 0x3e, 0x76, 0x3d, 0x1b, 0xbe, 0x3c, 0x0e, 0x04, 0xbf,
  0x0a, 0xff, 0xb1, 0x3e, 0x80, 0x34, 0x18, 0x3d, 0xed, 0xfe, 0x8a, 0xbe,
  0x24, 0xbe, 0x33, 0x3e, 0x0c, 0xa8, 0x01, 0xbe, 0xd8, 0xc4, 0xc6, 0x3d,
  0xd9, 0x83, 0xef, 0x3e, 0x21, 0x38, 0xba, 0xbd, 0x9a, 0xb2, 0xca, 0x3e,
  0x44, 0xc6, 0x2a, 0x3e, 0x60, 0xc7, 0x8b, 0xbc, 0xd0, 0x34, 0x90, 0xbd,
  0x0c, 0x68, 0xe4, 0x3e, 0x48, 0xb4, 0x8a, 0x3e, 0xc5, 0xb7, 0x07, 0x3f,
  0x85, 0xb8, 0x41, 0x3e, 0xbc, 0x11, 0xd0, 0x3e, 0x1e, 0x05, 0xc7, 0xbe,
  0x88, 0x26, 0x9b, 0x3e, 0x3c, 0x5c, 0x08, 0x3e, 0x65, 0x81, 0x47, 0xbe,
  0x3c, 0xd4, 0x9a, 0xbe, 0xda, 0x84, 0xa7, 0xbe, 0x1a, 0x9e, 0xae, 0x3e,
  0xbc, 0x7f, 0xdf, 0x3e, 0xe0, 0xcc, 0x75, 0x3e, 0x38, 0x8e, 0x82, 0x3d,
  0xae, 0x50, 0x3f, 0xbe, 0xb0, 0x7e, 0xbc, 0x3e, 0x56, 0xc3, 0x20, 0xbe,
  0xca, 0xfe, 0xff, 0xff, 0x04, 0x00, 0x00, 0x00, 0x0c, 0x00, 0x00, 0x00,
  0xff, 0xff, 0xff, 0xff, 0xc8, 0x02, 0x00, 0x00, 0x08, 0x00, 0x00, 0x00,
  0xe2, 0xfe, 0xff, 0xff, 0x04, 0x00, 0x00, 0x00, 0x0c, 0x00, 0x00, 0x00,
  0xff, 0xff, 0xff, 0xff, 0x64, 0x01, 0x00, 0x00, 0x08, 0x00, 0x00, 0x00,
  0xfa, 0xfe, 0xff, 0xff, 0x04, 0x00, 0x00, 0x00, 0x0c, 0x00, 0x00, 0x00,
  0xff, 0xff, 0xff, 0xff, 0x62, 0x01, 0x00, 0x00, 0x02, 0x00, 0x00, 0x00,
  0x12, 0xff, 0xff, 0xff, 0x04, 0x00, 0x00, 0x00, 0x20, 0x00, 0x00, 0x00,
  0x81, 0x0f, 0xb0, 0x3c, 0x4c, 0x3f, 0x88, 0x3d, 0x00, 0x00, 0x00, 0x00,
  0x00, 0x00, 0x00, 0x00, 0x00, 0x00, 0x00, 0x00, 0x00, 0x00, 0x00, 0x00,
  0x5a, 0x03, 0xac, 0xbd, 0x00, 0x00, 0x00, 0x00, 0x3e, 0xff, 0xff, 0xff,
  0x04, 0x00, 0x00, 0x00, 0x08, 0x00, 0x00, 0x00, 0xb9, 0x1e, 0xa2, 0xbd,
  0x62, 0xc3, 0xb5, 0xba, 0x9c, 0xf0, 0xff, 0xff, 0xa0, 0xf0, 0xff, 0xff,
  0x0f, 0x00, 0x00, 0x00, 0x4d, 0x4c, 0x49, 0x52, 0x20, 0x43, 0x6f, 0x6e,
  0x76, 0x65, 0x72, 0x74, 0x65, 0x64, 0x2e, 0x00, 0x01, 0x00, 0x00, 0x00,
  0x14, 0x00, 0x00, 0x00, 0x00, 0x00, 0x0e, 0x00, 0x18, 0x00, 0x14, 0x00,
  0x10, 0x00, 0x0c, 0x00, 0x08, 0x00, 0x04, 0x00, 0x0e, 0x00, 0x00, 0x00,
  0x14, 0x00, 0x00, 0x00, 0x1c, 0x00, 0x00, 0x00, 0x50, 0x03, 0x00, 0x00,
  0x54, 0x03, 0x00, 0x00, 0x58, 0x03, 0x00, 0x00, 0x04, 0x00, 0x00, 0x00,
  0x6d, 0x61, 0x69, 0x6e, 0x00, 0x00, 0x00, 0x00, 0x0e, 0x00, 0x00, 0x00,
  0x08, 0x03, 0x00, 0x00, 0xa4, 0x02, 0x00, 0x00, 0x6c, 0x02, 0x00, 0x00,
  0x30, 0x02, 0x00, 0x00, 0xdc, 0x01, 0x00, 0x00, 0xb4, 0x01, 0x00, 0x00,
  0x84, 0x01, 0x00, 0x00, 0x3c, 0x01, 0x00, 0x00, 0x14, 0x01, 0x00, 0x00,
  0xe4, 0x00, 0x00, 0x00, 0xa0, 0x00, 0x00, 0x00, 0x78, 0x00, 0x00, 0x00,
  0x40, 0x00, 0x00, 0x00, 0x04, 0x00, 0x00, 0x00, 0x9e, 0xfd, 0xff, 0xff,
  0x1c, 0x00, 0x00, 0x00, 0x00, 0x00, 0x00, 0x09, 0x1c, 0x00, 0x00, 0x00,
  0x20, 0x00, 0x00, 0x00, 0x05, 0x00, 0x00, 0x00, 0x00, 0x00, 0x06, 0x00,
  0x08, 0x00, 0x04, 0x00, 0x06, 0x00, 0x00, 0x00, 0x00, 0x00, 0x80, 0x3f,
  0x01, 0x00, 0x00, 0x00, 0x1a, 0x00, 0x00, 0x00, 0x01, 0x00, 0x00, 0x00,
  0x19, 0x00, 0x00, 0x00, 0xd6, 0xfd, 0xff, 0xff, 0x14, 0x00, 0x00, 0x00,
  0x00, 0x00, 0x00, 0x08, 0x10, 0x00, 0x00, 0x00, 0x14, 0x00, 0x00, 0x00,
  0x04, 0x00, 0x00, 0x00, 0x80, 0xf1, 0xff, 0xff, 0x01, 0x00, 0x00, 0x00,
  0x19, 0x00, 0x00, 0x00, 0x03, 0x00, 0x00, 0x00, 0x18, 0x00, 0x00, 0x00,
  0x08, 0x00, 0x00, 0x00, 0x09, 0x00, 0x00, 0x00, 0x3a, 0xfe, 0xff, 0xff,
  0x0c, 0x00, 0x00, 0x00, 0x10, 0x00, 0x00, 0x00, 0x02, 0x00, 0x00, 0x00,
  0x01, 0x00, 0x00, 0x00, 0x18, 0x00, 0x00, 0x00, 0x02, 0x00, 0x00, 0x00,
  0x17, 0x00, 0x00, 0x00, 0x0b, 0x00, 0x00, 0x00, 0x2e, 0xfe, 0xff, 0xff,
  0x14, 0x00, 0x00, 0x00, 0x00, 0x00, 0x00, 0x05, 0x24, 0x00, 0x00, 0x00,
  0x28, 0x00, 0x00, 0x00, 0x03, 0x00, 0x00, 0x00, 0xda, 0xfe, 0xff, 0xff,
  0x01, 0x00, 0x00, 0x00, 0x02, 0x00, 0x00, 0x00, 0x01, 0x00, 0x00, 0x00,
  0x02, 0x00, 0x00, 0x00, 0x00, 0x00, 0x00, 0x01, 0x01, 0x00, 0x00, 0x00,
  0x17, 0x00, 0x00, 0x00, 0x01, 0x00, 0x00, 0x00, 0x16, 0x00, 0x00, 0x00,
  0x0e, 0xfe, 0xff, 0xff, 0x10, 0x00, 0x00, 0x00, 0x00, 0x00, 0x00, 0x34,
  0x0c, 0x00, 0x00, 0x00, 0x10, 0x00, 0x00, 0x00, 0x14, 0xf2, 0xff, 0xff,
  0x01, 0x00, 0x00, 0x00, 0x16, 0x00, 0x00, 0x00, 0x02, 0x00, 0x00, 0x00,
  0x15, 0x00, 0x00, 0x00, 0x0a, 0x00, 0x00, 0x00, 0xca, 0xfe, 0xff, 0xff,
  0x0c, 0x00, 0x00, 0x00, 0x10, 0x00, 0x00, 0x00, 0x02, 0x00, 0x00, 0x00,
  0x01, 0x00, 0x00, 0x00, 0x15, 0x00, 0x00, 0x00, 0x02, 0x00, 0x00, 0x00,
  0x14, 0x00, 0x00, 0x00, 0x03, 0x00, 0x00, 0x00, 0xbe, 0xfe, 0xff, 0xff,
  0x14, 0x00, 0x00, 0x00, 0x00, 0x00, 0x00, 0x01, 0x20, 0x00, 0x00, 0x00,
  0x24, 0x00, 0x00, 0x00, 0x01, 0x00, 0x00, 0x00, 0xb0, 0xfe, 0xff, 0xff,
  0x00, 0x00, 0x00, 0x01, 0x01, 0x00, 0x00, 0x00, 0x01, 0x00, 0x00, 0x00,
  0x00, 0x00, 0x00, 0x01, 0x01, 0x00, 0x00, 0x00, 0x14, 0x00, 0x00, 0x00,
  0x03, 0x00, 0x00, 0x00, 0x13, 0x00, 0x00, 0x00, 0x06, 0x00, 0x00, 0x00,
  0x01, 0x00, 0x00, 0x00, 0xa2, 0xfe, 0xff, 0xff, 0x10, 0x00, 0x00, 0x00,
  0x00, 0x00, 0x00, 0x34, 0x0c, 0x00, 0x00, 0x00, 0x10, 0x00, 0x00, 0x00,
  0xa8, 0xf2, 0xff, 0xff, 0x01, 0x00, 0x00, 0x00, 0x13, 0x00, 0x00, 0x00,
  0x02, 0x00, 0x00, 0x00, 0x12, 0x00, 0x00, 0x00, 0x0c, 0x00, 0x00, 0x00,
  0x5e, 0xff, 0xff, 0xff, 0x0c, 0x00, 0x00, 0x00, 0x10, 0x00, 0x00, 0x00,
  0x02, 0x00, 0x00, 0x00, 0x01, 0x00, 0x00, 0x00, 0x12, 0x00, 0x00, 0x00,
  0x02, 0x00, 0x00, 0x00, 0x11, 0x00, 0x00, 0x00, 0x04, 0x00, 0x00, 0x00,
  0x52, 0xff, 0xff, 0xff, 0x24, 0x00, 0x00, 0x00, 0x00, 0x00, 0x00, 0x05,
  0x34, 0x00, 0x00, 0x00, 0x38, 0x00, 0x00, 0x00, 0x03, 0x00, 0x00, 0x00,
  0x00, 0x00, 0x0e, 0x00, 0x18, 0x00, 0x17, 0x00, 0x10, 0x00, 0x0c, 0x00,
  0x08, 0x00, 0x04, 0x00, 0x0e, 0x00, 0x00, 0x00, 0x01, 0x00, 0x00, 0x00,
  0x02, 0x00, 0x00, 0x00, 0x01, 0x00, 0x00, 0x00, 0x02, 0x00, 0x00, 0x00,
  0x00, 0x00, 0x00, 0x01, 0x01, 0x00, 0x00, 0x00, 0x11, 0x00, 0x00, 0x00,
  0x01, 0x00, 0x00, 0x00, 0x10, 0x00, 0x00, 0x00, 0x42, 0xff, 0xff, 0xff,
  0x10, 0x00, 0x00, 0x00, 0x00, 0x00, 0x00, 0x34, 0x0c, 0x00, 0x00, 0x00,
  0x10, 0x00, 0x00, 0x00, 0x48, 0xf3, 0xff, 0xff, 0x01, 0x00, 0x00, 0x00,
  0x10, 0x00, 0x00, 0x00, 0x02, 0x00, 0x00, 0x00, 0x0f, 0x00, 0x00, 0x00,
  0x0a, 0x00, 0x00, 0x00, 0x00, 0x00, 0x0a, 0x00, 0x10, 0x00, 0x0c, 0x00,
  0x08, 0x00, 0x04, 0x00, 0x0a, 0x00, 0x00, 0x00, 0x0c, 0x00, 0x00, 0x00,
  0x10, 0x00, 0x00, 0x00, 0x02, 0x00, 0x00, 0x00, 0x01, 0x00, 0x00, 0x00,
  0x0f, 0x00, 0x00, 0x00, 0x02, 0x00, 0x00, 0x00, 0x0e, 0x00, 0x00, 0x00,
  0x05, 0x00, 0x00, 0x00, 0x00, 0x00, 0x0e, 0x00, 0x18, 0x00, 0x14, 0x00,
  0x10, 0x00, 0x0c, 0x00, 0x0b, 0x00, 0x04, 0x00, 0x0e, 0x00, 0x00, 0x00,
  0x20, 0x00, 0x00, 0x00, 0x00, 0x00, 0x00, 0x01, 0x2c, 0x00, 0x00, 0x00,
  0x30, 0x00, 0x00, 0x00, 0x01, 0x00, 0x00, 0x00, 0x0c, 0x00, 0x14, 0x00,
  0x13, 0x00, 0x0c, 0x00, 0x08, 0x00, 0x07, 0x00, 0x0c, 0x00, 0x00, 0x00,
  0x00, 0x00, 0x00, 0x01, 0x01, 0x00, 0x00, 0x00, 0x01, 0x00, 0x00, 0x00,
  0x00, 0x00, 0x00, 0x01, 0x01, 0x00, 0x00, 0x00, 0x0e, 0x00, 0x00, 0x00,
  0x03, 0x00, 0x00, 0x00, 0x0d, 0x00, 0x00, 0x00, 0x07, 0x00, 0x00, 0x00,
  0x02, 0x00, 0x00, 0x00, 0x00, 0x00, 0x0e, 0x00, 0x14, 0x00, 0x00, 0x00,
  0x10, 0x00, 0x0c, 0x00, 0x0b, 0x00, 0x04, 0x00, 0x0e, 0x00, 0x00, 0x00,
  0x10, 0x00, 0x00, 0x00, 0x00, 0x00, 0x00, 0x34, 0x0c, 0x00, 0x00, 0x00,
  0x10, 0x00, 0x00, 0x00, 0x14, 0xf4, 0xff, 0xff, 0x01, 0x00, 0x00, 0x00,
  0x0d, 0x00, 0x00, 0x00, 0x02, 0x00, 0x00, 0x00, 0x00, 0x00, 0x00, 0x00,
  0x0c, 0x00, 0x00, 0x00, 0x01, 0x00, 0x00, 0x00, 0x1a, 0x00, 0x00, 0x00,
  0x01, 0x00, 0x00, 0x00, 0x00, 0x00, 0x00, 0x00, 0x1b, 0x00, 0x00, 0x00,
  0x94, 0x0b, 0x00, 0x00, 0x40, 0x0b, 0x00, 0x00, 0xec, 0x0a, 0x00, 0x00,
  0xac, 0x0a, 0x00, 0x00, 0x54, 0x0a, 0x00, 0x00, 0x14, 0x0a, 0x00, 0x00,
  0xcc, 0x09, 0x00, 0x00, 0x84, 0x09, 0x00, 0x00, 0x44, 0x09, 0x00, 0x00,
  0x08, 0x09, 0x00, 0x00, 0xcc, 0x08, 0x00, 0x00, 0x88, 0x08, 0x00, 0x00,
  0x48, 0x08, 0x00, 0x00, 0xc4, 0x07, 0x00, 0x00, 0xd4, 0x06, 0x00, 0x00,
  0x14, 0x06, 0x00, 0x00, 0x8c, 0x05, 0x00, 0x00, 0x0c, 0x05, 0x00, 0x00,
  0x8c, 0x04, 0x00, 0x00, 0x08, 0x04, 0x00, 0x00, 0x18, 0x03, 0x00, 0x00,
  0x58, 0x02, 0x00, 0x00, 0xd0, 0x01, 0x00, 0x00, 0x50, 0x01, 0x00, 0x00,
  0xe8, 0x00, 0x00, 0x00, 0x60, 0x00, 0x00, 0x00, 0x04, 0x00, 0x00, 0x00,
  0xee, 0xf4, 0xff, 0xff, 0x00, 0x00, 0x00, 0x01, 0x14, 0x00, 0x00, 0x00,
  0x1c, 0x00, 0x00, 0x00, 0x1c, 0x00, 0x00, 0x00, 0x1b, 0x00, 0x00, 0x00,
  0x34, 0x00, 0x00, 0x00, 0x02, 0x00, 0x00, 0x00, 0xff, 0xff, 0xff, 0xff,
  0x02, 0x00, 0x00, 0x00, 0xd4, 0xf4, 0xff, 0xff, 0x1b, 0x00, 0x00, 0x00,
  0x53, 0x74, 0x61, 0x74, 0x65, 0x66, 0x75, 0x6c, 0x50, 0x61, 0x72, 0x74,
  0x69, 0x74, 0x69, 0x6f, 0x6e, 0x65, 0x64, 0x43, 0x61, 0x6c, 0x6c, 0x5f,
  0x31, 0x3a, 0x30, 0x00, 0x02, 0x00, 0x00, 0x00, 0x01, 0x00, 0x00, 0x00,
  0x02, 0x00, 0x00, 0x00, 0x46, 0xf5, 0xff, 0xff, 0x00, 0x00, 0x00, 0x01,
  0x14, 0x00, 0x00, 0x00, 0x1c, 0x00, 0x00, 0x00, 0x1c, 0x00, 0x00, 0x00,
  0x1a, 0x00, 0x00, 0x00, 0x60, 0x00, 0x00, 0x00, 0x02, 0x00, 0x00, 0x00,
  0xff, 0xff, 0xff, 0xff, 0x02, 0x00, 0x00, 0x00, 0x2c, 0xf5, 0xff, 0xff,
  0x44, 0x00, 0x00, 0x00, 0x73, 0x65, 0x71, 0x75, 0x65, 0x6e, 0x74, 0x69,
  0x61, 0x6c, 0x5f, 0x33, 0x33, 0x5f, 0x31, 0x2f, 0x64, 0x65, 0x6e, 0x73,
  0x65, 0x5f, 0x36, 0x37, 0x5f, 0x31, 0x2f, 0x4d, 0x61, 0x74, 0x4d, 0x75,
  0x6c, 0x3b, 0x73, 0x65, 0x71, 0x75, 0x65, 0x6e, 0x74, 0x69, 0x61, 0x6c,
  0x5f, 0x33, 0x33, 0x5f, 0x31, 0x2f, 0x64, 0x65, 0x6e, 0x73, 0x65, 0x5f,
  0x36, 0x37, 0x5f, 0x31, 0x2f, 0x42, 0x69, 0x61, 0x73, 0x41, 0x64, 0x64,
  0x00, 0x00, 0x00, 0x00, 0x02, 0x00, 0x00, 0x00, 0x01, 0x00, 0x00, 0x00,
  0x02, 0x00, 0x00, 0x00, 0xca, 0xf5, 0xff, 0xff, 0x00, 0x00, 0x00, 0x01,
  0x14, 0x00, 0x00, 0x00, 0x1c, 0x00, 0x00, 0x00, 0x1c, 0x00, 0x00, 0x00,
  0x19, 0x00, 0x00, 0x00, 0x40, 0x00, 0x00, 0x00, 0x02, 0x00, 0x00, 0x00,
  0xff, 0xff, 0xff, 0xff, 0x62, 0x01, 0x00, 0x00, 0xb0, 0xf5, 0xff, 0xff,
  0x24, 0x00, 0x00, 0x00, 0x73, 0x65, 0x71, 0x75, 0x65, 0x6e, 0x74, 0x69,
  0x61, 0x6c, 0x5f, 0x33, 0x33, 0x5f, 0x31, 0x2f, 0x66, 0x6c, 0x61, 0x74,
  0x74, 0x65, 0x6e, 0x5f, 0x31, 0x36, 0x5f, 0x31, 0x2f, 0x52, 0x65, 0x73,
  0x68, 0x61, 0x70, 0x65, 0x00, 0x00, 0x00, 0x00, 0x02, 0x00, 0x00, 0x00,
  0x01, 0x00, 0x00, 0x00, 0x62, 0x01, 0x00, 0x00, 0x2e, 0xf6, 0xff, 0xff,
  0x00, 0x00, 0x00, 0x01, 0x14, 0x00, 0x00, 0x00, 0x24, 0x00, 0x00, 0x00,
  0x24, 0x00, 0x00, 0x00, 0x18, 0x00, 0x00, 0x00, 0x50, 0x00, 0x00, 0x00,
  0x04, 0x00, 0x00, 0x00, 0xff, 0xff, 0xff, 0xff, 0x01, 0x00, 0x00, 0x00,
  0xb1, 0x00, 0x00, 0x00, 0x02, 0x00, 0x00, 0x00, 0x1c, 0xf6, 0xff, 0xff,
  0x2c, 0x00, 0x00, 0x00, 0x73, 0x65, 0x71, 0x75, 0x65, 0x6e, 0x74, 0x69,
  0x61, 0x6c, 0x5f, 0x33, 0x33, 0x5f, 0x31, 0x2f, 0x6d, 0x61, 0x78, 0x5f,
  0x70, 0x6f, 0x6f, 0x6c, 0x69, 0x6e, 0x67, 0x31, 0x64, 0x5f, 0x33, 0x33,
  0x5f, 0x31, 0x2f, 0x4d, 0x61, 0x78, 0x50, 0x6f, 0x6f, 0x6c, 0x31, 0x64,
  0x00, 0x00, 0x00, 0x00, 0x04, 0x00, 0x00, 0x00, 0x01, 0x00, 0x00, 0x00,
  0x01, 0x00, 0x00, 0x00, 0xb1, 0x00, 0x00, 0x00, 0x02, 0x00, 0x00, 0x00,
  0xaa, 0xf6, 0xff, 0xff, 0x00, 0x00, 0x00, 0x01, 0x14, 0x00, 0x00, 0x00,
  0x24, 0x00, 0x00, 0x00, 0x24, 0x00, 0x00, 0x00, 0x17, 0x00, 0x00, 0x00,
  0x58, 0x00, 0x00, 0x00, 0x04, 0x00, 0x00, 0x00, 0xff, 0xff, 0xff, 0xff,
  0x01, 0x00, 0x00, 0x00, 0x62, 0x01, 0x00, 0x00, 0x02, 0x00, 0x00, 0x00,
  0x98, 0xf6, 0xff, 0xff, 0x37, 0x00, 0x00, 0x00, 0x73, 0x65, 0x71, 0x75,
  0x65, 0x6e, 0x74, 0x69, 0x61, 0x6c, 0x5f, 0x33, 0x33, 0x5f, 0x31, 0x2f,
  0x6d, 0x61, 0x78, 0x5f, 0x70, 0x6f, 0x6f, 0x6c, 0x69, 0x6e, 0x67, 0x31,
  0x64, 0x5f, 0x33, 0x33, 0x5f, 0x31, 0x2f, 0x4d, 0x61, 0x78, 0x50, 0x6f,
  0x6f, 0x6c, 0x31, 0x64, 0x2f, 0x45, 0x78, 0x70, 0x61, 0x6e, 0x64, 0x44,
  0x69, 0x6d, 0x73, 0x00, 0x04, 0x00, 0x00, 0x00, 0x01, 0x00, 0x00, 0x00,
  0x01, 0x00, 0x00, 0x00, 0x62, 0x01, 0x00, 0x00, 0x02, 0x00, 0x00, 0x00,
  0x2e, 0xf7, 0xff, 0xff, 0x00, 0x00, 0x00, 0x01, 0x14, 0x00, 0x00, 0x00,
  0x20, 0x00, 0x00, 0x00, 0x20, 0x00, 0x00, 0x00, 0x16, 0x00, 0x00, 0x00,
  0x94, 0x00, 0x00, 0x00, 0x03, 0x00, 0x00, 0x00, 0xff, 0xff, 0xff, 0xff,
  0x62, 0x01, 0x00, 0x00, 0x02, 0x00, 0x00, 0x00, 0x18, 0xf7, 0xff, 0xff,
  0x75, 0x00, 0x00, 0x00, 0x73, 0x65, 0x71, 0x75, 0x65, 0x6e, 0x74, 0x69,
  0x61, 0x6c, 0x5f, 0x33, 0x33, 0x5f, 0x31, 0x2f, 0x63, 0x6f, 0x6e, 0x76,
  0x31, 0x64, 0x5f, 0x33, 0x33, 0x5f, 0x31, 0x2f, 0x52, 0x65, 0x6c, 0x75,
  0x3b, 0x73, 0x65, 0x71, 0x75, 0x65, 0x6e, 0x74, 0x69, 0x61, 0x6c, 0x5f,
  0x33, 0x33, 0x5f, 0x31, 0x2f, 0x63, 0x6f, 0x6e, 0x76, 0x31, 0x64, 0x5f,
  0x33, 0x33, 0x5f, 0x31, 0x2f, 0x42, 0x69, 0x61, 0x73, 0x41, 0x64, 0x64,
  0x3b, 0x73, 0x65, 0x71, 0x75, 0x65, 0x6e, 0x74, 0x69, 0x61, 0x6c, 0x5f,
  0x33, 0x33, 0x5f, 0x31, 0x2f, 0x63, 0x6f, 0x6e, 0x76, 0x31, 0x64, 0x5f,
  0x33, 0x33, 0x5f, 0x31, 0x2f, 0x63, 0x6f, 0x6e, 0x76, 0x6f, 0x6c, 0x75,
  0x74, 0x69, 0x6f, 0x6e, 0x2f, 0x53, 0x71, 0x75, 0x65, 0x65, 0x7a, 0x65,
  0x3b, 0x00, 0x00, 0x00, 0x03, 0x00, 0x00, 0x00, 0x01, 0x00, 0x00, 0x00,
  0x62, 0x01, 0x00, 0x00, 0x02, 0x00, 0x00, 0x00, 0xea, 0xf7, 0xff, 0xff,
  0x00, 0x00, 0x00, 0x01, 0x14, 0x00, 0x00, 0x00, 0x24, 0x00, 0x00, 0x00,
  0x24, 0x00, 0x00, 0x00, 0x15, 0x00, 0x00, 0x00, 0xc0, 0x00, 0x00, 0x00,
  0x04, 0x00, 0x00, 0x00, 0xff, 0xff, 0xff, 0xff, 0x01, 0x00, 0x00, 0x00,
  0x62, 0x01, 0x00, 0x00, 0x02, 0x00, 0x00, 0x00, 0xd8, 0xf7, 0xff, 0xff,
  0x9d, 0x00, 0x00, 0x00, 0x73, 0x65, 0x71, 0x75, 0x65, 0x6e, 0x74, 0x69,
  0x61, 0x6c, 0x5f, 0x33, 0x33, 0x5f, 0x31, 0x2f, 0x63, 0x6f, 0x6e, 0x76,
  0x31, 0x64, 0x5f, 0x33, 0x33, 0x5f, 0x31, 0x2f, 0x52, 0x65, 0x6c, 0x75,
  0x3b, 0x73, 0x65, 0x71, 0x75, 0x65, 0x6e, 0x74, 0x69, 0x61, 0x6c, 0x5f,
  0x33, 0x33, 0x5f, 0x31, 0x2f, 0x63, 0x6f, 0x6e, 0x76, 0x31, 0x64, 0x5f,
  0x33, 0x33, 0x5f, 0x31, 0x2f, 0x42, 0x69, 0x61, 0x73, 0x41, 0x64, 0x64,
  0x3b, 0x73, 0x65, 0x71, 0x75, 0x65, 0x6e, 0x74, 0x69, 0x61, 0x6c, 0x5f,
  0x33, 0x33, 0x5f, 0x31, 0x2f, 0x63, 0x6f, 0x6e, 0x76, 0x31, 0x64, 0x5f,
  0x33, 0x33, 0x5f, 0x31, 0x2f, 0x63, 0x6f, 0x6e, 0x76, 0x6f, 0x6c, 0x75,
  0x74, 0x69, 0x6f, 0x6e, 0x2f, 0x53, 0x71, 0x75, 0x65, 0x65, 0x7a, 0x65,
  0x3b, 0x3b, 0x73, 0x65, 0x71, 0x75, 0x65, 0x6e, 0x74, 0x69, 0x61, 0x6c,
  0x5f, 0x33, 0x33, 0x5f, 0x31, 0x2f, 0x63, 0x6f, 0x6e, 0x76, 0x31, 0x64,
  0x5f, 0x33, 0x33, 0x5f, 0x31, 0x2f, 0x63, 0x6f, 0x6e, 0x76, 0x6f, 0x6c,
  0x75, 0x74, 0x69, 0x6f, 0x6e, 0x00, 0x00, 0x00, 0x04, 0x00, 0x00, 0x00,
  0x01, 0x00, 0x00, 0x00, 0x01, 0x00, 0x00, 0x00, 0x62, 0x01, 0x00, 0x00,
  0x02, 0x00, 0x00, 0x00, 0xd6, 0xf8, 0xff, 0xff, 0x00, 0x00, 0x00, 0x01,
  0x14, 0x00, 0x00, 0x00, 0x24, 0x00, 0x00, 0x00, 0x24, 0x00, 0x00, 0x00,
  0x14, 0x00, 0x00, 0x00, 0x54, 0x00, 0x00, 0x00, 0x04, 0x00, 0x00, 0x00,
  0xff, 0xff, 0xff, 0xff, 0x01, 0x00, 0x00, 0x00, 0x64, 0x01, 0x00, 0x00,
  0x08, 0x00, 0x00, 0x00, 0xc4, 0xf8, 0xff, 0xff, 0x32, 0x00, 0x00, 0x00,
  0x73, 0x65, 0x71, 0x75, 0x65, 0x6e, 0x74, 0x69, 0x61, 0x6c, 0x5f, 0x33,
  0x33, 0x5f, 0x31, 0x2f, 0x63, 0x6f, 0x6e, 0x76, 0x31, 0x64, 0x5f, 0x33,
  0x33, 0x5f, 0x31, 0x2f, 0x63, 0x6f, 0x6e, 0x76, 0x6f, 0x6c, 0x75, 0x74,
  0x69, 0x6f, 0x6e, 0x2f, 0x45, 0x78, 0x70, 0x61, 0x6e, 0x64, 0x44, 0x69,
  0x6d, 0x73, 0x00, 0x00, 0x04, 0x00, 0x00, 0x00, 0x01, 0x00, 0x00, 0x00,
  0x01, 0x00, 0x00, 0x00, 0x64, 0x01, 0x00, 0x00, 0x08, 0x00, 0x00, 0x00,
  0x56, 0xf9, 0xff, 0xff, 0x00, 0x00, 0x00, 0x01, 0x14, 0x00, 0x00, 0x00,
  0x20, 0x00, 0x00, 0x00, 0x20, 0x00, 0x00, 0x00, 0x13, 0x00, 0x00, 0x00,
  0x54, 0x00, 0x00, 0x00, 0x03, 0x00, 0x00, 0x00, 0xff, 0xff, 0xff, 0xff,
  0x64, 0x01, 0x00, 0x00, 0x08, 0x00, 0x00, 0x00, 0x40, 0xf9, 0xff, 0xff,
  0x34, 0x00, 0x00, 0x00, 0x73, 0x65, 0x71, 0x75, 0x65, 0x6e, 0x74, 0x69,
  0x61, 0x6c, 0x5f, 0x33, 0x33, 0x5f, 0x31, 0x2f, 0x6d, 0x61, 0x78, 0x5f,
  0x70, 0x6f, 0x6f, 0x6c, 0x69, 0x6e, 0x67, 0x31, 0x64, 0x5f, 0x33, 0x32,
  0x5f, 0x31, 0x2f, 0x4d, 0x61, 0x78, 0x50, 0x6f, 0x6f, 0x6c, 0x31, 0x64,
  0x2f, 0x53, 0x71, 0x75, 0x65, 0x65, 0x7a, 0x65, 0x00, 0x00, 0x00, 0x00,
  0x03, 0x00, 0x00, 0x00, 0x01, 0x00, 0x00, 0x00, 0x64, 0x01, 0x00, 0x00,
  0x08, 0x00, 0x00, 0x00, 0xd2, 0xf9, 0xff, 0xff, 0x00, 0x00, 0x00, 0x01,
  0x14, 0x00, 0x00, 0x00, 0x24, 0x00, 0x00, 0x00, 0x24, 0x00, 0x00, 0x00,
  0x12, 0x00, 0x00, 0x00, 0x50, 0x00, 0x00, 0x00, 0x04, 0x00, 0x00, 0x00,
  0xff, 0xff, 0xff, 0xff, 0x01, 0x00, 0x00, 0x00, 0x64, 0x01, 0x00, 0x00,
  0x08, 0x00, 0x00, 0x00, 0xc0, 0xf9, 0xff, 0xff, 0x2c, 0x00, 0x00, 0x00,
  0x73, 0x65, 0x71, 0x75, 0x65, 0x6e, 0x74, 0x69, 0x61, 0x6c, 0x5f, 0x33,
  0x33, 0x5f, 0x31, 0x2f, 0x6d, 0x61, 0x78, 0x5f, 0x70, 0x6f, 0x6f, 0x6c,
  0x69, 0x6e, 0x67, 0x31, 0x64, 0x5f, 0x33, 0x32, 0x5f, 0x31, 0x2f, 0x4d,
  0x61, 0x78, 0x50, 0x6f, 0x6f, 0x6c, 0x31, 0x64, 0x00, 0x00, 0x00, 0x00,
  0x04, 0x00, 0x00, 0x00, 0x01, 0x00, 0x00, 0x00, 0x01, 0x00, 0x00, 0x00,
  0x64, 0x01, 0x00, 0x00, 0x08, 0x00, 0x00, 0x00, 0x4e, 0xfa, 0xff, 0xff,
  0x00, 0x00, 0x00, 0x01, 0x14, 0x00, 0x00, 0x00, 0x24, 0x00, 0x00, 0x00,
  0x24, 0x00, 0x00, 0x00, 0x11, 0x00, 0x00, 0x00, 0x58, 0x00, 0x00, 0x00,
  0x04, 0x00, 0x00, 0x00, 0xff, 0xff, 0xff, 0xff, 0x01, 0x00, 0x00, 0x00,
  0xc8, 0x02, 0x00, 0x00, 0x08, 0x00, 0x00, 0x00, 0x3c, 0xfa, 0xff, 0xff,
  0x37, 0x00, 0x00, 0x00, 0x73, 0x65, 0x71, 0x75, 0x65, 0x6e, 0x74, 0x69,
  0x61, 0x6c, 0x5f, 0x33, 0x33, 0x5f, 0x31, 0x2f, 0x6d, 0x61, 0x78, 0x5f,
  0x70, 0x6f, 0x6f, 0x6c, 0x69, 0x6e, 0x67, 0x31, 0x64, 0x5f, 0x33, 0x32,
  0x5f, 0x31, 0x2f, 0x4d, 0x61, 0x78, 0x50, 0x6f, 0x6f, 0x6c, 0x31, 0x64,
  0x2f, 0x45, 0x78, 0x70, 0x61, 0x6e, 0x64, 0x44, 0x69, 0x6d, 0x73, 0x00,
  0x04, 0x00, 0x00, 0x00, 0x01, 0x00, 0x00, 0x00, 0x01, 0x00, 0x00, 0x00,
  0xc8, 0x02, 0x00, 0x00, 0x08, 0x00, 0x00, 0x00, 0xd2, 0xfa, 0xff, 0xff,
  0x00, 0x00, 0x00, 0x01, 0x14, 0x00, 0x00, 0x00, 0x20, 0x00, 0x00, 0x00,
  0x20, 0x00, 0x00, 0x00, 0x10, 0x00, 0x00, 0x00, 0x94, 0x00, 0x00, 0x00,
  0x03, 0x00, 0x00, 0x00, 0xff, 0xff, 0xff, 0xff, 0xc8, 0x02, 0x00, 0x00,
  0x08, 0x00, 0x00, 0x00, 0xbc, 0xfa, 0xff, 0xff, 0x75, 0x00, 0x00, 0x00,
  0x73, 0x65, 0x71, 0x75, 0x65, 0x6e, 0x74, 0x69, 0x61, 0x6c, 0x5f, 0x33,
  0x33, 0x5f, 0x31, 0x2f, 0x63, 0x6f, 0x6e, 0x76, 0x31, 0x64, 0x5f, 0x33,
  0x32, 0x5f, 0x31, 0x2f, 0x52, 0x65, 0x6c, 0x75, 0x3b, 0x73, 0x65, 0x71,
  0x75, 0x65, 0x6e, 0x74, 0x69, 0x61, 0x6c, 0x5f, 0x33, 0x33, 0x5f, 0x31,
  0x2f, 0x63, 0x6f, 0x6e, 0x76, 0x31, 0x64, 0x5f, 0x33, 0x32, 0x5f, 0x31,
  0x2f, 0x42, 0x69, 0x61, 0x73, 0x41, 0x64, 0x64, 0x3b, 0x73, 0x65, 0x71,
  0x75, 0x65, 0x6e, 0x74, 0x69, 0x61, 0x6c, 0x5f, 0x33, 0x33, 0x5f, 0x31,
  0x2f, 0x63, 0x6f, 0x6e, 0x76, 0x31, 0x64, 0x5f, 0x33, 0x32, 0x5f, 0x31,
  0x2f, 0x63, 0x6f, 0x6e, 0x76, 0x6f, 0x6c, 0x75, 0x74, 0x69, 0x6f, 0x6e,
  0x2f, 0x53, 0x71, 0x75, 0x65, 0x65, 0x7a, 0x65, 0x3b, 0x00, 0x00, 0x00,
  0x03, 0x00, 0x00, 0x00, 0x01, 0x00, 0x00, 0x00, 0xc8, 0x02, 0x00, 0x00,
  0x08, 0x00, 0x00, 0x00, 0x8e, 0xfb, 0xff, 0xff, 0x00, 0x00, 0x00, 0x01,
  0x14, 0x00, 0x00, 0x00, 0x24, 0x00, 0x00, 0x00, 0x24, 0x00, 0x00, 0x00,
  0x0f, 0x00, 0x00, 0x00, 0xc0, 0x00, 0x00, 0x00, 0x04, 0x00, 0x00, 0x00,
  0xff, 0xff, 0xff, 0xff, 0x01, 0x00, 0x00, 0x00, 0xc8, 0x02, 0x00, 0x00,
  0x08, 0x00, 0x00, 0x00, 0x7c, 0xfb, 0xff, 0xff, 0x9d, 0x00, 0x00, 0x00,
  0x73, 0x65, 0x71, 0x75, 0x65, 0x6e, 0x74, 0x69, 0x61, 0x6c, 0x5f, 0x33,
  0x33, 0x5f, 0x31, 0x2f, 0x63, 0x6f, 0x6e, 0x76, 0x31, 0x64, 0x5f, 0x33,
  0x32, 0x5f, 0x31, 0x2f, 0x52, 0x65, 0x6c, 0x75, 0x3b, 0x73, 0x65, 0x71,
  0x75, 0x65, 0x6e, 0x74, 0x69, 0x61, 0x6c, 0x5f, 0x33, 0x33, 0x5f, 0x31,
  0x2f, 0x63, 0x6f, 0x6e, 0x76, 0x31, 0x64, 0x5f, 0x33, 0x32, 0x5f, 0x31,
  0x2f, 0x42, 0x69, 0x61, 0x73, 0x41, 0x64, 0x64, 0x3b, 0x73, 0x65, 0x71,
  0x75, 0x65, 0x6e, 0x74, 0x69, 0x61, 0x6c, 0x5f, 0x33, 0x33, 0x5f, 0x31,
  0x2f, 0x63, 0x6f, 0x6e, 0x76, 0x31, 0x64, 0x5f, 0x33, 0x32, 0x5f, 0x31,
  0x2f, 0x63, 0x6f, 0x6e, 0x76, 0x6f, 0x6c, 0x75, 0x74, 0x69, 0x6f, 0x6e,
  0x2f, 0x53, 0x71, 0x75, 0x65, 0x65, 0x7a, 0x65, 0x3b, 0x3b, 0x73, 0x65,
  0x71, 0x75, 0x65, 0x6e, 0x74, 0x69, 0x61, 0x6c, 0x5f, 0x33, 0x33, 0x5f,
  0x31, 0x2f, 0x63, 0x6f, 0x6e, 0x76, 0x31, 0x64, 0x5f, 0x33, 0x32, 0x5f,
  0x31, 0x2f, 0x63, 0x6f, 0x6e, 0x76, 0x6f, 0x6c, 0x75, 0x74, 0x69, 0x6f,
  0x6e, 0x00, 0x00, 0x00, 0x04, 0x00, 0x00, 0x00, 0x01, 0x00, 0x00, 0x00,
  0x01, 0x00, 0x00, 0x00, 0xc8, 0x02, 0x00, 0x00, 0x08, 0x00, 0x00, 0x00,
  0x7a, 0xfc, 0xff, 0xff, 0x00, 0x00, 0x00, 0x01, 0x14, 0x00, 0x00, 0x00,
  0x24, 0x00, 0x00, 0x00, 0x24, 0x00, 0x00, 0x00, 0x0e, 0x00, 0x00, 0x00,
  0x54, 0x00, 0x00, 0x00, 0x04, 0x00, 0x00, 0x00, 0xff, 0xff, 0xff, 0xff,
  0x01, 0x00, 0x00, 0x00, 0xca, 0x02, 0x00, 0x00, 0x01, 0x00, 0x00, 0x00,
  0x68, 0xfc, 0xff, 0xff, 0x32, 0x00, 0x00, 0x00, 0x73, 0x65, 0x71, 0x75,
  0x65, 0x6e, 0x74, 0x69, 0x61, 0x6c, 0x5f, 0x33, 0x33, 0x5f, 0x31, 0x2f,
  0x63, 0x6f, 0x6e, 0x76, 0x31, 0x64, 0x5f, 0x33, 0x32, 0x5f, 0x31, 0x2f,
  0x63, 0x6f, 0x6e, 0x76, 0x6f, 0x6c, 0x75, 0x74, 0x69, 0x6f, 0x6e, 0x2f,
  0x45, 0x78, 0x70, 0x61, 0x6e, 0x64, 0x44, 0x69, 0x6d, 0x73, 0x00, 0x00,
  0x04, 0x00, 0x00, 0x00, 0x01, 0x00, 0x00, 0x00, 0x01, 0x00, 0x00, 0x00,
  0xca, 0x02, 0x00, 0x00, 0x01, 0x00, 0x00, 0x00, 0xd6, 0xfd, 0xff, 0xff,
  0x00, 0x00, 0x00, 0x01, 0x14, 0x00, 0x00, 0x00, 0x14, 0x00, 0x00, 0x00,
  0x0d, 0x00, 0x00, 0x00, 0x00, 0x00, 0x00, 0x02, 0x20, 0x00, 0x00, 0x00,
  0xd4, 0xfc, 0xff, 0xff, 0x10, 0x00, 0x00, 0x00, 0x61, 0x72, 0x69, 0x74,
  0x68, 0x2e, 0x63, 0x6f, 0x6e, 0x73, 0x74, 0x61, 0x6e, 0x74, 0x31, 0x31,
  0x00, 0x00, 0x00, 0x00, 0x00, 0x00, 0x00, 0x00, 0x12, 0xfe, 0xff, 0xff,
  0x00, 0x00, 0x00, 0x01, 0x14, 0x00, 0x00, 0x00, 0x14, 0x00, 0x00, 0x00,
  0x0c, 0x00, 0x00, 0x00, 0x00, 0x00, 0x00, 0x02, 0x20, 0x00, 0x00, 0x00,
  0x10, 0xfd, 0xff, 0xff, 0x10, 0x00, 0x00, 0x00, 0x61, 0x72, 0x69, 0x74,
  0x68, 0x2e, 0x63, 0x6f, 0x6e, 0x73, 0x74, 0x61, 0x6e, 0x74, 0x31, 0x30,
  0x00, 0x00, 0x00, 0x00, 0x01, 0x00, 0x00, 0x00, 0x02, 0x00, 0x00, 0x00,
  0x52, 0xfe, 0xff, 0xff, 0x00, 0x00, 0x00, 0x01, 0x14, 0x00, 0x00, 0x00,
  0x14, 0x00, 0x00, 0x00, 0x0b, 0x00, 0x00, 0x00, 0x00, 0x00, 0x00, 0x02,
  0x1c, 0x00, 0x00, 0x00, 0x50, 0xfd, 0xff, 0xff, 0x0f, 0x00, 0x00, 0x00,
  0x61, 0x72, 0x69, 0x74, 0x68, 0x2e, 0x63, 0x6f, 0x6e, 0x73, 0x74, 0x61,
  0x6e, 0x74, 0x39, 0x00, 0x00, 0x00, 0x00, 0x00, 0xfe, 0xfd, 0xff, 0xff,
  0x00, 0x00, 0x00, 0x01, 0x10, 0x00, 0x00, 0x00, 0x10, 0x00, 0x00, 0x00,
  0x0a, 0x00, 0x00, 0x00, 0x1c, 0x00, 0x00, 0x00, 0x84, 0xfd, 0xff, 0xff,
  0x0f, 0x00, 0x00, 0x00, 0x61, 0x72, 0x69, 0x74, 0x68, 0x2e, 0x63, 0x6f,
  0x6e, 0x73, 0x74, 0x61, 0x6e, 0x74, 0x38, 0x00, 0x01, 0x00, 0x00, 0x00,
  0x02, 0x00, 0x00, 0x00, 0x36, 0xfe, 0xff, 0xff, 0x00, 0x00, 0x00, 0x01,
  0x10, 0x00, 0x00, 0x00, 0x10, 0x00, 0x00, 0x00, 0x09, 0x00, 0x00, 0x00,
  0x1c, 0x00, 0x00, 0x00, 0xbc, 0xfd, 0xff, 0xff, 0x0f, 0x00, 0x00, 0x00,
  0x61, 0x72, 0x69, 0x74, 0x68, 0x2e, 0x63, 0x6f, 0x6e, 0x73, 0x74, 0x61,
  0x6e, 0x74, 0x37, 0x00, 0x02, 0x00, 0x00, 0x00, 0x02, 0x00, 0x00, 0x00,
  0x62, 0x01, 0x00, 0x00, 0x72, 0xfe, 0xff, 0xff, 0x00, 0x00, 0x00, 0x01,
  0x10, 0x00, 0x00, 0x00, 0x10, 0x00, 0x00, 0x00, 0x08, 0x00, 0x00, 0x00,
  0x1c, 0x00, 0x00, 0x00, 0xf8, 0xfd, 0xff, 0xff, 0x0f, 0x00, 0x00, 0x00,
  0x61, 0x72, 0x69, 0x74, 0x68, 0x2e, 0x63, 0x6f, 0x6e, 0x73, 0x74, 0x61,
  0x6e, 0x74, 0x36, 0x00, 0x04, 0x00, 0x00, 0x00, 0x08, 0x00, 0x00, 0x00,
  0x01, 0x00, 0x00, 0x00, 0x03, 0x00, 0x00, 0x00, 0x01, 0x00, 0x00, 0x00,
  0xb6, 0xfe, 0xff, 0xff, 0x00, 0x00, 0x00, 0x01, 0x10, 0x00, 0x00, 0x00,
  0x10, 0x00, 0x00, 0x00, 0x07, 0x00, 0x00, 0x00, 0x1c, 0x00, 0x00, 0x00,
  0x3c, 0xfe, 0xff, 0xff, 0x0f, 0x00, 0x00, 0x00, 0x61, 0x72, 0x69, 0x74,
  0x68, 0x2e, 0x63, 0x6f, 0x6e, 0x73, 0x74, 0x61, 0x6e, 0x74, 0x35, 0x00,
  0x04, 0x00, 0x00, 0x00, 0x02, 0x00, 0x00, 0x00, 0x01, 0x00, 0x00, 0x00,
  0x03, 0x00, 0x00, 0x00, 0x08, 0x00, 0x00, 0x00, 0x86, 0xff, 0xff, 0xff,
  0x00, 0x00, 0x00, 0x01, 0x14, 0x00, 0x00, 0x00, 0x14, 0x00, 0x00, 0x00,
  0x06, 0x00, 0x00, 0x00, 0x00, 0x00, 0x00, 0x02, 0x1c, 0x00, 0x00, 0x00,
  0x84, 0xfe, 0xff, 0xff, 0x0f, 0x00, 0x00, 0x00, 0x61, 0x72, 0x69, 0x74,
  0x68, 0x2e, 0x63, 0x6f, 0x6e, 0x73, 0x74, 0x61, 0x6e, 0x74, 0x34, 0x00,
  0x01, 0x00, 0x00, 0x00, 0x03, 0x00, 0x00, 0x00, 0xc2, 0xff, 0xff, 0xff,
  0x00, 0x00, 0x00, 0x01, 0x14, 0x00, 0x00, 0x00, 0x14, 0x00, 0x00, 0x00,
  0x05, 0x00, 0x00, 0x00, 0x00, 0x00, 0x00, 0x02, 0x1c, 0x00, 0x00, 0x00,
  0xc0, 0xfe, 0xff, 0xff, 0x0f, 0x00, 0x00, 0x00, 0x61, 0x72, 0x69, 0x74,
  0x68, 0x2e, 0x63, 0x6f, 0x6e, 0x73, 0x74, 0x61, 0x6e, 0x74, 0x33, 0x00,
  0x01, 0x00, 0x00, 0x00, 0x03, 0x00, 0x00, 0x00, 0x00, 0x00, 0x16, 0x00,
  0x1c, 0x00, 0x18, 0x00, 0x17, 0x00, 0x10, 0x00, 0x0c, 0x00, 0x08, 0x00,
  0x00, 0x00, 0x00, 0x00, 0x00, 0x00, 0x07, 0x00, 0x16, 0x00, 0x00, 0x00,
  0x00, 0x00, 0x00, 0x01, 0x14, 0x00, 0x00, 0x00, 0x14, 0x00, 0x00, 0x00,
  0x04, 0x00, 0x00, 0x00, 0x00, 0x00, 0x00, 0x02, 0x1c, 0x00, 0x00, 0x00,
  0x14, 0xff, 0xff, 0xff, 0x0f, 0x00, 0x00, 0x00, 0x61, 0x72, 0x69, 0x74,
  0x68, 0x2e, 0x63, 0x6f, 0x6e, 0x73, 0x74, 0x61, 0x6e, 0x74, 0x32, 0x00,
  0x01, 0x00, 0x00, 0x00, 0x03, 0x00, 0x00, 0x00, 0xc6, 0xff, 0xff, 0xff,
  0x00, 0x00, 0x00, 0x01, 0x10, 0x00, 0x00, 0x00, 0x10, 0x00, 0x00, 0x00,
  0x03, 0x00, 0x00, 0x00, 0x1c, 0x00, 0x00, 0x00, 0x4c, 0xff, 0xff, 0xff,
  0x0f, 0x00, 0x00, 0x00, 0x61, 0x72, 0x69, 0x74, 0x68, 0x2e, 0x63, 0x6f,
  0x6e, 0x73, 0x74, 0x61, 0x6e, 0x74, 0x31, 0x00, 0x01, 0x00, 0x00, 0x00,
  0x08, 0x00, 0x00, 0x00, 0x00, 0x00, 0x16, 0x00, 0x18, 0x00, 0x14, 0x00,
  0x00, 0x00, 0x10, 0x00, 0x0c, 0x00, 0x08, 0x00, 0x00, 0x00, 0x00, 0x00,
  0x00, 0x00, 0x07, 0x00, 0x16, 0x00, 0x00, 0x00, 0x00, 0x00, 0x00, 0x01,
  0x10, 0x00, 0x00, 0x00, 0x10, 0x00, 0x00, 0x00, 0x02, 0x00, 0x00, 0x00,
  0x1c, 0x00, 0x00, 0x00, 0x9c, 0xff, 0xff, 0xff, 0x0e, 0x00, 0x00, 0x00,
  0x61, 0x72, 0x69, 0x74, 0x68, 0x2e, 0x63, 0x6f, 0x6e, 0x73, 0x74, 0x61,
  0x6e, 0x74, 0x00, 0x00, 0x01, 0x00, 0x00, 0x00, 0x02, 0x00, 0x00, 0x00,
  0x00, 0x00, 0x16, 0x00, 0x1c, 0x00, 0x18, 0x00, 0x00, 0x00, 0x14, 0x00,
  0x10, 0x00, 0x0c, 0x00, 0x00, 0x00, 0x00, 0x00, 0x08, 0x00, 0x07, 0x00,
  0x16, 0x00, 0x00, 0x00, 0x00, 0x00, 0x00, 0x01, 0x14, 0x00, 0x00, 0x00,
  0x24, 0x00, 0x00, 0x00, 0x24, 0x00, 0x00, 0x00, 0x01, 0x00, 0x00, 0x00,
  0x44, 0x00, 0x00, 0x00, 0x03, 0x00, 0x00, 0x00, 0xff, 0xff, 0xff, 0xff,
  0xca, 0x02, 0x00, 0x00, 0x01, 0x00, 0x00, 0x00, 0x04, 0x00, 0x04, 0x00,
  0x04, 0x00, 0x00, 0x00, 0x22, 0x00, 0x00, 0x00, 0x73, 0x65, 0x72, 0x76,
  0x69, 0x6e, 0x67, 0x5f, 0x64, 0x65, 0x66, 0x61, 0x75, 0x6c, 0x74, 0x5f,
  0x6b, 0x65, 0x72, 0x61, 0x73, 0x5f, 0x74, 0x65, 0x6e, 0x73, 0x6f, 0x72,
  0x5f, 0x34, 0x37, 0x31, 0x3a, 0x30, 0x00, 0x00, 0x03, 0x00, 0x00, 0x00,
  0x01, 0x00, 0x00, 0x00, 0xca, 0x02, 0x00, 0x00, 0x01, 0x00, 0x00, 0x00,
  0x06, 0x00, 0x00, 0x00, 0x60, 0x00, 0x00, 0x00, 0x44, 0x00, 0x00, 0x00,
  0x34, 0x00, 0x00, 0x00, 0x24, 0x00, 0x00, 0x00, 0x14, 0x00, 0x00, 0x00,
  0x04, 0x00, 0x00, 0x00, 0xc4, 0xff, 0xff, 0xff, 0x19, 0x00, 0x00, 0x00,
  0x00, 0x00, 0x00, 0x19, 0xd0, 0xff, 0xff, 0xff, 0x09, 0x00, 0x00, 0x00,
  0x00, 0x00, 0x00, 0x09, 0xdc, 0xff, 0xff, 0xff, 0x11, 0x00, 0x00, 0x00,
  0x00, 0x00, 0x00, 0x11, 0xe8, 0xff, 0xff, 0xff, 0x16, 0x00, 0x00, 0x00,
  0x00, 0x00, 0x00, 0x16, 0xf4, 0xff, 0xff, 0xff, 0x03, 0x00, 0x00, 0x00,
  0x00, 0x00, 0x00, 0x03, 0x0c, 0x00, 0x0c, 0x00, 0x0b, 0x00, 0x00, 0x00,
  0x00, 0x00, 0x04, 0x00, 0x0c, 0x00, 0x00, 0x00, 0x46, 0x00, 0x00, 0x00,
  0x00, 0x00, 0x00, 0x46
};

#endif //GESTURE_MODEL_H