#ifndef GESTURE_MODEL_H
#define GESTURE_MODEL_H


unsigned int gesture_model_len = 7908;
unsigned char gesture_model[] = {
 0x1c, 0x00, 0x00, 0x00, 0x54, 0x46, 0x4c, 0x33, 0x14, 0x00, 0x20, 0x00,
  0x1c, 0x00, 0x18, 0x00, 0x14, 0x00, 0x10, 0x00, 0x0c, 0x00, 0x00, 0x00,
  0x08, 0x00, 0x04, 0x00, 0x14, 0x00, 0x00, 0x00, 0x1c, 0x00, 0x00, 0x00,
  0x90, 0x00, 0x00, 0x00, 0xe8, 0x00, 0x00, 0x00, 0xac, 0x0e, 0x00, 0x00,
  0xbc, 0x0e, 0x00, 0x00, 0x40, 0x1e, 0x00, 0x00, 0x03, 0x00, 0x00, 0x00,
  0x01, 0x00, 0x00, 0x00, 0x04, 0x00, 0x00, 0x00, 0xae, 0xee, 0xff, 0xff,
  0x0c, 0x00, 0x00, 0x00, 0x1c, 0x00, 0x00, 0x00, 0x3c, 0x00, 0x00, 0x00,
  0x0f, 0x00, 0x00, 0x00, 0x73, 0x65, 0x72, 0x76, 0x69, 0x6e, 0x67, 0x5f,
  0x64, 0x65, 0x66, 0x61, 0x75, 0x6c, 0x74, 0x00, 0x01, 0x00, 0x00, 0x00,
  0x04, 0x00, 0x00, 0x00, 0x8c, 0xff, 0xff, 0xff, 0x1a, 0x00, 0x00, 0x00,
  0x04, 0x00, 0x00, 0x00, 0x08, 0x00, 0x00, 0x00, 0x6f, 0x75, 0x74, 0x70,
  0x75, 0x74, 0x5f, 0x30, 0x00, 0x00, 0x00, 0x00, 0x01, 0x00, 0x00, 0x00,
  0x04, 0x00, 0x00, 0x00, 0x16, 0xf1, 0xff, 0xff, 0x04, 0x00, 0x00, 0x00,
  0x10, 0x00, 0x00, 0x00, 0x6b, 0x65, 0x72, 0x61, 0x73, 0x5f, 0x74, 0x65,
  0x6e, 0x73, 0x6f, 0x72, 0x5f, 0x33, 0x35, 0x35, 0x00, 0x00, 0x00, 0x00,
  0x02, 0x00, 0x00, 0x00, 0x34, 0x00, 0x00, 0x00, 0x04, 0x00, 0x00, 0x00,
  0xdc, 0xff, 0xff, 0xff, 0x1d, 0x00, 0x00, 0x00, 0x04, 0x00, 0x00, 0x00,
  0x13, 0x00, 0x00, 0x00, 0x43, 0x4f, 0x4e, 0x56, 0x45, 0x52, 0x53, 0x49,
  0x4f, 0x4e, 0x5f, 0x4d, 0x45, 0x54, 0x41, 0x44, 0x41, 0x54, 0x41, 0x00,
  0x08, 0x00, 0x0c, 0x00, 0x08, 0x00, 0x04, 0x00, 0x08, 0x00, 0x00, 0x00,
  0x1c, 0x00, 0x00, 0x00, 0x04, 0x00, 0x00, 0x00, 0x13, 0x00, 0x00, 0x00,
  0x6d, 0x69, 0x6e, 0x5f, 0x72, 0x75, 0x6e, 0x74, 0x69, 0x6d, 0x65, 0x5f,
  0x76, 0x65, 0x72, 0x73, 0x69, 0x6f, 0x6e, 0x00, 0x1e, 0x00, 0x00, 0x00,
  0xc0, 0x0d, 0x00, 0x00, 0xb8, 0x0d, 0x00, 0x00, 0xa0, 0x0d, 0x00, 0x00,
  0x80, 0x0d, 0x00, 0x00, 0x64, 0x0d, 0x00, 0x00, 0x48, 0x0d, 0x00, 0x00,
  0x2c, 0x0d, 0x00, 0x00, 0xbc, 0x0c, 0x00, 0x00, 0x7c, 0x0c, 0x00, 0x00,
  0x5c, 0x01, 0x00, 0x00, 0x44, 0x01, 0x00, 0x00, 0x30, 0x01, 0x00, 0x00,
  0x18, 0x01, 0x00, 0x00, 0x04, 0x01, 0x00, 0x00, 0xfc, 0x00, 0x00, 0x00,
  0xf4, 0x00, 0x00, 0x00, 0xec, 0x00, 0x00, 0x00, 0xe4, 0x00, 0x00, 0x00,
  0xdc, 0x00, 0x00, 0x00, 0xd4, 0x00, 0x00, 0x00, 0xcc, 0x00, 0x00, 0x00,
  0xc4, 0x00, 0x00, 0x00, 0xbc, 0x00, 0x00, 0x00, 0xb4, 0x00, 0x00, 0x00,
  0xac, 0x00, 0x00, 0x00, 0xa4, 0x00, 0x00, 0x00, 0x9c, 0x00, 0x00, 0x00,
  0x94, 0x00, 0x00, 0x00, 0x74, 0x00, 0x00, 0x00, 0x04, 0x00, 0x00, 0x00,
  0x0e, 0xf2, 0xff, 0xff, 0x04, 0x00, 0x00, 0x00, 0x60, 0x00, 0x00, 0x00,
  0x0c, 0x00, 0x00, 0x00, 0x08, 0x00, 0x0e, 0x00, 0x08, 0x00, 0x04, 0x00,
  0x08, 0x00, 0x00, 0x00, 0x10, 0x00, 0x00, 0x00, 0x28, 0x00, 0x00, 0x00,
  0x00, 0x00, 0x06, 0x00, 0x08, 0x00, 0x04, 0x00, 0x06, 0x00, 0x00, 0x00,
  0x04, 0x00, 0x00, 0x00, 0x01, 0x00, 0x00, 0x00, 0xea, 0x03, 0x00, 0x00,
  0x0c, 0x00, 0x18, 0x00, 0x14, 0x00, 0x10, 0x00, 0x0c, 0x00, 0x04, 0x00,
  0x0c, 0x00, 0x00, 0x00, 0xc6, 0x5c, 0xa6, 0x68, 0x13, 0xd6, 0x06, 0x05,
  0x02, 0x00, 0x00, 0x00, 0x02, 0x00, 0x00, 0x00, 0x04, 0x00, 0x00, 0x00,
  0x06, 0x00, 0x00, 0x00, 0x32, 0x2e, 0x31, 0x38, 0x2e, 0x30, 0x00, 0x00,
  0x7a, 0xf2, 0xff, 0xff, 0x04, 0x00, 0x00, 0x00, 0x10, 0x00, 0x00, 0x00,
  0x31, 0x2e, 0x31, 0x30, 0x2e, 0x30, 0x00, 0x00, 0x00, 0x00, 0x00, 0x00,
  0x00, 0x00, 0x00, 0x00, 0xe0, 0xe3, 0xff, 0xff, 0xe4, 0xe3, 0xff, 0xff,
  0xe8, 0xe3, 0xff, 0xff, 0xec, 0xe3, 0xff, 0xff, 0xf0, 0xe3, 0xff, 0xff,
  0xf4, 0xe3, 0xff, 0xff, 0xf8, 0xe3, 0xff, 0xff, 0xfc, 0xe3, 0xff, 0xff,
  0x00, 0xe4, 0xff, 0xff, 0x04, 0xe4, 0xff, 0xff, 0x08, 0xe4, 0xff, 0xff,
  0x0c, 0xe4, 0xff, 0xff, 0x10, 0xe4, 0xff, 0xff, 0x14, 0xe4, 0xff, 0xff,
  0xce, 0xf2, 0xff, 0xff, 0x04, 0x00, 0x00, 0x00, 0x04, 0x00, 0x00, 0x00,
  0xfd, 0xff, 0xff, 0xff, 0xde, 0xf2, 0xff, 0xff, 0x04, 0x00, 0x00, 0x00,
  0x08, 0x00, 0x00, 0x00, 0xff, 0xff, 0xff, 0xff, 0x62, 0x01, 0x00, 0x00,
  0xf2, 0xf2, 0xff, 0xff, 0x04, 0x00, 0x00, 0x00, 0x04, 0x00, 0x00, 0x00,
  0x01, 0x00, 0x00, 0x00, 0x02, 0xf3, 0xff, 0xff, 0x04, 0x00, 0x00, 0x00,
  0x08, 0x00, 0x00, 0x00, 0x5c, 0x7b, 0x44, 0xbd, 0x56, 0x7b, 0x44, 0x3d,
  0x16, 0xf3, 0xff, 0xff, 0x04, 0x00, 0x00, 0x00, 0x10, 0x0b, 0x00, 0x00,
  0xb7, 0x22, 0x15, 0x3d, 0x32, 0xff, 0xdc, 0x3d, 0xbd, 0xac, 0x3f, 0xbd,
  0x80, 0x29, 0x0f, 0x3d, 0x7e, 0xb7, 0x06, 0xbe, 0x0e, 0x93, 0x8b, 0xbd,
  0x44, 0x1a, 0x4b, 0x3d, 0x60, 0x42, 0xe0, 0x3c, 0xfe, 0x9a, 0x7a, 0xbe,
  0xce, 0x2f, 0x9e, 0x3d, 0x0d, 0x4c, 0xfb, 0xbc, 0xb4, 0x77, 0xc3, 0xbd,
  0xce, 0x50, 0xa3, 0xbd, 0x60, 0x21, 0x84, 0x3c, 0x6f, 0xc3, 0x6e, 0x3b,
  0x68, 0x73, 0xde, 0x3d, 0xa6, 0xcf, 0x1b, 0xbe, 0x53, 0x67, 0xf9, 0xbd,
  0x6b, 0x02, 0x1c, 0xbe, 0x38, 0xce, 0xdc, 0x3d, 0x6b, 0xf0, 0xa0, 0xbd,
  0x60, 0x0b, 0xbd, 0x3c, 0x00, 0x66, 0x3e, 0x3d, 0x2e, 0x13, 0xa9, 0x3d,
  0xf8, 0xa6, 0x6c, 0xbd, 0x48, 0x5d, 0xee, 0x3d, 0x9d, 0xc5, 0x86, 0xbe,
  0x6c, 0x15, 0x17, 0x3d, 0x4d, 0x41, 0x84, 0xbe, 0xe0, 0xed, 0xaf, 0x3b,
  0xca, 0xf5, 0x70, 0xbe, 0xfd, 0x52, 0x93, 0xbd, 0xf4, 0x7c, 0x8b, 0xbe,
  0x9c, 0xce, 0x5b, 0xbd, 0x53, 0x86, 0x3d, 0xbd, 0xf0, 0x57, 0x59, 0xbc,
  0xd2, 0x74, 0x7f, 0xbc, 0xae, 0xca, 0xce, 0x3d, 0x91, 0xa4, 0x7f, 0xbe,
  0x5c, 0xf2, 0x86, 0x3d, 0x29, 0x0f, 0xcf, 0xbc, 0x10, 0x62, 0x12, 0x3d,
  0x9f, 0xf6, 0xa5, 0xba, 0x09, 0xc8, 0xd6, 0xbd, 0x20, 0x28, 0x08, 0xbc,
  0x3a, 0x72, 0x8a, 0x3d, 0xdc, 0xf1, 0x2b, 0x3e, 0x02, 0x16, 0xd8, 0x3d,
  0x07, 0xdf, 0x1a, 0x3e, 0xc6, 0x7f, 0x5e, 0xbd, 0x0a, 0x31, 0xa7, 0xbc,
  0x94, 0x8a, 0x38, 0x3d, 0x0f, 0x9e, 0x01, 0x3e, 0x70, 0xbf, 0xbf, 0xbd,
  0x1e, 0xaf, 0x1f, 0x3e, 0x06, 0xd7, 0x39, 0xbd, 0x3d, 0x39, 0xf9, 0x3d,
  0x30, 0x3c, 0xc6, 0xbb, 0x4b, 0x7e, 0x9d, 0x3e, 0xf0, 0xf4, 0xa0, 0xbb,
  0x5e, 0xe6, 0x99, 0x3e, 0x86, 0x9d, 0xca, 0x3d, 0xc6, 0xfa, 0x37, 0xbd,
  0xd2, 0x10, 0xf2, 0x3d, 0x23, 0x9f, 0x3a, 0x3e, 0xe0, 0xd0, 0x6c, 0xbc,
  0x31, 0x02, 0x8c, 0x3e, 0x98, 0xf0, 0xb9, 0x3d, 0xc2, 0x16, 0x9c, 0x39,
  0xf4, 0x50, 0x01, 0x3e, 0xc8, 0x91, 0xda, 0x3d, 0x90, 0xa2, 0x66, 0x3c,
  0x98, 0x38, 0x16, 0x3e, 0x13, 0xa4, 0xc0, 0xbd, 0x84, 0x42, 0xb1, 0xbd,
  0xec, 0x2f, 0x31, 0x3d, 0xf1, 0x74, 0x9a, 0x3e, 0x80, 0x14, 0x12, 0x3d,
  0xec, 0xc4, 0x53, 0x3e, 0x8f, 0xaf, 0xed, 0xbd, 0xec, 0x10, 0x5a, 0x3d,
  0x9c, 0xcb, 0x18, 0xbd, 0x89, 0xee, 0x43, 0x3e, 0xd4, 0x15, 0x21, 0x3d,
  0x5c, 0x6c, 0x16, 0x3e, 0x64, 0x91, 0x57, 0x3d, 0x42, 0xad, 0x65, 0x3d,
  0x66, 0xf7, 0x8d, 0x3d, 0xce, 0xd9, 0x81, 0x3d, 0x2c, 0x99, 0x72, 0xbd,
  0x1a, 0x8d, 0x6c, 0x3e, 0xae, 0x33, 0x8b, 0x3d, 0x9d, 0x25, 0xff, 0x3c,
  0x68, 0x52, 0x45, 0xbc, 0xd1, 0x86, 0xcb, 0x3c, 0x3c, 0x82, 0xab, 0xbd,
  0x80, 0xff, 0x87, 0x3d, 0xb2, 0x62, 0xdb, 0x3d, 0x8e, 0x3b, 0x3a, 0xbd,
  0xd8, 0xd3, 0x9f, 0x3c, 0x51, 0xc6, 0x9f, 0x3d, 0xeb, 0x83, 0xca, 0xbd,
  0xb6, 0xc3, 0x7e, 0x3e, 0x44, 0xe0, 0xa3, 0xbc, 0x99, 0x87, 0x88, 0xbd,
  0x55, 0x20, 0xed, 0xbd, 0xd2, 0x68, 0xc1, 0xbd, 0x80, 0xbd, 0x12, 0x3c,
  0x73, 0x40, 0x2a, 0x3e, 0xf8, 0x71, 0xac, 0x3d, 0xcf, 0x1a, 0x40, 0xbe,
  0x22, 0x00, 0xcf, 0xbd, 0xe0, 0xff, 0xe2, 0x3d, 0x6e, 0x7f, 0x81, 0x3d,
  0x53, 0xc2, 0x56, 0x3c, 0x6c, 0xdd, 0x07, 0x3d, 0x1d, 0xd9, 0xbf, 0xbd,
  0xca, 0x31, 0x93, 0x3d, 0xcb, 0xb6, 0x8c, 0x3d, 0x58, 0xe1, 0x8d, 0x3d,
  0xf4, 0xd0, 0x36, 0x3c, 0x53, 0x31, 0xb0, 0xbd, 0xec, 0xcc, 0x05, 0xbe,
  0xd8, 0xe6, 0xa3, 0xbd, 0x15, 0x8e, 0xfd, 0x3d, 0xa8, 0x75, 0x36, 0xbd,
  0x0d, 0x46, 0x95, 0x3c, 0x24, 0xc4, 0x8c, 0x3d, 0xad, 0x13, 0xce, 0xbd,
  0xce, 0x9b, 0xae, 0xbd, 0xf1, 0xaa, 0x21, 0x3e, 0x4a, 0x84, 0xc4, 0x3d,
  0x43, 0x53, 0x81, 0x3d, 0x00, 0x1e, 0xa0, 0x39, 0xe3, 0x92, 0xd8, 0xbc,
  0x38, 0xaa, 0x41, 0xbd, 0x6a, 0xcf, 0x39, 0x3e, 0x4e, 0x72, 0xfa, 0xbd,
  0x34, 0x6e, 0xb2, 0x3d, 0x17, 0x51, 0xd0, 0xbd, 0x8e, 0xf1, 0xc3, 0xbc,
  0x50, 0x39, 0x5d, 0x3c, 0x1d, 0xaf, 0x0d, 0xbc, 0x40, 0x69, 0x85, 0x3d,
  0xfe, 0x7c, 0x03, 0x3e, 0x7e, 0xc2, 0xc4, 0xbd, 0xe6, 0x3e, 0xb4, 0xbd,
  0x8c, 0x8d, 0x68, 0x3d, 0xdd, 0x52, 0xad, 0x3d, 0x50, 0x63, 0x65, 0x3d,
  0x47, 0xef, 0x6f, 0xbd, 0xa8, 0x65, 0x0a, 0xbc, 0xa4, 0xbb, 0xec, 0xbd,
  0x20, 0x74, 0xc8, 0x3d, 0x56, 0x36, 0x8a, 0xbd, 0xd2, 0x6e, 0xc5, 0x3d,
  0x25, 0xf0, 0xd9, 0xbb, 0xc4, 0xac, 0xb9, 0xbd, 0xc8, 0xba, 0xe1, 0xbd,
  0x18, 0x7e, 0x01, 0xbd, 0x94, 0x2c, 0x49, 0x3e, 0x94, 0x2a, 0x35, 0xbd,
  0xe8, 0xac, 0x1f, 0x3d, 0x48, 0x18, 0x36, 0x3d, 0xe6, 0xad, 0xfa, 0x3d,
  0xf0, 0x2b, 0x09, 0x3d, 0xde, 0x65, 0x7f, 0x3b, 0x34, 0x54, 0xbf, 0x3d,
  0x2a, 0xd3, 0x72, 0x3e, 0xec, 0x6c, 0x6b, 0xbd, 0xb1, 0x2f, 0x11, 0x3e,
  0x00, 0x1e, 0x8d, 0xbb, 0xdc, 0x56, 0x34, 0x3e, 0xf0, 0x2f, 0x19, 0x3d,
  0xc0, 0x8d, 0x43, 0x3e, 0x38, 0x7e, 0xd8, 0xbc, 0xa0, 0xb6, 0x20, 0x3c,
  0x50, 0x26, 0x56, 0xbc, 0x7e, 0x64, 0x75, 0x3e, 0x48, 0x13, 0x13, 0x3d,
  0x9c, 0x20, 0x00, 0x3e, 0x40, 0x92, 0xf5, 0xbc, 0x0c, 0x6f, 0x68, 0x3e,
  0x78, 0xba, 0x14, 0xbd, 0xc8, 0x74, 0x77, 0x3e, 0x58, 0xa5, 0xf1, 0xbd,
  0x97, 0x8c, 0x7a, 0x3e, 0xfc, 0x36, 0x49, 0xbd, 0xad, 0xe0, 0x6e, 0x3e,
  0xc4, 0x14, 0x83, 0xbc, 0x05, 0x3a, 0x41, 0x3e, 0x38, 0xf6, 0x44, 0xbc,
  0x5d, 0x12, 0x3b, 0x3d, 0x2c, 0xf9, 0x31, 0x3d, 0x5b, 0xec, 0x0f, 0x3d,
  0xe8, 0xbc, 0xf0, 0x3c, 0xa9, 0x94, 0x49, 0x3e, 0xc0, 0x4c, 0x69, 0xbb,
  0xfb, 0x5a, 0x0c, 0x3e, 0x66, 0xdd, 0xbc, 0xbd, 0xb2, 0x66, 0x8d, 0x3d,
  0xec, 0x2c, 0x0d, 0xbd, 0x4a, 0x05, 0x70, 0x3d, 0xe0, 0x49, 0x01, 0x3d,
  0xd7, 0x58, 0xa8, 0xbc, 0x8a, 0x6a, 0xcf, 0xbd, 0x17, 0x58, 0x0a, 0x3c,
  0x7a, 0x1a, 0xe7, 0x3d, 0xbe, 0xef, 0x35, 0x3d, 0x90, 0xed, 0x14, 0xbc,
  0xf6, 0x16, 0x98, 0x3d, 0x0b, 0x0d, 0xd3, 0xbd, 0xe3, 0xd7, 0x97, 0x3d,
  0xec, 0x9c, 0xe5, 0xbc, 0xed, 0xc9, 0xa5, 0x3c, 0xc8, 0xa5, 0xff, 0xbd,
  0x87, 0xb2, 0x4b, 0x3d, 0x29, 0xf3, 0xae, 0xbd, 0x15, 0x5c, 0xa4, 0x3b,
  0x7a, 0x40, 0xab, 0xbd, 0xd1, 0xd0, 0x41, 0x3e, 0x4c, 0x56, 0xee, 0x3d,
  0x23, 0x79, 0x61, 0x3e, 0xe8, 0x89, 0x65, 0xbc, 0x52, 0x24, 0x82, 0xbc,
  0x0d, 0x38, 0xd5, 0xbd, 0x91, 0x6f, 0x26, 0x3e, 0xe0, 0x16, 0x8d, 0xbc,
  0xd9, 0xe3, 0xc2, 0x3d, 0x42, 0x23, 0xc8, 0x3d, 0x6b, 0x05, 0x29, 0x3c,
  0xb0, 0xb1, 0x81, 0x3d, 0x40, 0x80, 0x30, 0x3d, 0x00, 0x66, 0xb1, 0xba,
  0x93, 0xd6, 0xe6, 0xbd, 0x6b, 0xfe, 0xf7, 0xbd, 0x64, 0x44, 0x5d, 0xbe,
  0xa8, 0x9e, 0x60, 0x3d, 0xa1, 0xd9, 0x63, 0xbe, 0x90, 0x11, 0x27, 0xbc,
  0xd6, 0x87, 0xba, 0x3c, 0xb0, 0x81, 0x16, 0x3c, 0x40, 0x36, 0x0e, 0xbe,
  0xb0, 0xee, 0x03, 0xbc, 0xbb, 0x74, 0xe5, 0xbd, 0xe6, 0x7b, 0x93, 0x3d,
  0xd3, 0x7f, 0x84, 0x3d, 0x9e, 0xe7, 0x08, 0xbd, 0x4d, 0xe0, 0x1b, 0xbe,
  0x1e, 0xe5, 0x50, 0xbd, 0x69, 0x08, 0xc4, 0xbd, 0x9e, 0xd3, 0xb9, 0x3d,
  0x68, 0x7f, 0x4b, 0xbd, 0xac, 0x9c, 0x62, 0xbd, 0x94, 0x96, 0x54, 0xbd,
  0xb8, 0x16, 0xd5, 0xbc, 0xd3, 0x7d, 0x79, 0xbe, 0x20, 0x10, 0x58, 0x3c,
  0x6a, 0xd6, 0x3d, 0x3d, 0x46, 0x98, 0x00, 0x3e, 0x4f, 0x63, 0x0f, 0xbe,
  0x86, 0x06, 0xf1, 0xbd, 0x25, 0x3a, 0x52, 0xbe, 0xdb, 0xdf, 0xf2, 0xbd,
  0xb8, 0xd4, 0x15, 0xbe, 0xe8, 0x02, 0xdf, 0x3c, 0xe4, 0xf8, 0x78, 0xbe,
  0x49, 0xb6, 0xec, 0xbd, 0x95, 0xe4, 0xa8, 0xbd, 0x38, 0x0c, 0x40, 0x3d,
  0x20, 0x58, 0x51, 0xbd, 0xa1, 0x4c, 0xe0, 0xbd, 0x02, 0x42, 0x14, 0xbd,
  0x78, 0x56, 0x4f, 0x3d, 0xa3, 0xba, 0x04, 0xbe, 0x43, 0x6c, 0x04, 0xbe,
  0xc9, 0xd1, 0x66, 0xbc, 0xc0, 0x9f, 0x5f, 0x3b, 0xc1, 0x5a, 0x3f, 0xbe,
  0x5c, 0x45, 0xf7, 0x3d, 0xe5, 0x78, 0xa8, 0xbd, 0x26, 0x69, 0x02, 0x3e,
  0x83, 0x42, 0x06, 0xbe, 0xe0, 0x2b, 0xf4, 0x3d, 0xbe, 0x2a, 0xde, 0xbc,
  0x88, 0x47, 0xe3, 0x3d, 0xac, 0xd5, 0x06, 0xbd, 0xf0, 0x5e, 0xb3, 0xbd,
  0x02, 0xb5, 0x57, 0x3d, 0xf0, 0xec, 0x50, 0xbd, 0xce, 0x4d, 0x69, 0x3b,
  0xc8, 0x91, 0x44, 0xbd, 0x5d, 0x72, 0x81, 0xbd, 0xcc, 0xa4, 0x3d, 0x3d,
  0xc3, 0x19, 0xa6, 0x3c, 0x60, 0x40, 0x8d, 0x3d, 0x8f, 0xf2, 0x95, 0xbd,
  0x50, 0xdf, 0xdd, 0xbd, 0xee, 0xac, 0x66, 0xbd, 0x94, 0xad, 0xc9, 0xbd,
  0xc6, 0xa5, 0x90, 0xbd, 0x70, 0xa0, 0x2e, 0x3c, 0x3b, 0x8b, 0x3a, 0xbe,
  0x50, 0xbb, 0x21, 0x3c, 0xa3, 0xe9, 0x10, 0x3d, 0x70, 0xc0, 0xcc, 0xbb,
  0x32, 0x7c, 0x9b, 0xbd, 0x70, 0xa0, 0xb4, 0xbc, 0xf2, 0x75, 0x13, 0xbe,
  0xca, 0xed, 0xd2, 0x3d, 0xa1, 0x9c, 0x3d, 0xbe, 0x00, 0xa0, 0xcd, 0xbb,
  0xb6, 0xa5, 0x01, 0xbe, 0xb8, 0xe4, 0xf3, 0x3d, 0x77, 0xcf, 0x06, 0xbe,
  0x50, 0xbb, 0xc0, 0x3d, 0x79, 0x06, 0xd9, 0xbd, 0x64, 0x9b, 0x89, 0x3d,
  0x7f, 0x73, 0x12, 0xbe, 0x38, 0xb7, 0xc9, 0xbd, 0x4f, 0x21, 0x41, 0xbe,
  0x30, 0x13, 0xb6, 0xbd, 0x45, 0x1c, 0x38, 0x3c, 0xe0, 0xe1, 0x90, 0xbb,
  0x3f, 0xd4, 0xc3, 0xbc, 0xf0, 0x5f, 0xa3, 0xbc, 0xb8, 0xa5, 0xc4, 0xbd,
  0x67, 0x1d, 0xe9, 0xbd, 0xa5, 0x29, 0xbe, 0xbd, 0x86, 0xe7, 0x85, 0x3d,
  0x67, 0x98, 0xd4, 0x3b, 0x24, 0xc9, 0xae, 0xbc, 0x97, 0xf8, 0x17, 0xbe,
  0x50, 0x31, 0x2a, 0xbd, 0x6d, 0x9f, 0xa0, 0x3d, 0x2c, 0x2f, 0xcd, 0xbd,
  0x41, 0xb2, 0x3f, 0xbd, 0xec, 0x1f, 0x18, 0xbd, 0xc9, 0x72, 0x56, 0xbd,
  0xd8, 0x7d, 0xef, 0x3d, 0x57, 0xac, 0xe7, 0xbc, 0x6c, 0x88, 0x7b, 0x3d,
  0x3f, 0x9e, 0xeb, 0x3d, 0x62, 0xd3, 0x19, 0xbd, 0xd9, 0x24, 0x86, 0xbd,
  0xf1, 0x9e, 0x8f, 0xbd, 0x28, 0xc2, 0xbe, 0xbd, 0xf2, 0xde, 0xb3, 0xbd,
  0xc2, 0x6f, 0xdd, 0x3c, 0x47, 0x0d, 0xc7, 0xbd, 0x7b, 0xb5, 0xb5, 0x3d,
  0x28, 0x3d, 0xe8, 0xbc, 0xf2, 0x5d, 0xcd, 0x3d, 0xe8, 0x9e, 0x87, 0x3d,
  0xab, 0x4a, 0x32, 0xbd, 0x60, 0xc2, 0xb2, 0x3c, 0xaf, 0x6b, 0xf3, 0x3d,
  0xa8, 0x2d, 0xa2, 0xbd, 0x68, 0x3c, 0x67, 0x3d, 0xec, 0x5a, 0x88, 0xbd,
  0x70, 0x4c, 0x89, 0x3d, 0xea, 0xa6, 0x03, 0x3e, 0x00, 0x65, 0x78, 0x3e,
  0x0b, 0x9b, 0xe8, 0xbd, 0x9e, 0x70, 0x04, 0x3d, 0x54, 0x71, 0x9f, 0xbd,
  0xbd, 0xc7, 0x7c, 0xbd, 0x00, 0x9b, 0xa2, 0xbd, 0x2e, 0x72, 0x3d, 0x3e,
  0x40, 0x3c, 0x4b, 0x3b, 0xa6, 0x2f, 0x6e, 0x3d, 0x66, 0x80, 0xca, 0x3d,
  0xb2, 0xbe, 0x29, 0x3d, 0xa2, 0xaf, 0x8e, 0x3d, 0x19, 0x55, 0xd8, 0x3d,
  0x80, 0xd7, 0xda, 0x3c, 0xa0, 0x53, 0x4a, 0xba, 0x00, 0xb3, 0x65, 0x3b,
  0x6b, 0xef, 0xad, 0x3d, 0x80, 0xd0, 0x84, 0xbd, 0xaf, 0x69, 0x17, 0x3e,
  0xa6, 0xdf, 0x9e, 0xbd, 0x50, 0x82, 0x19, 0x3e, 0xf6, 0x4a, 0xab, 0x3d,
  0x6b, 0xb5, 0x80, 0x3e, 0x00, 0x97, 0x34, 0x3b, 0xa3, 0xea, 0x81, 0x3e,
  0xb0, 0xd8, 0xbf, 0xbb, 0xbb, 0x78, 0x58, 0x3e, 0xc2, 0x1e, 0x1f, 0xbd,
  0x2e, 0x26, 0xb9, 0x3d, 0x54, 0xf8, 0x83, 0x3d, 0x09, 0x64, 0x87, 0x3e,
  0xe0, 0x90, 0x5f, 0x3c, 0x4a, 0xaf, 0xb4, 0x3c, 0xb2, 0xd2, 0x25, 0xbd,
  0xac, 0x18, 0xdf, 0xbd, 0xaa, 0x75, 0xb8, 0x3d, 0x7d, 0x38, 0x79, 0x3d,
  0xb2, 0x97, 0xaf, 0x3d, 0x11, 0x93, 0x24, 0xbe, 0x70, 0x76, 0x2d, 0x3d,
  0x27, 0xdf, 0x1d, 0xbe, 0x90, 0x6c, 0xd0, 0x3d, 0xba, 0xe1, 0x3a, 0x3e,
  0x98, 0x5f, 0x01, 0x3e, 0x78, 0x15, 0x8e, 0xbe, 0x00, 0x72, 0xb5, 0x3b,
  0x27, 0x85, 0x7e, 0xbe, 0x00, 0x3a, 0xaa, 0xba, 0x91, 0x25, 0x3f, 0xbe,
  0x46, 0xb0, 0xb9, 0x3d, 0x92, 0x1b, 0x81, 0xbe, 0x42, 0xec, 0x8b, 0x3d,
  0x79, 0xc3, 0x69, 0xbe, 0xa6, 0xfd, 0x9a, 0x3d, 0x4d, 0x6d, 0x1a, 0x3d,
  0xd4, 0xbf, 0xef, 0xbc, 0x0f, 0xfc, 0x25, 0xbe, 0xf8, 0x04, 0x39, 0xbd,
  0x26, 0x8b, 0x6d, 0xbe, 0xc5, 0x15, 0x97, 0xbd, 0xee, 0x85, 0x56, 0x3d,
  0x06, 0x6c, 0xe7, 0xbd, 0xf7, 0x30, 0x28, 0xbe, 0x5c, 0xe2, 0x24, 0xbd,
  0xc0, 0x7d, 0xf0, 0xbd, 0xa0, 0x3a, 0x96, 0x3d, 0xa3, 0xf7, 0xb4, 0x3d,
  0x3c, 0x7d, 0x64, 0x3d, 0x0c, 0x9f, 0x8c, 0xbe, 0x40, 0x73, 0x39, 0x3c,
  0x16, 0xa3, 0x85, 0xbe, 0x64, 0xfc, 0xe6, 0xbd, 0x34, 0xf7, 0x7c, 0x3d,
  0x74, 0x62, 0x60, 0xbd, 0x67, 0x38, 0x88, 0xbe, 0x90, 0x41, 0xbe, 0xbb,
  0x1f, 0xab, 0x0e, 0xbe, 0x70, 0x58, 0x80, 0x3c, 0x4a, 0xb3, 0x1e, 0xbd,
  0x7c, 0xc7, 0x02, 0x3d, 0x54, 0x38, 0x5f, 0xbd, 0xd8, 0xd0, 0xa2, 0x3d,
  0x56, 0x57, 0x83, 0xbe, 0xd4, 0xc2, 0xd3, 0x3d, 0xb7, 0x66, 0x38, 0x3e,
  0x78, 0xd2, 0xc4, 0xbc, 0xa5, 0xc0, 0x55, 0xbe, 0x22, 0x8f, 0xb3, 0xbd,
  0x5b, 0xa3, 0x71, 0xbe, 0x68, 0x79, 0xaa, 0x3c, 0x36, 0x29, 0x8e, 0x3b,
  0x10, 0x0c, 0x44, 0xbd, 0x89, 0xda, 0x0d, 0xbe, 0x90, 0xfd, 0xf6, 0xbd,
  0x8f, 0xdb, 0x46, 0xbe, 0xfa, 0x2f, 0xb3, 0xbd, 0x71, 0xc7, 0x90, 0x3c,
  0x42, 0xe1, 0xa1, 0x3d, 0x4e, 0x30, 0xe2, 0xbc, 0xa0, 0xda, 0xbc, 0x3c,
  0x5d, 0x3f, 0x91, 0xbc, 0xd4, 0xd6, 0x7b, 0x3d, 0x21, 0x0d, 0xb2, 0x3c,
  0x88, 0x0b, 0xc9, 0x3d, 0x24, 0x93, 0x9a, 0xbd, 0x26, 0x42, 0xd5, 0x3d,
  0x55, 0x2a, 0x23, 0x3c, 0x39, 0xe1, 0xf7, 0xbd, 0x46, 0xd4, 0x75, 0x3d,
  0x90, 0x24, 0xd6, 0xbc, 0x09, 0xe3, 0x11, 0x3d, 0xca, 0xac, 0x03, 0x3e,
  0x55, 0x40, 0x16, 0xbd, 0x60, 0x38, 0x02, 0x3c, 0x02, 0x26, 0xec, 0x3d,
  0xa8, 0x67, 0x9c, 0x3c, 0x08, 0x55, 0xee, 0xbd, 0x1c, 0xbf, 0xa7, 0x3d,
  0x36, 0x2f, 0x49, 0xbd, 0x0c, 0xcd, 0xe7, 0xbd, 0x5a, 0x35, 0xec, 0x3d,
  0xc0, 0x54, 0x40, 0x3d, 0xe3, 0x02, 0x00, 0xbe, 0x16, 0x39, 0xb4, 0x3d,
  0x55, 0xeb, 0x47, 0xbe, 0x40, 0x52, 0xda, 0x3d, 0xf0, 0x22, 0x39, 0x3e,
  0x52, 0xc2, 0xf2, 0x3d, 0x92, 0xf0, 0x5f, 0x3b, 0xd4, 0x1e, 0x7a, 0xbd,
  0x99, 0xcf, 0x9a, 0x3c, 0x5f, 0xf7, 0x03, 0xbe, 0xe8, 0x22, 0xa6, 0x3d,
  0x18, 0x70, 0xea, 0xbd, 0x61, 0xf6, 0x0d, 0xbe, 0xc0, 0xc1, 0xfc, 0x3d,
  0x99, 0x84, 0x9d, 0xbd, 0x4a, 0x1f, 0xb9, 0xbd, 0xbe, 0x6e, 0xd8, 0x3d,
  0x8c, 0xc1, 0xcb, 0x3d, 0xb3, 0x61, 0x4d, 0x3d, 0xb4, 0x51, 0xc8, 0xbd,
  0x65, 0x92, 0x40, 0x3d, 0xc0, 0xf2, 0xc7, 0x3c, 0xba, 0x6f, 0x26, 0x3e,
  0xc0, 0x0b, 0xa9, 0xbd, 0xf7, 0x5c, 0x8d, 0x3d, 0xbc, 0xd1, 0x2a, 0x3d,
  0x5a, 0x1a, 0x55, 0xbc, 0xd0, 0xb3, 0xd9, 0x3d, 0x35, 0xfc, 0xa7, 0xbd,
  0xb0, 0xfa, 0x46, 0x3c, 0x41, 0x61, 0x2d, 0x3d, 0xfc, 0x7a, 0xe1, 0xbd,
  0x0c, 0x09, 0x65, 0x3d, 0x4c, 0x2a, 0xd7, 0x3d, 0x5e, 0xba, 0x50, 0xbd,
  0x88, 0x8b, 0x7b, 0x3d, 0x94, 0x83, 0x59, 0xbe, 0x00, 0xeb, 0x8e, 0xba,
  0xe6, 0xab, 0x40, 0xbe, 0xd0, 0xd8, 0x7e, 0x3c, 0x9f, 0xff, 0x0d, 0xbe,
  0x10, 0x93, 0xb3, 0xbd, 0x93, 0x1f, 0x49, 0xbe, 0xb4, 0x31, 0x14, 0x3d,
  0x92, 0x5b, 0x4a, 0xbe, 0x78, 0x7d, 0xce, 0x3d, 0x7f, 0x1f, 0xd3, 0xbc,
  0xd4, 0xea, 0x27, 0xbd, 0x5b, 0x02, 0x99, 0xbd, 0x52, 0xe6, 0xc2, 0x3d,
  0xe1, 0x72, 0x1b, 0xbd, 0xd0, 0x22, 0x50, 0x3d, 0x10, 0xd2, 0x16, 0xbe,
  0xe2, 0xde, 0xd1, 0xbd, 0x78, 0x79, 0x5b, 0xbe, 0x8a, 0xa1, 0xf5, 0x3d,
  0xb0, 0xbf, 0x0c, 0xbd, 0x5c, 0x14, 0x6f, 0xbd, 0xdf, 0x3d, 0x4b, 0xbd,
  0x60, 0xeb, 0xc9, 0x3c, 0xa2, 0x4a, 0xf4, 0xbd, 0x60, 0x06, 0xa7, 0xbd,
  0xae, 0x0a, 0x55, 0xbe, 0xf0, 0xa0, 0x1f, 0x3d, 0x59, 0xb3, 0x45, 0xbd,
  0xbb, 0xfb, 0xb6, 0xbd, 0x87, 0x94, 0xfb, 0xbd, 0x60, 0x3d, 0x39, 0x3d,
  0x32, 0xa9, 0xe0, 0xbc, 0x50, 0x85, 0x45, 0x3c, 0xa8, 0xe0, 0x63, 0xbe,
  0xc8, 0x02, 0x5a, 0xbc, 0x77, 0xd2, 0x2f, 0xbd, 0xdc, 0x4f, 0xa4, 0xbc,
  0xa8, 0xe7, 0xd6, 0xbd, 0xec, 0x73, 0xcf, 0x3d, 0xf7, 0x7b, 0x9b, 0xbd,
  0xd8, 0xfe, 0xc4, 0xbd, 0x5e, 0x06, 0xa1, 0xbd, 0x2c, 0xab, 0xaf, 0xbc,
  0x92, 0xd0, 0xbc, 0xbd, 0xfc, 0xd5, 0xa8, 0xbd, 0xf7, 0xac, 0x31, 0xbd,
  0x7a, 0xd8, 0x74, 0xbd, 0xa3, 0x6d, 0x46, 0xbe, 0x8c, 0x30, 0xc1, 0xbc,
  0x5d, 0x4d, 0x01, 0xbe, 0x44, 0x95, 0x58, 0xbd, 0xda, 0x07, 0xf0, 0xbd,
  0xb6, 0x81, 0xeb, 0xbd, 0xb9, 0x96, 0x4e, 0xbe, 0xc4, 0x6b, 0x98, 0xbc,
  0x8e, 0x9c, 0x63, 0xbe, 0x00, 0x5a, 0x1a, 0x3a, 0xbb, 0xaa, 0xa9, 0x3c,
  0x50, 0x7d, 0xd2, 0xbc, 0xf8, 0x18, 0x1d, 0x3d, 0x66, 0x0d, 0x96, 0xbd,
  0x7d, 0x3c, 0xd5, 0xbc, 0x30, 0x69, 0x27, 0x3c, 0x38, 0x74, 0x0b, 0xbe,
  0x40, 0xfa, 0xf8, 0x3d, 0x9a, 0xd1, 0xcb, 0xbd, 0x6c, 0x2c, 0x84, 0xbd,
  0x8f, 0x1e, 0x9a, 0xbc, 0xe4, 0xa5, 0x3a, 0x3d, 0xff, 0x1b, 0xf2, 0x3d,
  0x14, 0xae, 0x3b, 0x3d, 0xf0, 0x54, 0x0f, 0x3e, 0x70, 0x77, 0xc7, 0x3c,
  0xca, 0x7f, 0x74, 0xbd, 0x1e, 0x6e, 0xb5, 0x3d, 0xf7, 0x87, 0xb1, 0x3d,
  0xe6, 0x80, 0xc5, 0x3d, 0x1e, 0x6e, 0xc8, 0x3d, 0x70, 0x3f, 0xea, 0xbc,
  0xb5, 0xba, 0xed, 0x3d, 0xc0, 0x38, 0x7f, 0x3d, 0x5d, 0xc5, 0x14, 0x3e,
  0x80, 0xc8, 0x80, 0x3b, 0x90, 0xe8, 0x28, 0x3e, 0x79, 0x9c, 0xe8, 0xbd,
  0xc2, 0xfe, 0x0f, 0x3d, 0x32, 0xe3, 0x87, 0xbd, 0xfb, 0x91, 0x28, 0x3d,
  0x9b, 0xf0, 0xec, 0xbd, 0x38, 0xfc, 0xcc, 0x3d, 0x08, 0xca, 0x98, 0x3c,
  0x5c, 0x4c, 0x53, 0x3e, 0xfe, 0x76, 0xfd, 0xbd, 0xba, 0x03, 0x81, 0x3e,
  0x60, 0xaf, 0x47, 0xbd, 0xa3, 0xc8, 0x1d, 0x3e, 0x15, 0x66, 0x86, 0xbd,
  0x8b, 0x4c, 0xdf, 0x3d, 0xec, 0x6c, 0xe1, 0xbc, 0xd2, 0x27, 0x74, 0x3e,
  0xb0, 0x0b, 0x72, 0x3d, 0x64, 0xc5, 0xf6, 0x3d, 0x9a, 0xb5, 0xfd, 0xbd,
  0x95, 0x5b, 0x83, 0x3c, 0x70, 0xc8, 0x6a, 0xbd, 0xd4, 0x28, 0x23, 0x3d,
  0xb0, 0xec, 0xde, 0x3c, 0x4d, 0x01, 0xbc, 0x3d, 0x84, 0xc7, 0x8b, 0x3d,
  0xd9, 0xb7, 0x9c, 0x3d, 0xae, 0x5d, 0x69, 0xbd, 0xbe, 0xb1, 0x54, 0x3e,
  0xb4, 0x82, 0x0d, 0x3d, 0x9e, 0x48, 0x27, 0x3d, 0xc0, 0x82, 0x57, 0x3d,
  0xb5, 0xc4, 0x31, 0x3e, 0xac, 0x91, 0xb7, 0xbc, 0xd9, 0xd5, 0x82, 0x3e,
  0xd8, 0xc6, 0xcb, 0xbc, 0xb4, 0x3e, 0x82, 0x3c, 0xb0, 0x09, 0x11, 0x3c,
  0x35, 0x76, 0x08, 0xbd, 0xe0, 0x8a, 0x2c, 0xbd, 0x10, 0x49, 0x40, 0x3d,
  0x60, 0x13, 0x82, 0xbd, 0xf2, 0xdd, 0x8d, 0x3a, 0x04, 0x7e, 0x9d, 0xbd,
  0xf4, 0x30, 0x05, 0x3e, 0x20, 0x0d, 0x54, 0x3c, 0x4f, 0xcc, 0xfd, 0x3d,
  0xd0, 0x27, 0xb9, 0xbb, 0x7c, 0xe1, 0xde, 0x3d, 0x40, 0xf0, 0x61, 0xbb,
  0xc2, 0x1f, 0xb8, 0x3c, 0x15, 0xc4, 0x8d, 0xbd, 0x3d, 0xec, 0x2c, 0x3e,
  0x48, 0x2e, 0xa4, 0x3d, 0xe5, 0x5e, 0x09, 0x3e, 0x82, 0x53, 0xa4, 0x3d,
  0xb8, 0xd9, 0x1b, 0x3c, 0x1c, 0xe1, 0x00, 0x3d, 0x47, 0x7a, 0xc1, 0x3d,
  0x34, 0xa7, 0x32, 0x3d, 0x8f, 0x93, 0x2a, 0x3e, 0xe5, 0x4f, 0xda, 0xbd,
  0x3a, 0x7b, 0xad, 0x3d, 0x80, 0xb8, 0x72, 0x3c, 0xf7, 0x4b, 0x34, 0x3e,
  0x1c, 0x61, 0x87, 0x3d, 0xfa, 0x30, 0x75, 0x3b, 0x26, 0x6d, 0xa3, 0x3d,
  0xa4, 0x6f, 0x4c, 0xbc, 0x60, 0x16, 0xd0, 0x3b, 0x88, 0x68, 0x33, 0x3e,
  0xf8, 0x74, 0x93, 0x3d, 0x61, 0x33, 0x1d, 0x3e, 0xe0, 0x80, 0xcb, 0x3c,
  0xb9, 0xa8, 0x74, 0x3c, 0xc0, 0x99, 0x10, 0x3d, 0x4d, 0xb3, 0x23, 0x3e,
  0x38, 0x40, 0x98, 0x3c, 0x67, 0xde, 0x2c, 0x3e, 0x70, 0x95, 0x08, 0xbd,
  0x76, 0x38, 0x7e, 0x3d, 0x8a, 0x66, 0xe4, 0xbd, 0x3c, 0xf3, 0xb9, 0xbc,
  0xac, 0xa4, 0x91, 0x3d, 0xd8, 0x0e, 0x4c, 0xbd, 0xb0, 0xc6, 0x5c, 0x3c,
  0xca, 0xd5, 0xf1, 0x3c, 0x3c, 0xf1, 0x01, 0xbe, 0x46, 0xea, 0xf2, 0x3d,
  0x98, 0x2f, 0x99, 0xbd, 0x12, 0xbf, 0x07, 0x3e, 0x08, 0xe1, 0xda, 0xbc,
  0x93, 0xa5, 0xfc, 0xbd, 0x58, 0x9a, 0x0f, 0x3d, 0x00, 0x78, 0x0a, 0xbc,
  0x3e, 0x4f, 0xa0, 0x3d, 0xd9, 0x5e, 0x92, 0x3d, 0x97, 0x99, 0xfd, 0xbd,
  0x07, 0x31, 0x44, 0xbc, 0xf0, 0x5b, 0xe5, 0xbb, 0x07, 0xf6, 0x25, 0xbd,
  0x06, 0x45, 0x06, 0xbd, 0xf0, 0xa7, 0xc4, 0xbc, 0x2c, 0x81, 0x1c, 0x3d,
  0x32, 0xfe, 0xff, 0xff, 0x04, 0x00, 0x00, 0x00, 0x30, 0x00, 0x00, 0x00,
  0xd1, 0xce, 0x50, 0x3f, 0x2d, 0x64, 0xd7, 0xbc, 0xcd, 0xfd, 0x1d, 0x3f,
  0x63, 0xbb, 0x11, 0xbf, 0xb0, 0x54, 0x29, 0x3f, 0x03, 0xe2, 0x36, 0x3e,
  0x3d, 0x45, 0xa2, 0xbe, 0x5e, 0x52, 0x27, 0x3f, 0xa4, 0x37, 0xa6, 0x3e,
  0xe7, 0xac, 0x15, 0xbf, 0xd0, 0x0d, 0x82, 0xbd, 0xa8, 0xbe, 0xb7, 0x3d,
  0x6e, 0xfe, 0xff, 0xff, 0x04, 0x00, 0x00, 0x00, 0x60, 0x00, 0x00, 0x00,
  0x22, 0xa5, 0x27, 0x3e, 0xb8, 0xa2, 0x4c, 0xbd, 0x96, 0xbb, 0x3e, 0xbf,
  0x00, 0xff, 0x94, 0x3d, 0xb5, 0x60, 0x12, 0x3f, 0x68, 0x33, 0x8a, 0x3e,
  0x2e, 0x57, 0xf6, 0xbd, 0xf0, 0x92, 0xd1, 0x3e, 0xe5, 0xee, 0x19, 0x3f,
  0xbf, 0xe1, 0x90, 0x3e, 0xd2, 0x70, 0x24, 0x3e, 0xb6, 0x0f, 0x7b, 0xbe,
  0x8e, 0xa6, 0x8a, 0x3e, 0x93, 0x46, 0x0d, 0xbf, 0x0e, 0x7d, 0x6c, 0xbe,
  0x08, 0xd4, 0xfe, 0x3d, 0xe3, 0xe3, 0x06, 0xbf, 0x84, 0xe1, 0xd2, 0xbe,
  0xd0, 0xf5, 0x9e, 0xbd, 0xd0, 0x29, 0x7f, 0x3d, 0x68, 0xdb, 0x12, 0xbf,
  0xe0, 0x52, 0xed, 0x3c, 0x70, 0x29, 0x80, 0x3d, 0x10, 0x57, 0xa8, 0x3e,
  0xda, 0xfe, 0xff, 0xff, 0x04, 0x00, 0x00, 0x00, 0x0c, 0x00, 0x00, 0x00,
  0xff, 0xff, 0xff, 0xff, 0xc8, 0x02, 0x00, 0x00, 0x04, 0x00, 0x00, 0x00,
  0xf2, 0xfe, 0xff, 0xff, 0x04, 0x00, 0x00, 0x00, 0x0c, 0x00, 0x00, 0x00,
  0xff, 0xff, 0xff, 0xff, 0x64, 0x01, 0x00, 0x00, 0x04, 0x00, 0x00, 0x00,
  0x0a, 0xff, 0xff, 0xff, 0x04, 0x00, 0x00, 0x00, 0x0c, 0x00, 0x00, 0x00,
  0xff, 0xff, 0xff, 0xff, 0x62, 0x01, 0x00, 0x00, 0x02, 0x00, 0x00, 0x00,
  0x22, 0xff, 0xff, 0xff, 0x04, 0x00, 0x00, 0x00, 0x10, 0x00, 0x00, 0x00,
  0xfb, 0x9f, 0x80, 0xbd, 0x35, 0x43, 0xee, 0xbd, 0x47, 0xa0, 0x74, 0x3d,
  0x00, 0x00, 0x00, 0x00, 0x3e, 0xff, 0xff, 0xff, 0x04, 0x00, 0x00, 0x00,
  0x08, 0x00, 0x00, 0x00, 0x82, 0xcc, 0x78, 0xbd, 0x00, 0x00, 0x00, 0x00,
  0x9c, 0xf0, 0xff, 0xff, 0xa0, 0xf0, 0xff, 0xff, 0x0f, 0x00, 0x00, 0x00,
  0x4d, 0x4c, 0x49, 0x52, 0x20, 0x43, 0x6f, 0x6e, 0x76, 0x65, 0x72, 0x74,
  0x65, 0x64, 0x2e, 0x00, 0x01, 0x00, 0x00, 0x00, 0x14, 0x00, 0x00, 0x00,
  0x00, 0x00, 0x0e, 0x00, 0x18, 0x00, 0x14, 0x00, 0x10, 0x00, 0x0c, 0x00,
  0x08, 0x00, 0x04, 0x00, 0x0e, 0x00, 0x00, 0x00, 0x14, 0x00, 0x00, 0x00,
  0x1c, 0x00, 0x00, 0x00, 0x50, 0x03, 0x00, 0x00, 0x54, 0x03, 0x00, 0x00,
  0x58, 0x03, 0x00, 0x00, 0x04, 0x00, 0x00, 0x00, 0x6d, 0x61, 0x69, 0x6e,
  0x00, 0x00, 0x00, 0x00, 0x0e, 0x00, 0x00, 0x00, 0x08, 0x03, 0x00, 0x00,
  0xa4, 0x02, 0x00, 0x00, 0x6c, 0x02, 0x00, 0x00, 0x30, 0x02, 0x00, 0x00,
  0xdc, 0x01, 0x00, 0x00, 0xb4, 0x01, 0x00, 0x00, 0x84, 0x01, 0x00, 0x00,
  0x3c, 0x01, 0x00, 0x00, 0x14, 0x01, 0x00, 0x00, 0xe4, 0x00, 0x00, 0x00,
  0xa0, 0x00, 0x00, 0x00, 0x78, 0x00, 0x00, 0x00, 0x40, 0x00, 0x00, 0x00,
  0x04, 0x00, 0x00, 0x00, 0x9e, 0xfd, 0xff, 0xff, 0x1c, 0x00, 0x00, 0x00,
  0x00, 0x00, 0x00, 0x09, 0x1c, 0x00, 0x00, 0x00, 0x20, 0x00, 0x00, 0x00,
  0x05, 0x00, 0x00, 0x00, 0x00, 0x00, 0x06, 0x00, 0x08, 0x00, 0x04, 0x00,
  0x06, 0x00, 0x00, 0x00, 0x00, 0x00, 0x80, 0x3f, 0x01, 0x00, 0x00, 0x00,
  0x1a, 0x00, 0x00, 0x00, 0x01, 0x00, 0x00, 0x00, 0x19, 0x00, 0x00, 0x00,
  0xd6, 0xfd, 0xff, 0xff, 0x14, 0x00, 0x00, 0x00, 0x00, 0x00, 0x00, 0x08,
  0x10, 0x00, 0x00, 0x00, 0x14, 0x00, 0x00, 0x00, 0x04, 0x00, 0x00, 0x00,
  0x80, 0xf1, 0xff, 0xff, 0x01, 0x00, 0x00, 0x00, 0x19, 0x00, 0x00, 0x00,
  0x03, 0x00, 0x00, 0x00, 0x18, 0x00, 0x00, 0x00, 0x08, 0x00, 0x00, 0x00,
  0x09, 0x00, 0x00, 0x00, 0x3a, 0xfe, 0xff, 0xff, 0x0c, 0x00, 0x00, 0x00,
  0x10, 0x00, 0x00, 0x00, 0x02, 0x00, 0x00, 0x00, 0x01, 0x00, 0x00, 0x00,
  0x18, 0x00, 0x00, 0x00, 0x02, 0x00, 0x00, 0x00, 0x17, 0x00, 0x00, 0x00,
  0x0b, 0x00, 0x00, 0x00, 0x2e, 0xfe, 0xff, 0xff, 0x14, 0x00, 0x00, 0x00,
  0x00, 0x00, 0x00, 0x05, 0x24, 0x00, 0x00, 0x00, 0x28, 0x00, 0x00, 0x00,
  0x03, 0x00, 0x00, 0x00, 0xda, 0xfe, 0xff, 0xff, 0x01, 0x00, 0x00, 0x00,
  0x02, 0x00, 0x00, 0x00, 0x01, 0x00, 0x00, 0x00, 0x02, 0x00, 0x00, 0x00,
  0x00, 0x00, 0x00, 0x01, 0x01, 0x00, 0x00, 0x00, 0x17, 0x00, 0x00, 0x00,
  0x01, 0x00, 0x00, 0x00, 0x16, 0x00, 0x00, 0x00, 0x0e, 0xfe, 0xff, 0xff,
  0x10, 0x00, 0x00, 0x00, 0x00, 0x00, 0x00, 0x34, 0x0c, 0x00, 0x00, 0x00,
  0x10, 0x00, 0x00, 0x00, 0x14, 0xf2, 0xff, 0xff, 0x01, 0x00, 0x00, 0x00,
  0x16, 0x00, 0x00, 0x00, 0x02, 0x00, 0x00, 0x00, 0x15, 0x00, 0x00, 0x00,
  0x0a, 0x00, 0x00, 0x00, 0xca, 0xfe, 0xff, 0xff, 0x0c, 0x00, 0x00, 0x00,
  0x10, 0x00, 0x00, 0x00, 0x02, 0x00, 0x00, 0x00, 0x01, 0x00, 0x00, 0x00,
  0x15, 0x00, 0x00, 0x00, 0x02, 0x00, 0x00, 0x00, 0x14, 0x00, 0x00, 0x00,
  0x03, 0x00, 0x00, 0x00, 0xbe, 0xfe, 0xff, 0xff, 0x14, 0x00, 0x00, 0x00,
  0x00, 0x00, 0x00, 0x01, 0x20, 0x00, 0x00, 0x00, 0x24, 0x00, 0x00, 0x00,
  0x01, 0x00, 0x00, 0x00, 0xb0, 0xfe, 0xff, 0xff, 0x00, 0x00, 0x00, 0x01,
  0x01, 0x00, 0x00, 0x00, 0x01, 0x00, 0x00, 0x00, 0x00, 0x00, 0x00, 0x01,
  0x01, 0x00, 0x00, 0x00, 0x14, 0x00, 0x00, 0x00, 0x03, 0x00, 0x00, 0x00,
  0x13, 0x00, 0x00, 0x00, 0x06, 0x00, 0x00, 0x00, 0x01, 0x00, 0x00, 0x00,
  0xa2, 0xfe, 0xff, 0xff, 0x10, 0x00, 0x00, 0x00, 0x00, 0x00, 0x00, 0x34,
  0x0c, 0x00, 0x00, 0x00, 0x10, 0x00, 0x00, 0x00, 0xa8, 0xf2, 0xff, 0xff,
  0x01, 0x00, 0x00, 0x00, 0x13, 0x00, 0x00, 0x00, 0x02, 0x00, 0x00, 0x00,
  0x12, 0x00, 0x00, 0x00, 0x0c, 0x00, 0x00, 0x00, 0x5e, 0xff, 0xff, 0xff,
  0x0c, 0x00, 0x00, 0x00, 0x10, 0x00, 0x00, 0x00, 0x02, 0x00, 0x00, 0x00,
  0x01, 0x00, 0x00, 0x00, 0x12, 0x00, 0x00, 0x00, 0x02, 0x00, 0x00, 0x00,
  0x11, 0x00, 0x00, 0x00, 0x04, 0x00, 0x00, 0x00, 0x52, 0xff, 0xff, 0xff,
  0x24, 0x00, 0x00, 0x00, 0x00, 0x00, 0x00, 0x05, 0x34, 0x00, 0x00, 0x00,
  0x38, 0x00, 0x00, 0x00, 0x03, 0x00, 0x00, 0x00, 0x00, 0x00, 0x0e, 0x00,
  0x18, 0x00, 0x17, 0x00, 0x10, 0x00, 0x0c, 0x00, 0x08, 0x00, 0x04, 0x00,
  0x0e, 0x00, 0x00, 0x00, 0x01, 0x00, 0x00, 0x00, 0x02, 0x00, 0x00, 0x00,
  0x01, 0x00, 0x00, 0x00, 0x02, 0x00, 0x00, 0x00, 0x00, 0x00, 0x00, 0x01,
  0x01, 0x00, 0x00, 0x00, 0x11, 0x00, 0x00, 0x00, 0x01, 0x00, 0x00, 0x00,
  0x10, 0x00, 0x00, 0x00, 0x42, 0xff, 0xff, 0xff, 0x10, 0x00, 0x00, 0x00,
  0x00, 0x00, 0x00, 0x34, 0x0c, 0x00, 0x00, 0x00, 0x10, 0x00, 0x00, 0x00,
  0x48, 0xf3, 0xff, 0xff, 0x01, 0x00, 0x00, 0x00, 0x10, 0x00, 0x00, 0x00,
  0x02, 0x00, 0x00, 0x00, 0x0f, 0x00, 0x00, 0x00, 0x0a, 0x00, 0x00, 0x00,
  0x00, 0x00, 0x0a, 0x00, 0x10, 0x00, 0x0c, 0x00, 0x08, 0x00, 0x04, 0x00,
  0x0a, 0x00, 0x00, 0x00, 0x0c, 0x00, 0x00, 0x00, 0x10, 0x00, 0x00, 0x00,
  0x02, 0x00, 0x00, 0x00, 0x01, 0x00, 0x00, 0x00, 0x0f, 0x00, 0x00, 0x00,
  0x02, 0x00, 0x00, 0x00, 0x0e, 0x00, 0x00, 0x00, 0x05, 0x00, 0x00, 0x00,
  0x00, 0x00, 0x0e, 0x00, 0x18, 0x00, 0x14, 0x00, 0x10, 0x00, 0x0c, 0x00,
  0x0b, 0x00, 0x04, 0x00, 0x0e, 0x00, 0x00, 0x00, 0x20, 0x00, 0x00, 0x00,
  0x00, 0x00, 0x00, 0x01, 0x2c, 0x00, 0x00, 0x00, 0x30, 0x00, 0x00, 0x00,
  0x01, 0x00, 0x00, 0x00, 0x0c, 0x00, 0x14, 0x00, 0x13, 0x00, 0x0c, 0x00,
  0x08, 0x00, 0x07, 0x00, 0x0c, 0x00, 0x00, 0x00, 0x00, 0x00, 0x00, 0x01,
  0x01, 0x00, 0x00, 0x00, 0x01, 0x00, 0x00, 0x00, 0x00, 0x00, 0x00, 0x01,
  0x01, 0x00, 0x00, 0x00, 0x0e, 0x00, 0x00, 0x00, 0x03, 0x00, 0x00, 0x00,
  0x0d, 0x00, 0x00, 0x00, 0x07, 0x00, 0x00, 0x00, 0x02, 0x00, 0x00, 0x00,
  0x00, 0x00, 0x0e, 0x00, 0x14, 0x00, 0x00, 0x00, 0x10, 0x00, 0x0c, 0x00,
  0x0b, 0x00, 0x04, 0x00, 0x0e, 0x00, 0x00, 0x00, 0x10, 0x00, 0x00, 0x00,
  0x00, 0x00, 0x00, 0x34, 0x0c, 0x00, 0x00, 0x00, 0x10, 0x00, 0x00, 0x00,
  0x14, 0xf4, 0xff, 0xff, 0x01, 0x00, 0x00, 0x00, 0x0d, 0x00, 0x00, 0x00,
  0x02, 0x00, 0x00, 0x00, 0x00, 0x00, 0x00, 0x00, 0x0c, 0x00, 0x00, 0x00,
  0x01, 0x00, 0x00, 0x00, 0x1a, 0x00, 0x00, 0x00, 0x01, 0x00, 0x00, 0x00,
  0x00, 0x00, 0x00, 0x00, 0x1b, 0x00, 0x00, 0x00, 0x94, 0x0b, 0x00, 0x00,
  0x40, 0x0b, 0x00, 0x00, 0xec, 0x0a, 0x00, 0x00, 0xac, 0x0a, 0x00, 0x00,
  0x54, 0x0a, 0x00, 0x00, 0x14, 0x0a, 0x00, 0x00, 0xcc, 0x09, 0x00, 0x00,
  0x84, 0x09, 0x00, 0x00, 0x44, 0x09, 0x00, 0x00, 0x08, 0x09, 0x00, 0x00,
  0xcc, 0x08, 0x00, 0x00, 0x88, 0x08, 0x00, 0x00, 0x48, 0x08, 0x00, 0x00,
  0xc4, 0x07, 0x00, 0x00, 0xd4, 0x06, 0x00, 0x00, 0x14, 0x06, 0x00, 0x00,
  0x8c, 0x05, 0x00, 0x00, 0x0c, 0x05, 0x00, 0x00, 0x8c, 0x04, 0x00, 0x00,
  0x08, 0x04, 0x00, 0x00, 0x18, 0x03, 0x00, 0x00, 0x58, 0x02, 0x00, 0x00,
  0xd0, 0x01, 0x00, 0x00, 0x50, 0x01, 0x00, 0x00, 0xe8, 0x00, 0x00, 0x00,
  0x60, 0x00, 0x00, 0x00, 0x04, 0x00, 0x00, 0x00, 0xee, 0xf4, 0xff, 0xff,
  0x00, 0x00, 0x00, 0x01, 0x14, 0x00, 0x00, 0x00, 0x1c, 0x00, 0x00, 0x00,
  0x1c, 0x00, 0x00, 0x00, 0x1b, 0x00, 0x00, 0x00, 0x34, 0x00, 0x00, 0x00,
  0x02, 0x00, 0x00, 0x00, 0xff, 0xff, 0xff, 0xff, 0x02, 0x00, 0x00, 0x00,
  0xd4, 0xf4, 0xff, 0xff, 0x1b, 0x00, 0x00, 0x00, 0x53, 0x74, 0x61, 0x74,
  0x65, 0x66, 0x75, 0x6c, 0x50, 0x61, 0x72, 0x74, 0x69, 0x74, 0x69, 0x6f,
  0x6e, 0x65, 0x64, 0x43, 0x61, 0x6c, 0x6c, 0x5f, 0x31, 0x3a, 0x30, 0x00,
  0x02, 0x00, 0x00, 0x00, 0x01, 0x00, 0x00, 0x00, 0x02, 0x00, 0x00, 0x00,
  0x46, 0xf5, 0xff, 0xff, 0x00, 0x00, 0x00, 0x01, 0x14, 0x00, 0x00, 0x00,
  0x1c, 0x00, 0x00, 0x00, 0x1c, 0x00, 0x00, 0x00, 0x1a, 0x00, 0x00, 0x00,
  0x60, 0x00, 0x00, 0x00, 0x02, 0x00, 0x00, 0x00, 0xff, 0xff, 0xff, 0xff,
  0x02, 0x00, 0x00, 0x00, 0x2c, 0xf5, 0xff, 0xff, 0x44, 0x00, 0x00, 0x00,
  0x73, 0x65, 0x71, 0x75, 0x65, 0x6e, 0x74, 0x69, 0x61, 0x6c, 0x5f, 0x32,
  0x35, 0x5f, 0x31, 0x2f, 0x64, 0x65, 0x6e, 0x73, 0x65, 0x5f, 0x35, 0x31,
  0x5f, 0x31, 0x2f, 0x4d, 0x61, 0x74, 0x4d, 0x75, 0x6c, 0x3b, 0x73, 0x65,
  0x71, 0x75, 0x65, 0x6e, 0x74, 0x69, 0x61, 0x6c, 0x5f, 0x32, 0x35, 0x5f,
  0x31, 0x2f, 0x64, 0x65, 0x6e, 0x73, 0x65, 0x5f, 0x35, 0x31, 0x5f, 0x31,
  0x2f, 0x42, 0x69, 0x61, 0x73, 0x41, 0x64, 0x64, 0x00, 0x00, 0x00, 0x00,
  0x02, 0x00, 0x00, 0x00, 0x01, 0x00, 0x00, 0x00, 0x02, 0x00, 0x00, 0x00,
  0xca, 0xf5, 0xff, 0xff, 0x00, 0x00, 0x00, 0x01, 0x14, 0x00, 0x00, 0x00,
  0x1c, 0x00, 0x00, 0x00, 0x1c, 0x00, 0x00, 0x00, 0x19, 0x00, 0x00, 0x00,
  0x40, 0x00, 0x00, 0x00, 0x02, 0x00, 0x00, 0x00, 0xff, 0xff, 0xff, 0xff,
  0x62, 0x01, 0x00, 0x00, 0xb0, 0xf5, 0xff, 0xff, 0x24, 0x00, 0x00, 0x00,
  0x73, 0x65, 0x71, 0x75, 0x65, 0x6e, 0x74, 0x69, 0x61, 0x6c, 0x5f, 0x32,
  0x35, 0x5f, 0x31, 0x2f, 0x66, 0x6c, 0x61, 0x74, 0x74, 0x65, 0x6e, 0x5f,
  0x31, 0x32, 0x5f, 0x31, 0x2f, 0x52, 0x65, 0x73, 0x68, 0x61, 0x70, 0x65,
  0x00, 0x00, 0x00, 0x00, 0x02, 0x00, 0x00, 0x00, 0x01, 0x00, 0x00, 0x00,
  0x62, 0x01, 0x00, 0x00, 0x2e, 0xf6, 0xff, 0xff, 0x00, 0x00, 0x00, 0x01,
  0x14, 0x00, 0x00, 0x00, 0x24, 0x00, 0x00, 0x00, 0x24, 0x00, 0x00, 0x00,
  0x18, 0x00, 0x00, 0x00, 0x50, 0x00, 0x00, 0x00, 0x04, 0x00, 0x00, 0x00,
  0xff, 0xff, 0xff, 0xff, 0x01, 0x00, 0x00, 0x00, 0xb1, 0x00, 0x00, 0x00,
  0x02, 0x00, 0x00, 0x00, 0x1c, 0xf6, 0xff, 0xff, 0x2c, 0x00, 0x00, 0x00,
  0x73, 0x65, 0x71, 0x75, 0x65, 0x6e, 0x74, 0x69, 0x61, 0x6c, 0x5f, 0x32,
  0x35, 0x5f, 0x31, 0x2f, 0x6d, 0x61, 0x78, 0x5f, 0x70, 0x6f, 0x6f, 0x6c,
  0x69, 0x6e, 0x67, 0x31, 0x64, 0x5f, 0x32, 0x35, 0x5f, 0x31, 0x2f, 0x4d,
  0x61, 0x78, 0x50, 0x6f, 0x6f, 0x6c, 0x31, 0x64, 0x00, 0x00, 0x00, 0x00,
  0x04, 0x00, 0x00, 0x00, 0x01, 0x00, 0x00, 0x00, 0x01, 0x00, 0x00, 0x00,
  0xb1, 0x00, 0x00, 0x00, 0x02, 0x00, 0x00, 0x00, 0xaa, 0xf6, 0xff, 0xff,
  0x00, 0x00, 0x00, 0x01, 0x14, 0x00, 0x00, 0x00, 0x24, 0x00, 0x00, 0x00,
  0x24, 0x00, 0x00, 0x00, 0x17, 0x00, 0x00, 0x00, 0x58, 0x00, 0x00, 0x00,
  0x04, 0x00, 0x00, 0x00, 0xff, 0xff, 0xff, 0xff, 0x01, 0x00, 0x00, 0x00,
  0x62, 0x01, 0x00, 0x00, 0x02, 0x00, 0x00, 0x00, 0x98, 0xf6, 0xff, 0xff,
  0x37, 0x00, 0x00, 0x00, 0x73, 0x65, 0x71, 0x75, 0x65, 0x6e, 0x74, 0x69,
  0x61, 0x6c, 0x5f, 0x32, 0x35, 0x5f, 0x31, 0x2f, 0x6d, 0x61, 0x78, 0x5f,
  0x70, 0x6f, 0x6f, 0x6c, 0x69, 0x6e, 0x67, 0x31, 0x64, 0x5f, 0x32, 0x35,
  0x5f, 0x31, 0x2f, 0x4d, 0x61, 0x78, 0x50, 0x6f, 0x6f, 0x6c, 0x31, 0x64,
  0x2f, 0x45, 0x78, 0x70, 0x61, 0x6e, 0x64, 0x44, 0x69, 0x6d, 0x73, 0x00,
  0x04, 0x00, 0x00, 0x00, 0x01, 0x00, 0x00, 0x00, 0x01, 0x00, 0x00, 0x00,
  0x62, 0x01, 0x00, 0x00, 0x02, 0x00, 0x00, 0x00, 0x2e, 0xf7, 0xff, 0xff,
  0x00, 0x00, 0x00, 0x01, 0x14, 0x00, 0x00, 0x00, 0x20, 0x00, 0x00, 0x00,
  0x20, 0x00, 0x00, 0x00, 0x16, 0x00, 0x00, 0x00, 0x94, 0x00, 0x00, 0x00,
  0x03, 0x00, 0x00, 0x00, 0xff, 0xff, 0xff, 0xff, 0x62, 0x01, 0x00, 0x00,
  0x02, 0x00, 0x00, 0x00, 0x18, 0xf7, 0xff, 0xff, 0x75, 0x00, 0x00, 0x00,
  0x73, 0x65, 0x71, 0x75, 0x65, 0x6e, 0x74, 0x69, 0x61, 0x6c, 0x5f, 0x32,
  0x35, 0x5f, 0x31, 0x2f, 0x63, 0x6f, 0x6e, 0x76, 0x31, 0x64, 0x5f, 0x32,
  0x35, 0x5f, 0x31, 0x2f, 0x52, 0x65, 0x6c, 0x75, 0x3b, 0x73, 0x65, 0x71,
  0x75, 0x65, 0x6e, 0x74, 0x69, 0x61, 0x6c, 0x5f, 0x32, 0x35, 0x5f, 0x31,
  0x2f, 0x63, 0x6f, 0x6e, 0x76, 0x31, 0x64, 0x5f, 0x32, 0x35, 0x5f, 0x31,
  0x2f, 0x42, 0x69, 0x61, 0x73, 0x41, 0x64, 0x64, 0x3b, 0x73, 0x65, 0x71,
  0x75, 0x65, 0x6e, 0x74, 0x69, 0x61, 0x6c, 0x5f, 0x32, 0x35, 0x5f, 0x31,
  0x2f, 0x63, 0x6f, 0x6e, 0x76, 0x31, 0x64, 0x5f, 0x32, 0x35, 0x5f, 0x31,
  0x2f, 0x63, 0x6f, 0x6e, 0x76, 0x6f, 0x6c, 0x75, 0x74, 0x69, 0x6f, 0x6e,
  0x2f, 0x53, 0x71, 0x75, 0x65, 0x65, 0x7a, 0x65, 0x3b, 0x00, 0x00, 0x00,
  0x03, 0x00, 0x00, 0x00, 0x01, 0x00, 0x00, 0x00, 0x62, 0x01, 0x00, 0x00,
  0x02, 0x00, 0x00, 0x00, 0xea, 0xf7, 0xff, 0xff, 0x00, 0x00, 0x00, 0x01,
  0x14, 0x00, 0x00, 0x00, 0x24, 0x00, 0x00, 0x00, 0x24, 0x00, 0x00, 0x00,
  0x15, 0x00, 0x00, 0x00, 0xc0, 0x00, 0x00, 0x00, 0x04, 0x00, 0x00, 0x00,
  0xff, 0xff, 0xff, 0xff, 0x01, 0x00, 0x00, 0x00, 0x62, 0x01, 0x00, 0x00,
  0x02, 0x00, 0x00, 0x00, 0xd8, 0xf7, 0xff, 0xff, 0x9d, 0x00, 0x00, 0x00,
  0x73, 0x65, 0x71, 0x75, 0x65, 0x6e, 0x74, 0x69, 0x61, 0x6c, 0x5f, 0x32,
  0x35, 0x5f, 0x31, 0x2f, 0x63, 0x6f, 0x6e, 0x76, 0x31, 0x64, 0x5f, 0x32,
  0x35, 0x5f, 0x31, 0x2f, 0x52, 0x65, 0x6c, 0x75, 0x3b, 0x73, 0x65, 0x71,
  0x75, 0x65, 0x6e, 0x74, 0x69, 0x61, 0x6c, 0x5f, 0x32, 0x35, 0x5f, 0x31,
  0x2f, 0x63, 0x6f, 0x6e, 0x76, 0x31, 0x64, 0x5f, 0x32, 0x35, 0x5f, 0x31,
  0x2f, 0x42, 0x69, 0x61, 0x73, 0x41, 0x64, 0x64, 0x3b, 0x73, 0x65, 0x71,
  0x75, 0x65, 0x6e, 0x74, 0x69, 0x61, 0x6c, 0x5f, 0x32, 0x35, 0x5f, 0x31,
  0x2f, 0x63, 0x6f, 0x6e, 0x76, 0x31, 0x64, 0x5f, 0x32, 0x35, 0x5f, 0x31,
  0x2f, 0x63, 0x6f, 0x6e, 0x76, 0x6f, 0x6c, 0x75, 0x74, 0x69, 0x6f, 0x6e,
  0x2f, 0x53, 0x71, 0x75, 0x65, 0x65, 0x7a, 0x65, 0x3b, 0x3b, 0x73, 0x65,
  0x71, 0x75, 0x65, 0x6e, 0x74, 0x69, 0x61, 0x6c, 0x5f, 0x32, 0x35, 0x5f,
  0x31, 0x2f, 0x63, 0x6f, 0x6e, 0x76, 0x31, 0x64, 0x5f, 0x32, 0x35, 0x5f,
  0x31, 0x2f, 0x63, 0x6f, 0x6e, 0x76, 0x6f, 0x6c, 0x75, 0x74, 0x69, 0x6f,
  0x6e, 0x00, 0x00, 0x00, 0x04, 0x00, 0x00, 0x00, 0x01, 0x00, 0x00, 0x00,
  0x01, 0x00, 0x00, 0x00, 0x62, 0x01, 0x00, 0x00, 0x02, 0x00, 0x00, 0x00,
  0xd6, 0xf8, 0xff, 0xff, 0x00, 0x00, 0x00, 0x01, 0x14, 0x00, 0x00, 0x00,
  0x24, 0x00, 0x00, 0x00, 0x24, 0x00, 0x00, 0x00, 0x14, 0x00, 0x00, 0x00,
  0x54, 0x00, 0x00, 0x00, 0x04, 0x00, 0x00, 0x00, 0xff, 0xff, 0xff, 0xff,
  0x01, 0x00, 0x00, 0x00, 0x64, 0x01, 0x00, 0x00, 0x04, 0x00, 0x00, 0x00,
  0xc4, 0xf8, 0xff, 0xff, 0x32, 0x00, 0x00, 0x00, 0x73, 0x65, 0x71, 0x75,
  0x65, 0x6e, 0x74, 0x69, 0x61, 0x6c, 0x5f, 0x32, 0x35, 0x5f, 0x31, 0x2f,
  0x63, 0x6f, 0x6e, 0x76, 0x31, 0x64, 0x5f, 0x32, 0x35, 0x5f, 0x31, 0x2f,
  0x63, 0x6f, 0x6e, 0x76, 0x6f, 0x6c, 0x75, 0x74, 0x69, 0x6f, 0x6e, 0x2f,
  0x45, 0x78, 0x70, 0x61, 0x6e, 0x64, 0x44, 0x69, 0x6d, 0x73, 0x00, 0x00,
  0x04, 0x00, 0x00, 0x00, 0x01, 0x00, 0x00, 0x00, 0x01, 0x00, 0x00, 0x00,
  0x64, 0x01, 0x00, 0x00, 0x04, 0x00, 0x00, 0x00, 0x56, 0xf9, 0xff, 0xff,
  0x00, 0x00, 0x00, 0x01, 0x14, 0x00, 0x00, 0x00, 0x20, 0x00, 0x00, 0x00,
  0x20, 0x00, 0x00, 0x00, 0x13, 0x00, 0x00, 0x00, 0x54, 0x00, 0x00, 0x00,
  0x03, 0x00, 0x00, 0x00, 0xff, 0xff, 0xff, 0xff, 0x64, 0x01, 0x00, 0x00,
  0x04, 0x00, 0x00, 0x00, 0x40, 0xf9, 0xff, 0xff, 0x34, 0x00, 0x00, 0x00,
  0x73, 0x65, 0x71, 0x75, 0x65, 0x6e, 0x74, 0x69, 0x61, 0x6c, 0x5f, 0x32,
  0x35, 0x5f, 0x31, 0x2f, 0x6d, 0x61, 0x78, 0x5f, 0x70, 0x6f, 0x6f, 0x6c,
  0x69, 0x6e, 0x67, 0x31, 0x64, 0x5f, 0x32, 0x34, 0x5f, 0x31, 0x2f, 0x4d,
  0x61, 0x78, 0x50, 0x6f, 0x6f, 0x6c, 0x31, 0x64, 0x2f, 0x53, 0x71, 0x75,
  0x65, 0x65, 0x7a, 0x65, 0x00, 0x00, 0x00, 0x00, 0x03, 0x00, 0x00, 0x00,
  0x01, 0x00, 0x00, 0x00, 0x64, 0x01, 0x00, 0x00, 0x04, 0x00, 0x00, 0x00,
  0xd2, 0xf9, 0xff, 0xff, 0x00, 0x00, 0x00, 0x01, 0x14, 0x00, 0x00, 0x00,
  0x24, 0x00, 0x00, 0x00, 0x24, 0x00, 0x00, 0x00, 0x12, 0x00, 0x00, 0x00,
  0x50, 0x00, 0x00, 0x00, 0x04, 0x00, 0x00, 0x00, 0xff, 0xff, 0xff, 0xff,
  0x01, 0x00, 0x00, 0x00, 0x64, 0x01, 0x00, 0x00, 0x04, 0x00, 0x00, 0x00,
  0xc0, 0xf9, 0xff, 0xff, 0x2c, 0x00, 0x00, 0x00, 0x73, 0x65, 0x71, 0x75,
  0x65, 0x6e, 0x74, 0x69, 0x61, 0x6c, 0x5f, 0x32, 0x35, 0x5f, 0x31, 0x2f,
  0x6d, 0x61, 0x78, 0x5f, 0x70, 0x6f, 0x6f, 0x6c, 0x69, 0x6e, 0x67, 0x31,
  0x64, 0x5f, 0x32, 0x34, 0x5f, 0x31, 0x2f, 0x4d, 0x61, 0x78, 0x50, 0x6f,
  0x6f, 0x6c, 0x31, 0x64, 0x00, 0x00, 0x00, 0x00, 0x04, 0x00, 0x00, 0x00,
  0x01, 0x00, 0x00, 0x00, 0x01, 0x00, 0x00, 0x00, 0x64, 0x01, 0x00, 0x00,
  0x04, 0x00, 0x00, 0x00, 0x4e, 0xfa, 0xff, 0xff, 0x00, 0x00, 0x00, 0x01,
  0x14, 0x00, 0x00, 0x00, 0x24, 0x00, 0x00, 0x00, 0x24, 0x00, 0x00, 0x00,
  0x11, 0x00, 0x00, 0x00, 0x58, 0x00, 0x00, 0x00, 0x04, 0x00, 0x00, 0x00,
  0xff, 0xff, 0xff, 0xff, 0x01, 0x00, 0x00, 0x00, 0xc8, 0x02, 0x00, 0x00,
  0x04, 0x00, 0x00, 0x00, 0x3c, 0xfa, 0xff, 0xff, 0x37, 0x00, 0x00, 0x00,
  0x73, 0x65, 0x71, 0x75, 0x65, 0x6e, 0x74, 0x69, 0x61, 0x6c, 0x5f, 0x32,
  0x35, 0x5f, 0x31, 0x2f, 0x6d, 0x61, 0x78, 0x5f, 0x70, 0x6f, 0x6f, 0x6c,
  0x69, 0x6e, 0x67, 0x31, 0x64, 0x5f, 0x32, 0x34, 0x5f, 0x31, 0x2f, 0x4d,
  0x61, 0x78, 0x50, 0x6f, 0x6f, 0x6c, 0x31, 0x64, 0x2f, 0x45, 0x78, 0x70,
  0x61, 0x6e, 0x64, 0x44, 0x69, 0x6d, 0x73, 0x00, 0x04, 0x00, 0x00, 0x00,
  0x01, 0x00, 0x00, 0x00, 0x01, 0x00, 0x00, 0x00, 0xc8, 0x02, 0x00, 0x00,
  0x04, 0x00, 0x00, 0x00, 0xd2, 0xfa, 0xff, 0xff, 0x00, 0x00, 0x00, 0x01,
  0x14, 0x00, 0x00, 0x00, 0x20, 0x00, 0x00, 0x00, 0x20, 0x00, 0x00, 0x00,
  0x10, 0x00, 0x00, 0x00, 0x94, 0x00, 0x00, 0x00, 0x03, 0x00, 0x00, 0x00,
  0xff, 0xff, 0xff, 0xff, 0xc8, 0x02, 0x00, 0x00, 0x04, 0x00, 0x00, 0x00,
  0xbc, 0xfa, 0xff, 0xff, 0x75, 0x00, 0x00, 0x00, 0x73, 0x65, 0x71, 0x75,
  0x65, 0x6e, 0x74, 0x69, 0x61, 0x6c, 0x5f, 0x32, 0x35, 0x5f, 0x31, 0x2f,
  0x63, 0x6f, 0x6e, 0x76, 0x31, 0x64, 0x5f, 0x32, 0x34, 0x5f, 0x31, 0x2f,
  0x52, 0x65, 0x6c, 0x75, 0x3b, 0x73, 0x65, 0x71, 0x75, 0x65, 0x6e, 0x74,
  0x69, 0x61, 0x6c, 0x5f, 0x32, 0x35, 0x5f, 0x31, 0x2f, 0x63, 0x6f, 0x6e,
  0x76, 0x31, 0x64, 0x5f, 0x32, 0x34, 0x5f, 0x31, 0x2f, 0x42, 0x69, 0x61,
  0x73, 0x41, 0x64, 0x64, 0x3b, 0x73, 0x65, 0x71, 0x75, 0x65, 0x6e, 0x74,
  0x69, 0x61, 0x6c, 0x5f, 0x32, 0x35, 0x5f, 0x31, 0x2f, 0x63, 0x6f, 0x6e,
  0x76, 0x31, 0x64, 0x5f, 0x32, 0x34, 0x5f, 0x31, 0x2f, 0x63, 0x6f, 0x6e,
  0x76, 0x6f, 0x6c, 0x75, 0x74, 0x69, 0x6f, 0x6e, 0x2f, 0x53, 0x71, 0x75,
  0x65, 0x65, 0x7a, 0x65, 0x3b, 0x00, 0x00, 0x00, 0x03, 0x00, 0x00, 0x00,
  0x01, 0x00, 0x00, 0x00, 0xc8, 0x02, 0x00, 0x00, 0x04, 0x00, 0x00, 0x00,
  0x8e, 0xfb, 0xff, 0xff, 0x00, 0x00, 0x00, 0x01, 0x14, 0x00, 0x00, 0x00,
  0x24, 0x00, 0x00, 0x00, 0x24, 0x00, 0x00, 0x00, 0x0f, 0x00, 0x00, 0x00,
  0xc0, 0x00, 0x00, 0x00, 0x04, 0x00, 0x00, 0x00, 0xff, 0xff, 0xff, 0xff,
  0x01, 0x00, 0x00, 0x00, 0xc8, 0x02, 0x00, 0x00, 0x04, 0x00, 0x00, 0x00,
  0x7c, 0xfb, 0xff, 0xff, 0x9d, 0x00, 0x00, 0x00, 0x73, 0x65, 0x71, 0x75,
  0x65, 0x6e, 0x74, 0x69, 0x61, 0x6c, 0x5f, 0x32, 0x35, 0x5f, 0x31, 0x2f,
  0x63, 0x6f, 0x6e, 0x76, 0x31, 0x64, 0x5f, 0x32, 0x34, 0x5f, 0x31, 0x2f,
  0x52, 0x65, 0x6c, 0x75, 0x3b, 0x73, 0x65, 0x71, 0x75, 0x65, 0x6e, 0x74,
  0x69, 0x61, 0x6c, 0x5f, 0x32, 0x35, 0x5f, 0x31, 0x2f, 0x63, 0x6f, 0x6e,
  0x76, 0x31, 0x64, 0x5f, 0x32, 0x34, 0x5f, 0x31, 0x2f, 0x42, 0x69, 0x61,
  0x73, 0x41, 0x64, 0x64, 0x3b, 0x73, 0x65, 0x71, 0x75, 0x65, 0x6e, 0x74,
  0x69, 0x61, 0x6c, 0x5f, 0x32, 0x35, 0x5f, 0x31, 0x2f, 0x63, 0x6f, 0x6e,
  0x76, 0x31, 0x64, 0x5f, 0x32, 0x34, 0x5f, 0x31, 0x2f, 0x63, 0x6f, 0x6e,
  0x76, 0x6f, 0x6c, 0x75, 0x74, 0x69, 0x6f, 0x6e, 0x2f, 0x53, 0x71, 0x75,
  0x65, 0x65, 0x7a, 0x65, 0x3b, 0x3b, 0x73, 0x65, 0x71, 0x75, 0x65, 0x6e,
  0x74, 0x69, 0x61, 0x6c, 0x5f, 0x32, 0x35, 0x5f, 0x31, 0x2f, 0x63, 0x6f,
  0x6e, 0x76, 0x31, 0x64, 0x5f, 0x32, 0x34, 0x5f, 0x31, 0x2f, 0x63, 0x6f,
  0x6e, 0x76, 0x6f, 0x6c, 0x75, 0x74, 0x69, 0x6f, 0x6e, 0x00, 0x00, 0x00,
  0x04, 0x00, 0x00, 0x00, 0x01, 0x00, 0x00, 0x00, 0x01, 0x00, 0x00, 0x00,
  0xc8, 0x02, 0x00, 0x00, 0x04, 0x00, 0x00, 0x00, 0x7a, 0xfc, 0xff, 0xff,
  0x00, 0x00, 0x00, 0x01, 0x14, 0x00, 0x00, 0x00, 0x24, 0x00, 0x00, 0x00,
  0x24, 0x00, 0x00, 0x00, 0x0e, 0x00, 0x00, 0x00, 0x54, 0x00, 0x00, 0x00,
  0x04, 0x00, 0x00, 0x00, 0xff, 0xff, 0xff, 0xff, 0x01, 0x00, 0x00, 0x00,
  0xca, 0x02, 0x00, 0x00, 0x01, 0x00, 0x00, 0x00, 0x68, 0xfc, 0xff, 0xff,
  0x32, 0x00, 0x00, 0x00, 0x73, 0x65, 0x71, 0x75, 0x65, 0x6e, 0x74, 0x69,
  0x61, 0x6c, 0x5f, 0x32, 0x35, 0x5f, 0x31, 0x2f, 0x63, 0x6f, 0x6e, 0x76,
  0x31, 0x64, 0x5f, 0x32, 0x34, 0x5f, 0x31, 0x2f, 0x63, 0x6f, 0x6e, 0x76,
  0x6f, 0x6c, 0x75, 0x74, 0x69, 0x6f, 0x6e, 0x2f, 0x45, 0x78, 0x70, 0x61,
  0x6e, 0x64, 0x44, 0x69, 0x6d, 0x73, 0x00, 0x00, 0x04, 0x00, 0x00, 0x00,
  0x01, 0x00, 0x00, 0x00, 0x01, 0x00, 0x00, 0x00, 0xca, 0x02, 0x00, 0x00,
  0x01, 0x00, 0x00, 0x00, 0xd6, 0xfd, 0xff, 0xff, 0x00, 0x00, 0x00, 0x01,
  0x14, 0x00, 0x00, 0x00, 0x14, 0x00, 0x00, 0x00, 0x0d, 0x00, 0x00, 0x00,
  0x00, 0x00, 0x00, 0x02, 0x20, 0x00, 0x00, 0x00, 0xd4, 0xfc, 0xff, 0xff,
  0x10, 0x00, 0x00, 0x00, 0x61, 0x72, 0x69, 0x74, 0x68, 0x2e, 0x63, 0x6f,
  0x6e, 0x73, 0x74, 0x61, 0x6e, 0x74, 0x31, 0x31, 0x00, 0x00, 0x00, 0x00,
  0x00, 0x00, 0x00, 0x00, 0x12, 0xfe, 0xff, 0xff, 0x00, 0x00, 0x00, 0x01,
  0x14, 0x00, 0x00, 0x00, 0x14, 0x00, 0x00, 0x00, 0x0c, 0x00, 0x00, 0x00,
  0x00, 0x00, 0x00, 0x02, 0x20, 0x00, 0x00, 0x00, 0x10, 0xfd, 0xff, 0xff,
  0x10, 0x00, 0x00, 0x00, 0x61, 0x72, 0x69, 0x74, 0x68, 0x2e, 0x63, 0x6f,
  0x6e, 0x73, 0x74, 0x61, 0x6e, 0x74, 0x31, 0x30, 0x00, 0x00, 0x00, 0x00,
  0x01, 0x00, 0x00, 0x00, 0x02, 0x00, 0x00, 0x00, 0x52, 0xfe, 0xff, 0xff,
  0x00, 0x00, 0x00, 0x01, 0x14, 0x00, 0x00, 0x00, 0x14, 0x00, 0x00, 0x00,
  0x0b, 0x00, 0x00, 0x00, 0x00, 0x00, 0x00, 0x02, 0x1c, 0x00, 0x00, 0x00,
  0x50, 0xfd, 0xff, 0xff, 0x0f, 0x00, 0x00, 0x00, 0x61, 0x72, 0x69, 0x74,
  0x68, 0x2e, 0x63, 0x6f, 0x6e, 0x73, 0x74, 0x61, 0x6e, 0x74, 0x39, 0x00,
  0x00, 0x00, 0x00, 0x00, 0xfe, 0xfd, 0xff, 0xff, 0x00, 0x00, 0x00, 0x01,
  0x10, 0x00, 0x00, 0x00, 0x10, 0x00, 0x00, 0x00, 0x0a, 0x00, 0x00, 0x00,
  0x1c, 0x00, 0x00, 0x00, 0x84, 0xfd, 0xff, 0xff, 0x0f, 0x00, 0x00, 0x00,
  0x61, 0x72, 0x69, 0x74, 0x68, 0x2e, 0x63, 0x6f, 0x6e, 0x73, 0x74, 0x61,
  0x6e, 0x74, 0x38, 0x00, 0x01, 0x00, 0x00, 0x00, 0x02, 0x00, 0x00, 0x00,
  0x36, 0xfe, 0xff, 0xff, 0x00, 0x00, 0x00, 0x01, 0x10, 0x00, 0x00, 0x00,
  0x10, 0x00, 0x00, 0x00, 0x09, 0x00, 0x00, 0x00, 0x1c, 0x00, 0x00, 0x00,
  0xbc, 0xfd, 0xff, 0xff, 0x0f, 0x00, 0x00, 0x00, 0x61, 0x72, 0x69, 0x74,
  0x68, 0x2e, 0x63, 0x6f, 0x6e, 0x73, 0x74, 0x61, 0x6e, 0x74, 0x37, 0x00,
  0x02, 0x00, 0x00, 0x00, 0x02, 0x00, 0x00, 0x00, 0x62, 0x01, 0x00, 0x00,
  0x72, 0xfe, 0xff, 0xff, 0x00, 0x00, 0x00, 0x01, 0x10, 0x00, 0x00, 0x00,
  0x10, 0x00, 0x00, 0x00, 0x08, 0x00, 0x00, 0x00, 0x1c, 0x00, 0x00, 0x00,
  0xf8, 0xfd, 0xff, 0xff, 0x0f, 0x00, 0x00, 0x00, 0x61, 0x72, 0x69, 0x74,
  0x68, 0x2e, 0x63, 0x6f, 0x6e, 0x73, 0x74, 0x61, 0x6e, 0x74, 0x36, 0x00,
  0x04, 0x00, 0x00, 0x00, 0x04, 0x00, 0x00, 0x00, 0x01, 0x00, 0x00, 0x00,
  0x03, 0x00, 0x00, 0x00, 0x01, 0x00, 0x00, 0x00, 0xb6, 0xfe, 0xff, 0xff,
  0x00, 0x00, 0x00, 0x01, 0x10, 0x00, 0x00, 0x00, 0x10, 0x00, 0x00, 0x00,
  0x07, 0x00, 0x00, 0x00, 0x1c, 0x00, 0x00, 0x00, 0x3c, 0xfe, 0xff, 0xff,
  0x0f, 0x00, 0x00, 0x00, 0x61, 0x72, 0x69, 0x74, 0x68, 0x2e, 0x63, 0x6f,
  0x6e, 0x73, 0x74, 0x61, 0x6e, 0x74, 0x35, 0x00, 0x04, 0x00, 0x00, 0x00,
  0x02, 0x00, 0x00, 0x00, 0x01, 0x00, 0x00, 0x00, 0x03, 0x00, 0x00, 0x00,
  0x04, 0x00, 0x00, 0x00, 0x86, 0xff, 0xff, 0xff, 0x00, 0x00, 0x00, 0x01,
  0x14, 0x00, 0x00, 0x00, 0x14, 0x00, 0x00, 0x00, 0x06, 0x00, 0x00, 0x00,
  0x00, 0x00, 0x00, 0x02, 0x1c, 0x00, 0x00, 0x00, 0x84, 0xfe, 0xff, 0xff,
  0x0f, 0x00, 0x00, 0x00, 0x61, 0x72, 0x69, 0x74, 0x68, 0x2e, 0x63, 0x6f,
  0x6e, 0x73, 0x74, 0x61, 0x6e, 0x74, 0x34, 0x00, 0x01, 0x00, 0x00, 0x00,
  0x03, 0x00, 0x00, 0x00, 0xc2, 0xff, 0xff, 0xff, 0x00, 0x00, 0x00, 0x01,
  0x14, 0x00, 0x00, 0x00, 0x14, 0x00, 0x00, 0x00, 0x05, 0x00, 0x00, 0x00,
  0x00, 0x00, 0x00, 0x02, 0x1c, 0x00, 0x00, 0x00, 0xc0, 0xfe, 0xff, 0xff,
  0x0f, 0x00, 0x00, 0x00, 0x61, 0x72, 0x69, 0x74, 0x68, 0x2e, 0x63, 0x6f,
  0x6e, 0x73, 0x74, 0x61, 0x6e, 0x74, 0x33, 0x00, 0x01, 0x00, 0x00, 0x00,
  0x03, 0x00, 0x00, 0x00, 0x00, 0x00, 0x16, 0x00, 0x1c, 0x00, 0x18, 0x00,
  0x17, 0x00, 0x10, 0x00, 0x0c, 0x00, 0x08, 0x00, 0x00, 0x00, 0x00, 0x00,
  0x00, 0x00, 0x07, 0x00, 0x16, 0x00, 0x00, 0x00, 0x00, 0x00, 0x00, 0x01,
  0x14, 0x00, 0x00, 0x00, 0x14, 0x00, 0x00, 0x00, 0x04, 0x00, 0x00, 0x00,
  0x00, 0x00, 0x00, 0x02, 0x1c, 0x00, 0x00, 0x00, 0x14, 0xff, 0xff, 0xff,
  0x0f, 0x00, 0x00, 0x00, 0x61, 0x72, 0x69, 0x74, 0x68, 0x2e, 0x63, 0x6f,
  0x6e, 0x73, 0x74, 0x61, 0x6e, 0x74, 0x32, 0x00, 0x01, 0x00, 0x00, 0x00,
  0x03, 0x00, 0x00, 0x00, 0xc6, 0xff, 0xff, 0xff, 0x00, 0x00, 0x00, 0x01,
  0x10, 0x00, 0x00, 0x00, 0x10, 0x00, 0x00, 0x00, 0x03, 0x00, 0x00, 0x00,
  0x1c, 0x00, 0x00, 0x00, 0x4c, 0xff, 0xff, 0xff, 0x0f, 0x00, 0x00, 0x00,
  0x61, 0x72, 0x69, 0x74, 0x68, 0x2e, 0x63, 0x6f, 0x6e, 0x73, 0x74, 0x61,
  0x6e, 0x74, 0x31, 0x00, 0x01, 0x00, 0x00, 0x00, 0x04, 0x00, 0x00, 0x00,
  0x00, 0x00, 0x16, 0x00, 0x18, 0x00, 0x14, 0x00, 0x00, 0x00, 0x10, 0x00,
  0x0c, 0x00, 0x08, 0x00, 0x00, 0x00, 0x00, 0x00, 0x00, 0x00, 0x07, 0x00,
  0x16, 0x00, 0x00, 0x00, 0x00, 0x00, 0x00, 0x01, 0x10, 0x00, 0x00, 0x00,
  0x10, 0x00, 0x00, 0x00, 0x02, 0x00, 0x00, 0x00, 0x1c, 0x00, 0x00, 0x00,
  0x9c, 0xff, 0xff, 0xff, 0x0e, 0x00, 0x00, 0x00, 0x61, 0x72, 0x69, 0x74,
  0x68, 0x2e, 0x63, 0x6f, 0x6e, 0x73, 0x74, 0x61, 0x6e, 0x74, 0x00, 0x00,
  0x01, 0x00, 0x00, 0x00, 0x02, 0x00, 0x00, 0x00, 0x00, 0x00, 0x16, 0x00,
  0x1c, 0x00, 0x18, 0x00, 0x00, 0x00, 0x14, 0x00, 0x10, 0x00, 0x0c, 0x00,
  0x00, 0x00, 0x00, 0x00, 0x08, 0x00, 0x07, 0x00, 0x16, 0x00, 0x00, 0x00,
  0x00, 0x00, 0x00, 0x01, 0x14, 0x00, 0x00, 0x00, 0x24, 0x00, 0x00, 0x00,
  0x24, 0x00, 0x00, 0x00, 0x01, 0x00, 0x00, 0x00, 0x44, 0x00, 0x00, 0x00,
  0x03, 0x00, 0x00, 0x00, 0xff, 0xff, 0xff, 0xff, 0xca, 0x02, 0x00, 0x00,
  0x01, 0x00, 0x00, 0x00, 0x04, 0x00, 0x04, 0x00, 0x04, 0x00, 0x00, 0x00,
  0x22, 0x00, 0x00, 0x00, 0x73, 0x65, 0x72, 0x76, 0x69, 0x6e, 0x67, 0x5f,
  0x64, 0x65, 0x66, 0x61, 0x75, 0x6c, 0x74, 0x5f, 0x6b, 0x65, 0x72, 0x61,
  0x73, 0x5f, 0x74, 0x65, 0x6e, 0x73, 0x6f, 0x72, 0x5f, 0x33, 0x35, 0x35,
  0x3a, 0x30, 0x00, 0x00, 0x03, 0x00, 0x00, 0x00, 0x01, 0x00, 0x00, 0x00,
  0xca, 0x02, 0x00, 0x00, 0x01, 0x00, 0x00, 0x00, 0x06, 0x00, 0x00, 0x00,
  0x60, 0x00, 0x00, 0x00, 0x44, 0x00, 0x00, 0x00, 0x34, 0x00, 0x00, 0x00,
  0x24, 0x00, 0x00, 0x00, 0x14, 0x00, 0x00, 0x00, 0x04, 0x00, 0x00, 0x00,
  0xc4, 0xff, 0xff, 0xff, 0x19, 0x00, 0x00, 0x00, 0x00, 0x00, 0x00, 0x19,
  0xd0, 0xff, 0xff, 0xff, 0x09, 0x00, 0x00, 0x00, 0x00, 0x00, 0x00, 0x09,
  0xdc, 0xff, 0xff, 0xff, 0x11, 0x00, 0x00, 0x00, 0x00, 0x00, 0x00, 0x11,
  0xe8, 0xff, 0xff, 0xff, 0x16, 0x00, 0x00, 0x00, 0x00, 0x00, 0x00, 0x16,
  0xf4, 0xff, 0xff, 0xff, 0x03, 0x00, 0x00, 0x00, 0x00, 0x00, 0x00, 0x03,
  0x0c, 0x00, 0x0c, 0x00, 0x0b, 0x00, 0x00, 0x00, 0x00, 0x00, 0x04, 0x00,
  0x0c, 0x00, 0x00, 0x00, 0x46, 0x00, 0x00, 0x00, 0x00, 0x00, 0x00, 0x46
 
};

#endif //GESTURE_MODEL_H