#ifndef SINE_MODEL_H
#define SINE_MODEL_H


unsigned int sine_model_len = 3396;
unsigned char sine_model[] = {
 0x1c, 0x00, 0x00, 0x00, 0x54, 0x46, 0x4c, 0x33, 0x14, 0x00, 0x20, 0x00,
  0x1c, 0x00, 0x18, 0x00, 0x14, 0x00, 0x10, 0x00, 0x0c, 0x00, 0x00, 0x00,
  0x08, 0x00, 0x04, 0x00, 0x14, 0x00, 0x00, 0x00, 0x1c, 0x00, 0x00, 0x00,
  0x8c, 0x00, 0x00, 0x00, 0xe4, 0x00, 0x00, 0x00, 0x18, 0x07, 0x00, 0x00,
  0x28, 0x07, 0x00, 0x00, 0xe0, 0x0c, 0x00, 0x00, 0x03, 0x00, 0x00, 0x00,
  0x01, 0x00, 0x00, 0x00, 0x04, 0x00, 0x00, 0x00, 0x16, 0xf8, 0xff, 0xff,
  0x0c, 0x00, 0x00, 0x00, 0x1c, 0x00, 0x00, 0x00, 0x3c, 0x00, 0x00, 0x00,
  0x0f, 0x00, 0x00, 0x00, 0x73, 0x65, 0x72, 0x76, 0x69, 0x6e, 0x67, 0x5f,
  0x64, 0x65, 0x66, 0x61, 0x75, 0x6c, 0x74, 0x00, 0x01, 0x00, 0x00, 0x00,
  0x04, 0x00, 0x00, 0x00, 0x90, 0xff, 0xff, 0xff, 0x0b, 0x00, 0x00, 0x00,
  0x04, 0x00, 0x00, 0x00, 0x08, 0x00, 0x00, 0x00, 0x6f, 0x75, 0x74, 0x70,
  0x75, 0x74, 0x5f, 0x30, 0x00, 0x00, 0x00, 0x00, 0x01, 0x00, 0x00, 0x00,
  0x04, 0x00, 0x00, 0x00, 0xaa, 0xf9, 0xff, 0xff, 0x04, 0x00, 0x00, 0x00,
  0x0c, 0x00, 0x00, 0x00, 0x6b, 0x65, 0x72, 0x61, 0x73, 0x5f, 0x74, 0x65,
  0x6e, 0x73, 0x6f, 0x72, 0x00, 0x00, 0x00, 0x00, 0x02, 0x00, 0x00, 0x00,
  0x34, 0x00, 0x00, 0x00, 0x04, 0x00, 0x00, 0x00, 0xdc, 0xff, 0xff, 0xff,
  0x0e, 0x00, 0x00, 0x00, 0x04, 0x00, 0x00, 0x00, 0x13, 0x00, 0x00, 0x00,
  0x43, 0x4f, 0x4e, 0x56, 0x45, 0x52, 0x53, 0x49, 0x4f, 0x4e, 0x5f, 0x4d,
  0x45, 0x54, 0x41, 0x44, 0x41, 0x54, 0x41, 0x00, 0x08, 0x00, 0x0c, 0x00,
  0x08, 0x00, 0x04, 0x00, 0x08, 0x00, 0x00, 0x00, 0x0d, 0x00, 0x00, 0x00,
  0x04, 0x00, 0x00, 0x00, 0x13, 0x00, 0x00, 0x00, 0x6d, 0x69, 0x6e, 0x5f,
  0x72, 0x75, 0x6e, 0x74, 0x69, 0x6d, 0x65, 0x5f, 0x76, 0x65, 0x72, 0x73,
  0x69, 0x6f, 0x6e, 0x00, 0x0f, 0x00, 0x00, 0x00, 0x30, 0x06, 0x00, 0x00,
  0x28, 0x06, 0x00, 0x00, 0xd8, 0x05, 0x00, 0x00, 0xc0, 0x01, 0x00, 0x00,
  0xac, 0x01, 0x00, 0x00, 0x5c, 0x01, 0x00, 0x00, 0x0c, 0x01, 0x00, 0x00,
  0xbc, 0x00, 0x00, 0x00, 0xb4, 0x00, 0x00, 0x00, 0xac, 0x00, 0x00, 0x00,
  0xa4, 0x00, 0x00, 0x00, 0x9c, 0x00, 0x00, 0x00, 0x94, 0x00, 0x00, 0x00,
  0x74, 0x00, 0x00, 0x00, 0x04, 0x00, 0x00, 0x00, 0x62, 0xfa, 0xff, 0xff,
  0x04, 0x00, 0x00, 0x00, 0x60, 0x00, 0x00, 0x00, 0x0c, 0x00, 0x00, 0x00,
  0x08, 0x00, 0x0e, 0x00, 0x08, 0x00, 0x04, 0x00, 0x08, 0x00, 0x00, 0x00,
  0x10, 0x00, 0x00, 0x00, 0x28, 0x00, 0x00, 0x00, 0x00, 0x00, 0x06, 0x00,
  0x08, 0x00, 0x04, 0x00, 0x06, 0x00, 0x00, 0x00, 0x04, 0x00, 0x00, 0x00,
  0x01, 0x00, 0x00, 0x00, 0xea, 0x03, 0x00, 0x00, 0x0c, 0x00, 0x18, 0x00,
  0x14, 0x00, 0x10, 0x00, 0x0c, 0x00, 0x04, 0x00, 0x0c, 0x00, 0x00, 0x00,
  0x48, 0x0f, 0x67, 0x69, 0x7f, 0x52, 0x02, 0xc4, 0x02, 0x00, 0x00, 0x00,
  0x02, 0x00, 0x00, 0x00, 0x04, 0x00, 0x00, 0x00, 0x06, 0x00, 0x00, 0x00,
  0x32, 0x2e, 0x31, 0x38, 0x2e, 0x30, 0x00, 0x00, 0xce, 0xfa, 0xff, 0xff,
  0x04, 0x00, 0x00, 0x00, 0x10, 0x00, 0x00, 0x00, 0x31, 0x2e, 0x31, 0x34,
  0x2e, 0x30, 0x00, 0x00, 0x00, 0x00, 0x00, 0x00, 0x00, 0x00, 0x00, 0x00,
  0xf8, 0xf4, 0xff, 0xff, 0xfc, 0xf4, 0xff, 0xff, 0x00, 0xf5, 0xff, 0xff,
  0x04, 0xf5, 0xff, 0xff, 0x08, 0xf5, 0xff, 0xff, 0xfe, 0xfa, 0xff, 0xff,
  0x04, 0x00, 0x00, 0x00, 0x40, 0x00, 0x00, 0x00, 0xd0, 0x9b, 0x29, 0xbf,
  0xd7, 0x6c, 0x40, 0xbf, 0x79, 0xff, 0xb8, 0x3f, 0x78, 0x1a, 0x33, 0xbf,
  0xf0, 0xc7, 0x60, 0xbf, 0x26, 0x7b, 0x11, 0x40, 0x5a, 0x09, 0xc1, 0x3f,
  0xe3, 0xfb, 0x6a, 0xbf, 0x04, 0x2f, 0x3e, 0xbf, 0xca, 0xce, 0x56, 0xbf,
  0xe0, 0x5c, 0x48, 0xbf, 0xf6, 0xcf, 0x39, 0xbf, 0x40, 0x5e, 0x15, 0x40,
  0xd3, 0xdf, 0x36, 0x3f, 0x04, 0x23, 0xeb, 0x3e, 0xd9, 0x63, 0x42, 0xbf,
  0x4a, 0xfb, 0xff, 0xff, 0x04, 0x00, 0x00, 0x00, 0x40, 0x00, 0x00, 0x00,
  0x88, 0xa8, 0xa4, 0x3f, 0x96, 0x7a, 0xaa, 0x3f, 0xf2, 0x3d, 0xd5, 0xbe,
  0xe6, 0x73, 0x92, 0x3f, 0x7a, 0x41, 0x83, 0x3f, 0xb7, 0x66, 0x13, 0xbf,
  0xfb, 0x3f, 0xd5, 0xbd, 0xd6, 0x70, 0x8b, 0x3f, 0x6e, 0xd4, 0xa9, 0x3f,
  0x2d, 0xa7, 0xa2, 0x3f, 0x90, 0x7e, 0xb0, 0x3f, 0x66, 0x2f, 0x90, 0x3f,
  0x1f, 0x36, 0xb6, 0xbe, 0x56, 0x15, 0x34, 0xbf, 0xb8, 0xac, 0x33, 0xbf,
  0x67, 0xc6, 0xaf, 0x3f, 0x96, 0xfb, 0xff, 0xff, 0x04, 0x00, 0x00, 0x00,
  0x40, 0x00, 0x00, 0x00, 0x0e, 0xe2, 0x9d, 0xbc, 0x90, 0x3c, 0xa8, 0xbc,
  0x44, 0x26, 0x60, 0x3e, 0x26, 0xbc, 0xd3, 0xbe, 0xe3, 0x38, 0xa9, 0x3e,
  0x87, 0x4a, 0x0c, 0xbf, 0xa0, 0xc7, 0x18, 0xbf, 0xf3, 0x65, 0x34, 0x3c,
  0x61, 0x5d, 0x40, 0x3d, 0xbd, 0x70, 0x9a, 0x3e, 0xd0, 0x24, 0xaa, 0x3d,
  0xbe, 0x66, 0xb7, 0x3e, 0xd1, 0xa4, 0xf8, 0xbb, 0x6f, 0xdd, 0x07, 0x3e,
  0x91, 0x88, 0x5d, 0xbe, 0xce, 0xf7, 0x4b, 0x3e, 0xe2, 0xfb, 0xff, 0xff,
  0x04, 0x00, 0x00, 0x00, 0x04, 0x00, 0x00, 0x00, 0xbe, 0x03, 0x58, 0xbe,
  0xf2, 0xfb, 0xff, 0xff, 0x04, 0x00, 0x00, 0x00, 0x00, 0x04, 0x00, 0x00,
  0xe7, 0xd0, 0x32, 0x3f, 0x53, 0x4b, 0x30, 0x3f, 0x17, 0x00, 0x71, 0x3d,
  0xb3, 0x34, 0x75, 0x3f, 0x0b, 0xe6, 0x36, 0x3f, 0x03, 0x03, 0x4f, 0x3e,
  0x8e, 0x57, 0xb5, 0xbd, 0x83, 0xbe, 0xd3, 0xbc, 0x1d, 0xa4, 0x02, 0x3f,
  0x67, 0xf8, 0xa2, 0x3e, 0x0a, 0x07, 0x5b, 0x3f, 0x50, 0x75, 0x15, 0x3f,
  0x97, 0xd0, 0xf7, 0xbd, 0x96, 0x0e, 0x6c, 0xbb, 0xc6, 0x89, 0x99, 0xbe,
  0x81, 0xf5, 0x24, 0x3f, 0x46, 0x39, 0xe1, 0xbf, 0x1d, 0xa2, 0xd1, 0xbf,
  0x2d, 0xcd, 0xca, 0x3e, 0xa2, 0x02, 0xc6, 0xbf, 0x59, 0xf5, 0xa4, 0xbf,
  0xfe, 0x24, 0xd4, 0x3e, 0xc8, 0x1c, 0x89, 0xbe, 0x36, 0x65, 0x78, 0xbf,
  0x43, 0x3f, 0xb9, 0xbf, 0x44, 0x7c, 0xb7, 0xbf, 0x11, 0xfc, 0xdf, 0xbf,
  0x3f, 0x3c, 0xe8, 0xbf, 0xee, 0x70, 0x44, 0xbe, 0xdc, 0xd1, 0x77, 0xbe,
  0xdc, 0xe1, 0xff, 0x3e, 0x2c, 0x99, 0xa8, 0xbf, 0x47, 0x06, 0x00, 0xbf,
  0x1c, 0x6e, 0x39, 0xbf, 0x67, 0xf1, 0x6b, 0x3f, 0xd8, 0xf5, 0xed, 0xbd,
  0xd6, 0xa9, 0x2d, 0xbf, 0xb6, 0xb7, 0x90, 0x3f, 0xaa, 0xe2, 0x84, 0x3f,
  0xf0, 0x31, 0x32, 0xbf, 0xb0, 0x46, 0x7b, 0xbe, 0x20, 0xbf, 0x2a, 0xbe,
  0x65, 0xc5, 0xfb, 0xbe, 0x55, 0x6c, 0x09, 0xbf, 0x09, 0xe7, 0x8d, 0x3f,
  0x37, 0x2b, 0x2c, 0x3e, 0x45, 0x65, 0x54, 0x3f, 0xef, 0x60, 0x9b, 0xbe,
  0xd1, 0xaf, 0x02, 0x40, 0x5d, 0x96, 0x11, 0x40, 0xc7, 0xcb, 0x37, 0xbf,
  0xf0, 0x5b, 0xeb, 0x3f, 0xa7, 0xd8, 0xe5, 0x3f, 0x4d, 0xd3, 0x4c, 0xbf,
  0x5e, 0x74, 0x66, 0xbf, 0x3b, 0xf1, 0xec, 0x3f, 0xff, 0xba, 0x0c, 0x40,
  0x09, 0x88, 0xdd, 0x3f, 0x32, 0x60, 0x0e, 0x40, 0x5b, 0xd9, 0xd9, 0x3f,
  0x7b, 0x27, 0x19, 0xbf, 0xd9, 0x7c, 0xc5, 0xbe, 0xb0, 0xbd, 0x41, 0xbf,
  0x05, 0xec, 0xf9, 0x3f, 0xe9, 0x20, 0xa7, 0xbf, 0x62, 0x46, 0xc5, 0xbf,
  0x91, 0x08, 0x38, 0x3f, 0x5b, 0x41, 0x7c, 0xbf, 0x21, 0xfb, 0xa9, 0xbf,
  0x16, 0xcf, 0x89, 0x3f, 0x6f, 0x30, 0x12, 0x3f, 0x93, 0x92, 0x40, 0xbf,
  0x87, 0x55, 0x9c, 0xbf, 0x4f, 0x28, 0xbd, 0xbf, 0x48, 0xbd, 0xb9, 0xbf,
  0x3d, 0xb1, 0xb5, 0xbf, 0x53, 0xef, 0x3e, 0x3f, 0xba, 0x2e, 0xe4, 0x3e,
  0x64, 0x81, 0x62, 0x3e, 0x2d, 0xa9, 0x4d, 0xbf, 0xd8, 0x69, 0xac, 0x3f,
  0xf3, 0xf9, 0x8d, 0x3f, 0x64, 0xea, 0xcf, 0xbe, 0x64, 0xfc, 0x96, 0x3f,
  0x5b, 0x79, 0x9c, 0x3f, 0x40, 0xd2, 0x8f, 0xbf, 0xc0, 0x60, 0x5e, 0xbf,
  0x4a, 0xa0, 0x8d, 0x3f, 0xf3, 0x24, 0x9f, 0x3f, 0xf5, 0x2d, 0xb3, 0x3f,
  0x62, 0xf1, 0xa6, 0x3f, 0x2f, 0x80, 0x82, 0x3f, 0x2b, 0x1e, 0xe9, 0xbe,
  0xa0, 0xb3, 0xee, 0xbe, 0xd5, 0xe7, 0xb7, 0xbe, 0x69, 0x1a, 0x0c, 0x3f,
  0x50, 0x6e, 0xa5, 0x3f, 0xee, 0x50, 0xb5, 0x3f, 0x79, 0x32, 0x1f, 0xbf,
  0x40, 0xc5, 0xc3, 0x3e, 0x65, 0x84, 0x95, 0x3f, 0x18, 0xc6, 0x40, 0xbf,
  0xcb, 0xdc, 0x90, 0xbe, 0x21, 0x62, 0x9e, 0x3f, 0xfb, 0xf6, 0x2c, 0x3f,
  0xaa, 0x23, 0x82, 0x3f, 0x82, 0x8c, 0x68, 0x3f, 0x00, 0x86, 0x90, 0x3f,
  0x10, 0x47, 0x18, 0xbf, 0xa2, 0xb4, 0x0c, 0xbf, 0xbd, 0x13, 0xdb, 0xbe,
  0xab, 0xdd, 0x4a, 0x3f, 0x92, 0xd2, 0x47, 0xbf, 0x4e, 0x43, 0xca, 0xbd,
  0xac, 0xc0, 0x06, 0x3f, 0xc1, 0x88, 0xc8, 0xbe, 0x9d, 0xea, 0x81, 0x3c,
  0x1f, 0xb6, 0x17, 0x3f, 0x0c, 0xd8, 0x69, 0x3e, 0xca, 0x73, 0x5b, 0x3a,
  0xa2, 0x7e, 0xd3, 0xbe, 0x05, 0x79, 0xaa, 0xbd, 0xa8, 0x0f, 0xf5, 0x3d,
  0xe2, 0xf3, 0x3e, 0xbf, 0xce, 0xa7, 0x3c, 0x3d, 0x61, 0x13, 0x40, 0x3d,
  0xa6, 0x61, 0xf7, 0x3e, 0x6f, 0x7c, 0xa3, 0x3c, 0xfe, 0xb7, 0x70, 0xbf,
  0xe5, 0x10, 0x49, 0xbf, 0xbe, 0x47, 0x26, 0xbe, 0xc8, 0x52, 0xdd, 0xbc,
  0x29, 0xf7, 0x04, 0xbf, 0x51, 0x1d, 0x95, 0x3d, 0x97, 0x20, 0xa8, 0x3e,
  0x66, 0x36, 0xdc, 0x3d, 0x52, 0x04, 0xb8, 0xbe, 0x56, 0x5d, 0xe6, 0x3d,
  0x78, 0x08, 0x26, 0xbf, 0x39, 0xa7, 0x3c, 0xbf, 0x1c, 0x0a, 0x81, 0xbe,
  0x84, 0x16, 0x18, 0x3f, 0xd3, 0xd5, 0x20, 0xbd, 0x20, 0x5b, 0xe4, 0xbd,
  0xa8, 0x69, 0x30, 0xbf, 0x9d, 0xcc, 0xef, 0xbe, 0x04, 0x38, 0x44, 0x3f,
  0x61, 0xe6, 0x07, 0xbf, 0x6a, 0xc1, 0x81, 0xbf, 0xf2, 0xe0, 0xce, 0x3e,
  0x74, 0x01, 0xf7, 0x3e, 0x1a, 0xe2, 0x7c, 0xbf, 0x5c, 0x3e, 0x34, 0xbf,
  0x20, 0x13, 0x84, 0xbf, 0x30, 0x29, 0x14, 0xbf, 0x38, 0x44, 0x7b, 0xbf,
  0xa9, 0xef, 0x2b, 0x3e, 0x8e, 0x76, 0xf5, 0x3e, 0xe3, 0x21, 0x13, 0xbe,
  0x7d, 0xbf, 0xad, 0xbe, 0xe2, 0xa5, 0xe5, 0xbe, 0x58, 0x6c, 0xff, 0x3d,
  0xcb, 0x43, 0x15, 0x3f, 0xf5, 0xff, 0xde, 0xbe, 0x6a, 0x96, 0x70, 0xbd,
  0xf4, 0xaa, 0x1f, 0x3d, 0xf2, 0x6e, 0x86, 0x3e, 0x4a, 0xf5, 0xbb, 0xbe,
  0x76, 0x53, 0xa9, 0xbe, 0x3b, 0x3c, 0xda, 0xbe, 0xd7, 0x94, 0xca, 0xbe,
  0xd1, 0x48, 0x10, 0xbf, 0xbe, 0xd1, 0xe9, 0x3e, 0x05, 0x21, 0x06, 0xbe,
  0x8d, 0x1f, 0x6c, 0x3e, 0x20, 0x79, 0x98, 0x3e, 0x19, 0x3d, 0x39, 0xc0,
  0x49, 0xd7, 0x18, 0xc0, 0xad, 0x2a, 0x67, 0x3f, 0xad, 0x8c, 0x14, 0xc0,
  0xae, 0x21, 0x22, 0xc0, 0x6d, 0x96, 0x05, 0x3f, 0x04, 0xd9, 0x0b, 0x3f,
  0xfc, 0xa7, 0x2b, 0xc0, 0x0a, 0xd4, 0x15, 0xc0, 0xa1, 0x32, 0x22, 0xc0,
  0xcf, 0xf6, 0x21, 0xc0, 0x82, 0x79, 0x2d, 0xc0, 0x95, 0x48, 0xf2, 0x3e,
  0x39, 0xb8, 0x9e, 0x3f, 0x55, 0x28, 0x8d, 0x3f, 0x0d, 0xc4, 0x2e, 0xc0,
  0xc2, 0x23, 0x4c, 0x3f, 0x52, 0x55, 0x09, 0x3f, 0x55, 0x30, 0x65, 0x3e,
  0x56, 0x4c, 0x82, 0x3e, 0xfd, 0x42, 0x17, 0xbe, 0x10, 0x91, 0xdb, 0xbe,
  0xb0, 0xa1, 0x69, 0x3e, 0x4d, 0x28, 0x51, 0x3e, 0xfe, 0xbd, 0x15, 0x3f,
  0x4e, 0x63, 0x08, 0x3f, 0xaf, 0x0c, 0xb9, 0x3c, 0x1f, 0x99, 0xcf, 0x3e,
  0x16, 0x8c, 0x89, 0x3d, 0xbc, 0x99, 0xc3, 0xbe, 0xa7, 0xd5, 0xbb, 0xbe,
  0x91, 0x36, 0xf1, 0x3e, 0x3a, 0x23, 0xe4, 0xbe, 0x40, 0xa0, 0xd9, 0xbe,
  0x7a, 0x1a, 0x1a, 0x3f, 0x2a, 0x25, 0xf1, 0xbe, 0xb0, 0x95, 0xcc, 0xbe,
  0x11, 0x53, 0x96, 0x3e, 0x50, 0x8b, 0x35, 0x3f, 0x35, 0x3d, 0x6d, 0xbe,
  0x12, 0xf6, 0xc1, 0xbe, 0x44, 0x5b, 0x69, 0x3e, 0x24, 0xf8, 0xdb, 0xbd,
  0x53, 0xee, 0xaf, 0xbe, 0xf7, 0xcc, 0x31, 0x3f, 0x6e, 0xb8, 0xad, 0x3d,
  0xee, 0xc4, 0x0c, 0x3f, 0x16, 0x1a, 0x10, 0xbe, 0xd6, 0x38, 0x80, 0x3f,
  0xaf, 0x86, 0xac, 0x3f, 0x89, 0x8b, 0x92, 0xbe, 0xae, 0x03, 0x62, 0x3f,
  0xb3, 0xc4, 0x29, 0x3f, 0xa6, 0x79, 0x23, 0xbf, 0xcd, 0x6d, 0x51, 0x3d,
  0xb5, 0x42, 0x67, 0x3f, 0x6f, 0x56, 0x55, 0x3f, 0xe1, 0xee, 0x16, 0x3f,
  0x8f, 0xd3, 0x01, 0x3f, 0xea, 0xcf, 0xaf, 0x3e, 0x6d, 0x87, 0x49, 0xbf,
  0xc4, 0x31, 0x44, 0xbf, 0xa9, 0xb8, 0x0a, 0xbf, 0x85, 0x67, 0x64, 0x3f,
  0x16, 0xdc, 0x1c, 0xbf, 0xff, 0x00, 0x16, 0xbf, 0xe8, 0x8e, 0x23, 0x3f,
  0x9b, 0xa7, 0xb3, 0x3d, 0x55, 0xee, 0x22, 0xbf, 0xfb, 0x24, 0x83, 0x3f,
  0x1b, 0x5f, 0xd0, 0x3e, 0xf2, 0x4c, 0xf8, 0xbe, 0x24, 0xda, 0x84, 0xbe,
  0x25, 0x55, 0x13, 0xbf, 0xfd, 0xdd, 0x17, 0xbe, 0xf2, 0x52, 0xcb, 0xbe,
  0x27, 0x23, 0x75, 0x3f, 0x8e, 0xdd, 0x5a, 0x3f, 0x9e, 0xe9, 0xb2, 0x3e,
  0x4b, 0x6d, 0xa8, 0x3d, 0x00, 0x00, 0x06, 0x00, 0x08, 0x00, 0x04, 0x00,
  0x06, 0x00, 0x00, 0x00, 0x04, 0x00, 0x00, 0x00, 0x40, 0x00, 0x00, 0x00,
  0x5b, 0x80, 0x14, 0xbf, 0x65, 0x91, 0x0c, 0x3f, 0x09, 0x43, 0xcc, 0x3e,
  0x29, 0x8f, 0x0c, 0x3f, 0xbd, 0x48, 0x4c, 0xbf, 0x2c, 0xe8, 0x0f, 0x3e,
  0xc5, 0xeb, 0x6b, 0x3e, 0x2d, 0x9a, 0x5a, 0x3e, 0xa3, 0x41, 0xb9, 0x3e,
  0x60, 0xef, 0x27, 0xbf, 0xdb, 0x04, 0xc8, 0x3e, 0xdc, 0x7b, 0x75, 0xbf,
  0x0e, 0xd9, 0x7a, 0xbf, 0xa1, 0xee, 0x14, 0x3f, 0x7f, 0x8b, 0x7b, 0x3e,
  0xd6, 0xfe, 0x07, 0x3f, 0x60, 0xfa, 0xff, 0xff, 0x64, 0xfa, 0xff, 0xff,
  0x0f, 0x00, 0x00, 0x00, 0x4d, 0x4c, 0x49, 0x52, 0x20, 0x43, 0x6f, 0x6e,
  0x76, 0x65, 0x72, 0x74, 0x65, 0x64, 0x2e, 0x00, 0x01, 0x00, 0x00, 0x00,
  0x14, 0x00, 0x00, 0x00, 0x00, 0x00, 0x0e, 0x00, 0x18, 0x00, 0x14, 0x00,
  0x10, 0x00, 0x0c, 0x00, 0x08, 0x00, 0x04, 0x00, 0x0e, 0x00, 0x00, 0x00,
  0x14, 0x00, 0x00, 0x00, 0x1c, 0x00, 0x00, 0x00, 0x1c, 0x01, 0x00, 0x00,
  0x20, 0x01, 0x00, 0x00, 0x24, 0x01, 0x00, 0x00, 0x04, 0x00, 0x00, 0x00,
  0x6d, 0x61, 0x69, 0x6e, 0x00, 0x00, 0x00, 0x00, 0x05, 0x00, 0x00, 0x00,
  0xd0, 0x00, 0x00, 0x00, 0x9c, 0x00, 0x00, 0x00, 0x5c, 0x00, 0x00, 0x00,
  0x38, 0x00, 0x00, 0x00, 0x04, 0x00, 0x00, 0x00, 0x52, 0xff, 0xff, 0xff,
  0x10, 0x00, 0x00, 0x00, 0x00, 0x00, 0x00, 0x08, 0x0c, 0x00, 0x00, 0x00,
  0x10, 0x00, 0x00, 0x00, 0xe4, 0xfa, 0xff, 0xff, 0x01, 0x00, 0x00, 0x00,
  0x0b, 0x00, 0x00, 0x00, 0x03, 0x00, 0x00, 0x00, 0x0a, 0x00, 0x00, 0x00,
  0x01, 0x00, 0x00, 0x00, 0x03, 0x00, 0x00, 0x00, 0xae, 0xff, 0xff, 0xff,
  0x0c, 0x00, 0x00, 0x00, 0x10, 0x00, 0x00, 0x00, 0x01, 0x00, 0x00, 0x00,
  0x01, 0x00, 0x00, 0x00, 0x0a, 0x00, 0x00, 0x00, 0x01, 0x00, 0x00, 0x00,
  0x09, 0x00, 0x00, 0x00, 0xa2, 0xff, 0xff, 0xff, 0x10, 0x00, 0x00, 0x00,
  0x00, 0x00, 0x00, 0x08, 0x0c, 0x00, 0x00, 0x00, 0x10, 0x00, 0x00, 0x00,
  0x34, 0xfb, 0xff, 0xff, 0x01, 0x00, 0x00, 0x00, 0x09, 0x00, 0x00, 0x00,
  0x03, 0x00, 0x00, 0x00, 0x08, 0x00, 0x00, 0x00, 0x02, 0x00, 0x00, 0x00,
  0x04, 0x00, 0x00, 0x00, 0x00, 0x00, 0x0a, 0x00, 0x10, 0x00, 0x0c, 0x00,
  0x08, 0x00, 0x04, 0x00, 0x0a, 0x00, 0x00, 0x00, 0x0c, 0x00, 0x00, 0x00,
  0x10, 0x00, 0x00, 0x00, 0x01, 0x00, 0x00, 0x00, 0x01, 0x00, 0x00, 0x00,
  0x08, 0x00, 0x00, 0x00, 0x01, 0x00, 0x00, 0x00, 0x07, 0x00, 0x00, 0x00,
  0x00, 0x00, 0x0e, 0x00, 0x14, 0x00, 0x00, 0x00, 0x10, 0x00, 0x0c, 0x00,
  0x0b, 0x00, 0x04, 0x00, 0x0e, 0x00, 0x00, 0x00, 0x10, 0x00, 0x00, 0x00,
  0x00, 0x00, 0x00, 0x08, 0x0c, 0x00, 0x00, 0x00, 0x10, 0x00, 0x00, 0x00,
  0xa0, 0xfb, 0xff, 0xff, 0x01, 0x00, 0x00, 0x00, 0x07, 0x00, 0x00, 0x00,
  0x03, 0x00, 0x00, 0x00, 0x00, 0x00, 0x00, 0x00, 0x06, 0x00, 0x00, 0x00,
  0x05, 0x00, 0x00, 0x00, 0x01, 0x00, 0x00, 0x00, 0x0b, 0x00, 0x00, 0x00,
  0x01, 0x00, 0x00, 0x00, 0x00, 0x00, 0x00, 0x00, 0x0c, 0x00, 0x00, 0x00,
  0x08, 0x04, 0x00, 0x00, 0xb0, 0x03, 0x00, 0x00, 0x58, 0x03, 0x00, 0x00,
  0x1c, 0x03, 0x00, 0x00, 0xc0, 0x02, 0x00, 0x00, 0x68, 0x02, 0x00, 0x00,
  0x1c, 0x02, 0x00, 0x00, 0xa0, 0x01, 0x00, 0x00, 0x40, 0x01, 0x00, 0x00,
  0xc0, 0x00, 0x00, 0x00, 0x60, 0x00, 0x00, 0x00, 0x04, 0x00, 0x00, 0x00,
  0x3e, 0xfc, 0xff, 0xff, 0x00, 0x00, 0x00, 0x01, 0x14, 0x00, 0x00, 0x00,
  0x1c, 0x00, 0x00, 0x00, 0x1c, 0x00, 0x00, 0x00, 0x0c, 0x00, 0x00, 0x00,
  0x34, 0x00, 0x00, 0x00, 0x02, 0x00, 0x00, 0x00, 0xff, 0xff, 0xff, 0xff,
  0x01, 0x00, 0x00, 0x00, 0x28, 0xfc, 0xff, 0xff, 0x1b, 0x00, 0x00, 0x00,
  0x53, 0x74, 0x61, 0x74, 0x65, 0x66, 0x75, 0x6c, 0x50, 0x61, 0x72, 0x74,
  0x69, 0x74, 0x69, 0x6f, 0x6e, 0x65, 0x64, 0x43, 0x61, 0x6c, 0x6c, 0x5f,
  0x31, 0x3a, 0x30, 0x00, 0x02, 0x00, 0x00, 0x00, 0x01, 0x00, 0x00, 0x00,
  0x01, 0x00, 0x00, 0x00, 0x96, 0xfc, 0xff, 0xff, 0x00, 0x00, 0x00, 0x01,
  0x14, 0x00, 0x00, 0x00, 0x1c, 0x00, 0x00, 0x00, 0x1c, 0x00, 0x00, 0x00,
  0x0b, 0x00, 0x00, 0x00, 0x38, 0x00, 0x00, 0x00, 0x02, 0x00, 0x00, 0x00,
  0xff, 0xff, 0xff, 0xff, 0x10, 0x00, 0x00, 0x00, 0x80, 0xfc, 0xff, 0xff,
  0x1e, 0x00, 0x00, 0x00, 0x73, 0x65, 0x71, 0x75, 0x65, 0x6e, 0x74, 0x69,
  0x61, 0x6c, 0x5f, 0x31, 0x2f, 0x64, 0x65, 0x6e, 0x73, 0x65, 0x5f, 0x31,
  0x5f, 0x32, 0x2f, 0x53, 0x69, 0x67, 0x6d, 0x6f, 0x69, 0x64, 0x00, 0x00,
  0x02, 0x00, 0x00, 0x00, 0x01, 0x00, 0x00, 0x00, 0x10, 0x00, 0x00, 0x00,
  0xf2, 0xfc, 0xff, 0xff, 0x00, 0x00, 0x00, 0x01, 0x14, 0x00, 0x00, 0x00,
  0x1c, 0x00, 0x00, 0x00, 0x1c, 0x00, 0x00, 0x00, 0x0a, 0x00, 0x00, 0x00,
  0x58, 0x00, 0x00, 0x00, 0x02, 0x00, 0x00, 0x00, 0xff, 0xff, 0xff, 0xff,
  0x10, 0x00, 0x00, 0x00, 0xdc, 0xfc, 0xff, 0xff, 0x3c, 0x00, 0x00, 0x00,
  0x73, 0x65, 0x71, 0x75, 0x65, 0x6e, 0x74, 0x69, 0x61, 0x6c, 0x5f, 0x31,
  0x2f, 0x64, 0x65, 0x6e, 0x73, 0x65, 0x5f, 0x31, 0x5f, 0x32, 0x2f, 0x4d,
  0x61, 0x74, 0x4d, 0x75, 0x6c, 0x3b, 0x73, 0x65, 0x71, 0x75, 0x65, 0x6e,
  0x74, 0x69, 0x61, 0x6c, 0x5f, 0x31, 0x2f, 0x64, 0x65, 0x6e, 0x73, 0x65,
  0x5f, 0x31, 0x5f, 0x32, 0x2f, 0x42, 0x69, 0x61, 0x73, 0x41, 0x64, 0x64,
  0x00, 0x00, 0x00, 0x00, 0x02, 0x00, 0x00, 0x00, 0x01, 0x00, 0x00, 0x00,
  0x10, 0x00, 0x00, 0x00, 0x6e, 0xfd, 0xff, 0xff, 0x00, 0x00, 0x00, 0x01,
  0x14, 0x00, 0x00, 0x00, 0x1c, 0x00, 0x00, 0x00, 0x1c, 0x00, 0x00, 0x00,
  0x09, 0x00, 0x00, 0x00, 0x38, 0x00, 0x00, 0x00, 0x02, 0x00, 0x00, 0x00,
  0xff, 0xff, 0xff, 0xff, 0x10, 0x00, 0x00, 0x00, 0x58, 0xfd, 0xff, 0xff,
  0x1c, 0x00, 0x00, 0x00, 0x73, 0x65, 0x71, 0x75, 0x65, 0x6e, 0x74, 0x69,
  0x61, 0x6c, 0x5f, 0x31, 0x2f, 0x64, 0x65, 0x6e, 0x73, 0x65, 0x5f, 0x31,
  0x2f, 0x53, 0x69, 0x67, 0x6d, 0x6f, 0x69, 0x64, 0x00, 0x00, 0x00, 0x00,
  0x02, 0x00, 0x00, 0x00, 0x01, 0x00, 0x00, 0x00, 0x10, 0x00, 0x00, 0x00,
  0xca, 0xfd, 0xff, 0xff, 0x00, 0x00, 0x00, 0x01, 0x14, 0x00, 0x00, 0x00,
  0x1c, 0x00, 0x00, 0x00, 0x1c, 0x00, 0x00, 0x00, 0x08, 0x00, 0x00, 0x00,
  0x54, 0x00, 0x00, 0x00, 0x02, 0x00, 0x00, 0x00, 0xff, 0xff, 0xff, 0xff,
  0x10, 0x00, 0x00, 0x00, 0xb4, 0xfd, 0xff, 0xff, 0x38, 0x00, 0x00, 0x00,
  0x73, 0x65, 0x71, 0x75, 0x65, 0x6e, 0x74, 0x69, 0x61, 0x6c, 0x5f, 0x31,
  0x2f, 0x64, 0x65, 0x6e, 0x73, 0x65, 0x5f, 0x31, 0x2f, 0x4d, 0x61, 0x74,
  0x4d, 0x75, 0x6c, 0x3b, 0x73, 0x65, 0x71, 0x75, 0x65, 0x6e, 0x74, 0x69,
  0x61, 0x6c, 0x5f, 0x31, 0x2f, 0x64, 0x65, 0x6e, 0x73, 0x65, 0x5f, 0x31,
  0x2f, 0x42, 0x69, 0x61, 0x73, 0x41, 0x64, 0x64, 0x00, 0x00, 0x00, 0x00,
  0x02, 0x00, 0x00, 0x00, 0x01, 0x00, 0x00, 0x00, 0x10, 0x00, 0x00, 0x00,
  0x96, 0xfe, 0xff, 0xff, 0x00, 0x00, 0x00, 0x01, 0x10, 0x00, 0x00, 0x00,
  0x10, 0x00, 0x00, 0x00, 0x07, 0x00, 0x00, 0x00, 0x28, 0x00, 0x00, 0x00,
  0x1c, 0xfe, 0xff, 0xff, 0x1b, 0x00, 0x00, 0x00, 0x73, 0x65, 0x71, 0x75,
  0x65, 0x6e, 0x74, 0x69, 0x61, 0x6c, 0x5f, 0x31, 0x2f, 0x64, 0x65, 0x6e,
  0x73, 0x65, 0x5f, 0x31, 0x2f, 0x4d, 0x61, 0x74, 0x4d, 0x75, 0x6c, 0x00,
  0x02, 0x00, 0x00, 0x00, 0x10, 0x00, 0x00, 0x00, 0x01, 0x00, 0x00, 0x00,
  0xde, 0xfe, 0xff, 0xff, 0x00, 0x00, 0x00, 0x01, 0x10, 0x00, 0x00, 0x00,
  0x10, 0x00, 0x00, 0x00, 0x06, 0x00, 0x00, 0x00, 0x38, 0x00, 0x00, 0x00,
  0x64, 0xfe, 0xff, 0xff, 0x2b, 0x00, 0x00, 0x00, 0x73, 0x65, 0x71, 0x75,
  0x65, 0x6e, 0x74, 0x69, 0x61, 0x6c, 0x5f, 0x31, 0x2f, 0x64, 0x65, 0x6e,
  0x73, 0x65, 0x5f, 0x31, 0x2f, 0x42, 0x69, 0x61, 0x73, 0x41, 0x64, 0x64,
  0x2f, 0x52, 0x65, 0x61, 0x64, 0x56, 0x61, 0x72, 0x69, 0x61, 0x62, 0x6c,
  0x65, 0x4f, 0x70, 0x00, 0x01, 0x00, 0x00, 0x00, 0x10, 0x00, 0x00, 0x00,
  0x32, 0xff, 0xff, 0xff, 0x00, 0x00, 0x00, 0x01, 0x10, 0x00, 0x00, 0x00,
  0x10, 0x00, 0x00, 0x00, 0x05, 0x00, 0x00, 0x00, 0x3c, 0x00, 0x00, 0x00,
  0xb8, 0xfe, 0xff, 0xff, 0x2d, 0x00, 0x00, 0x00, 0x73, 0x65, 0x71, 0x75,
  0x65, 0x6e, 0x74, 0x69, 0x61, 0x6c, 0x5f, 0x31, 0x2f, 0x64, 0x65, 0x6e,
  0x73, 0x65, 0x5f, 0x31, 0x5f, 0x32, 0x2f, 0x42, 0x69, 0x61, 0x73, 0x41,
  0x64, 0x64, 0x2f, 0x52, 0x65, 0x61, 0x64, 0x56, 0x61, 0x72, 0x69, 0x61,
  0x62, 0x6c, 0x65, 0x4f, 0x70, 0x00, 0x00, 0x00, 0x01, 0x00, 0x00, 0x00,
  0x10, 0x00, 0x00, 0x00, 0x8a, 0xff, 0xff, 0xff, 0x00, 0x00, 0x00, 0x01,
  0x10, 0x00, 0x00, 0x00, 0x10, 0x00, 0x00, 0x00, 0x04, 0x00, 0x00, 0x00,
  0x1c, 0x00, 0x00, 0x00, 0x10, 0xff, 0xff, 0xff, 0x0f, 0x00, 0x00, 0x00,
  0x61, 0x72, 0x69, 0x74, 0x68, 0x2e, 0x63, 0x6f, 0x6e, 0x73, 0x74, 0x61,
  0x6e, 0x74, 0x32, 0x00, 0x01, 0x00, 0x00, 0x00, 0x01, 0x00, 0x00, 0x00,
  0xc2, 0xff, 0xff, 0xff, 0x00, 0x00, 0x00, 0x01, 0x10, 0x00, 0x00, 0x00,
  0x10, 0x00, 0x00, 0x00, 0x03, 0x00, 0x00, 0x00, 0x1c, 0x00, 0x00, 0x00,
  0x48, 0xff, 0xff, 0xff, 0x0f, 0x00, 0x00, 0x00, 0x61, 0x72, 0x69, 0x74,
  0x68, 0x2e, 0x63, 0x6f, 0x6e, 0x73, 0x74, 0x61, 0x6e, 0x74, 0x31, 0x00,
  0x02, 0x00, 0x00, 0x00, 0x10, 0x00, 0x00, 0x00, 0x10, 0x00, 0x00, 0x00,
  0x00, 0x00, 0x16, 0x00, 0x18, 0x00, 0x14, 0x00, 0x00, 0x00, 0x10, 0x00,
  0x0c, 0x00, 0x08, 0x00, 0x00, 0x00, 0x00, 0x00, 0x00, 0x00, 0x07, 0x00,
  0x16, 0x00, 0x00, 0x00, 0x00, 0x00, 0x00, 0x01, 0x10, 0x00, 0x00, 0x00,
  0x10, 0x00, 0x00, 0x00, 0x02, 0x00, 0x00, 0x00, 0x1c, 0x00, 0x00, 0x00,
  0x9c, 0xff, 0xff, 0xff, 0x0e, 0x00, 0x00, 0x00, 0x61, 0x72, 0x69, 0x74,
  0x68, 0x2e, 0x63, 0x6f, 0x6e, 0x73, 0x74, 0x61, 0x6e, 0x74, 0x00, 0x00,
  0x02, 0x00, 0x00, 0x00, 0x01, 0x00, 0x00, 0x00, 0x10, 0x00, 0x00, 0x00,
  0x00, 0x00, 0x16, 0x00, 0x1c, 0x00, 0x18, 0x00, 0x00, 0x00, 0x14, 0x00,
  0x10, 0x00, 0x0c, 0x00, 0x00, 0x00, 0x00, 0x00, 0x08, 0x00, 0x07, 0x00,
  0x16, 0x00, 0x00, 0x00, 0x00, 0x00, 0x00, 0x01, 0x14, 0x00, 0x00, 0x00,
  0x20, 0x00, 0x00, 0x00, 0x20, 0x00, 0x00, 0x00, 0x01, 0x00, 0x00, 0x00,
  0x3c, 0x00, 0x00, 0x00, 0x02, 0x00, 0x00, 0x00, 0xff, 0xff, 0xff, 0xff,
  0x01, 0x00, 0x00, 0x00, 0x04, 0x00, 0x04, 0x00, 0x04, 0x00, 0x00, 0x00,
  0x1e, 0x00, 0x00, 0x00, 0x73, 0x65, 0x72, 0x76, 0x69, 0x6e, 0x67, 0x5f,
  0x64, 0x65, 0x66, 0x61, 0x75, 0x6c, 0x74, 0x5f, 0x6b, 0x65, 0x72, 0x61,
  0x73, 0x5f, 0x74, 0x65, 0x6e, 0x73, 0x6f, 0x72, 0x3a, 0x30, 0x00, 0x00,
  0x02, 0x00, 0x00, 0x00, 0x01, 0x00, 0x00, 0x00, 0x01, 0x00, 0x00, 0x00,
  0x02, 0x00, 0x00, 0x00, 0x20, 0x00, 0x00, 0x00, 0x04, 0x00, 0x00, 0x00,
  0xf4, 0xff, 0xff, 0xff, 0x0e, 0x00, 0x00, 0x00, 0x00, 0x00, 0x00, 0x0e,
  0x0c, 0x00, 0x0c, 0x00, 0x0b, 0x00, 0x00, 0x00, 0x00, 0x00, 0x04, 0x00,
  0x0c, 0x00, 0x00, 0x00, 0x09, 0x00, 0x00, 0x00, 0x00, 0x00, 0x00, 0x09
 
};

#endif //SINE_MODEL_H