#ifndef DIGIT_MODEL_NCKH_H
#define DIGIT_MODEL_NCKH_H


unsigned int digit_model_NCKH_len = 10188;
unsigned char digit_model_NCKH[] = {
 0x1c, 0x00, 0x00, 0x00, 0x54, 0x46, 0x4c, 0x33, 0x14, 0x00, 0x20, 0x00,
  0x1c, 0x00, 0x18, 0x00, 0x14, 0x00, 0x10, 0x00, 0x0c, 0x00, 0x00, 0x00,
  0x08, 0x00, 0x04, 0x00, 0x14, 0x00, 0x00, 0x00, 0x1c, 0x00, 0x00, 0x00,
  0x8c, 0x00, 0x00, 0x00, 0xe4, 0x00, 0x00, 0x00, 0x84, 0x18, 0x00, 0x00,
  0x94, 0x18, 0x00, 0x00, 0x1c, 0x27, 0x00, 0x00, 0x03, 0x00, 0x00, 0x00,
  0x01, 0x00, 0x00, 0x00, 0x04, 0x00, 0x00, 0x00, 0x62, 0xe6, 0xff, 0xff,
  0x0c, 0x00, 0x00, 0x00, 0x1c, 0x00, 0x00, 0x00, 0x3c, 0x00, 0x00, 0x00,
  0x0f, 0x00, 0x00, 0x00, 0x73, 0x65, 0x72, 0x76, 0x69, 0x6e, 0x67, 0x5f,
  0x64, 0x65, 0x66, 0x61, 0x75, 0x6c, 0x74, 0x00, 0x01, 0x00, 0x00, 0x00,
  0x04, 0x00, 0x00, 0x00, 0x90, 0xff, 0xff, 0xff, 0x19, 0x00, 0x00, 0x00,
  0x04, 0x00, 0x00, 0x00, 0x08, 0x00, 0x00, 0x00, 0x6f, 0x75, 0x74, 0x70,
  0x75, 0x74, 0x5f, 0x30, 0x00, 0x00, 0x00, 0x00, 0x01, 0x00, 0x00, 0x00,
  0x04, 0x00, 0x00, 0x00, 0x46, 0xe7, 0xff, 0xff, 0x04, 0x00, 0x00, 0x00,
  0x0c, 0x00, 0x00, 0x00, 0x6b, 0x65, 0x72, 0x61, 0x73, 0x5f, 0x74, 0x65,
  0x6e, 0x73, 0x6f, 0x72, 0x00, 0x00, 0x00, 0x00, 0x02, 0x00, 0x00, 0x00,
  0x34, 0x00, 0x00, 0x00, 0x04, 0x00, 0x00, 0x00, 0xdc, 0xff, 0xff, 0xff,
  0x1c, 0x00, 0x00, 0x00, 0x04, 0x00, 0x00, 0x00, 0x13, 0x00, 0x00, 0x00,
  0x43, 0x4f, 0x4e, 0x56, 0x45, 0x52, 0x53, 0x49, 0x4f, 0x4e, 0x5f, 0x4d,
  0x45, 0x54, 0x41, 0x44, 0x41, 0x54, 0x41, 0x00, 0x08, 0x00, 0x0c, 0x00,
  0x08, 0x00, 0x04, 0x00, 0x08, 0x00, 0x00, 0x00, 0x1b, 0x00, 0x00, 0x00,
  0x04, 0x00, 0x00, 0x00, 0x13, 0x00, 0x00, 0x00, 0x6d, 0x69, 0x6e, 0x5f,
  0x72, 0x75, 0x6e, 0x74, 0x69, 0x6d, 0x65, 0x5f, 0x76, 0x65, 0x72, 0x73,
  0x69, 0x6f, 0x6e, 0x00, 0x1d, 0x00, 0x00, 0x00, 0x9c, 0x17, 0x00, 0x00,
  0x94, 0x17, 0x00, 0x00, 0x64, 0x17, 0x00, 0x00, 0x54, 0x0e, 0x00, 0x00,
  0xc4, 0x0b, 0x00, 0x00, 0xb4, 0x03, 0x00, 0x00, 0x64, 0x03, 0x00, 0x00,
  0x2c, 0x03, 0x00, 0x00, 0x14, 0x03, 0x00, 0x00, 0xe4, 0x02, 0x00, 0x00,
  0xb4, 0x02, 0x00, 0x00, 0x84, 0x02, 0x00, 0x00, 0x54, 0x02, 0x00, 0x00,
  0x24, 0x01, 0x00, 0x00, 0xf4, 0x00, 0x00, 0x00, 0xec, 0x00, 0x00, 0x00,
  0xe4, 0x00, 0x00, 0x00, 0xdc, 0x00, 0x00, 0x00, 0xd4, 0x00, 0x00, 0x00,
  0xcc, 0x00, 0x00, 0x00, 0xc4, 0x00, 0x00, 0x00, 0xbc, 0x00, 0x00, 0x00,
  0xb4, 0x00, 0x00, 0x00, 0xac, 0x00, 0x00, 0x00, 0xa4, 0x00, 0x00, 0x00,
  0x9c, 0x00, 0x00, 0x00, 0x94, 0x00, 0x00, 0x00, 0x74, 0x00, 0x00, 0x00,
  0x04, 0x00, 0x00, 0x00, 0x36, 0xe8, 0xff, 0xff, 0x04, 0x00, 0x00, 0x00,
  0x60, 0x00, 0x00, 0x00, 0x0c, 0x00, 0x00, 0x00, 0x08, 0x00, 0x0e, 0x00,
  0x08, 0x00, 0x04, 0x00, 0x08, 0x00, 0x00, 0x00, 0x10, 0x00, 0x00, 0x00,
  0x28, 0x00, 0x00, 0x00, 0x00, 0x00, 0x06, 0x00, 0x08, 0x00, 0x04, 0x00,
  0x06, 0x00, 0x00, 0x00, 0x04, 0x00, 0x00, 0x00, 0x01, 0x00, 0x00, 0x00,
  0xea, 0x03, 0x00, 0x00, 0x0c, 0x00, 0x18, 0x00, 0x14, 0x00, 0x10, 0x00,
  0x0c, 0x00, 0x04, 0x00, 0x0c, 0x00, 0x00, 0x00, 0xbd, 0xe7, 0xaf, 0xf3,
  0x9d, 0x7f, 0x8a, 0xd7, 0x02, 0x00, 0x00, 0x00, 0x02, 0x00, 0x00, 0x00,
  0x04, 0x00, 0x00, 0x00, 0x06, 0x00, 0x00, 0x00, 0x32, 0x2e, 0x31, 0x38,
  0x2e, 0x30, 0x00, 0x00, 0xa2, 0xe8, 0xff, 0xff, 0x04, 0x00, 0x00, 0x00,
  0x10, 0x00, 0x00, 0x00, 0x31, 0x2e, 0x35, 0x2e, 0x30, 0x00, 0x00, 0x00,
  0x00, 0x00, 0x00, 0x00, 0x00, 0x00, 0x00, 0x00, 0x6c, 0xda, 0xff, 0xff,
  0x70, 0xda, 0xff, 0xff, 0x74, 0xda, 0xff, 0xff, 0x78, 0xda, 0xff, 0xff,
  0x7c, 0xda, 0xff, 0xff, 0x80, 0xda, 0xff, 0xff, 0x84, 0xda, 0xff, 0xff,
  0x88, 0xda, 0xff, 0xff, 0x8c, 0xda, 0xff, 0xff, 0x90, 0xda, 0xff, 0xff,
  0x94, 0xda, 0xff, 0xff, 0x98, 0xda, 0xff, 0xff, 0xee, 0xe8, 0xff, 0xff,
  0x04, 0x00, 0x00, 0x00, 0x20, 0x00, 0x00, 0x00, 0xe9, 0x8c, 0x4e, 0xba,
  0xfe, 0x4e, 0x00, 0xbe, 0xf0, 0x46, 0xfc, 0xbd, 0x88, 0xf6, 0x2e, 0xbd,
  0xf0, 0xbf, 0x6b, 0x3d, 0x4e, 0xb3, 0x86, 0x3c, 0xc5, 0x12, 0x4b, 0xbb,
  0x77, 0x47, 0xdd, 0x3c, 0x1a, 0xe9, 0xff, 0xff, 0x04, 0x00, 0x00, 0x00,
  0x20, 0x01, 0x00, 0x00, 0xba, 0xd8, 0xd4, 0xbd, 0x95, 0xad, 0xda, 0x3c,
  0x4e, 0x64, 0x9b, 0x3d, 0x8f, 0x18, 0x33, 0xbe, 0x84, 0xe8, 0x80, 0xbe,
  0xe8, 0x3d, 0x94, 0x3d, 0xfd, 0xf9, 0x4d, 0x3e, 0x1d, 0xca, 0x89, 0xbd,
  0xe4, 0x6f, 0x23, 0xbe, 0x55, 0x74, 0x3f, 0x3e, 0xb5, 0xaf, 0x0e, 0xbd,
  0x4d, 0x20, 0x4f, 0x3c, 0x21, 0x40, 0x8c, 0x3e, 0xfb, 0x4e, 0x85, 0xbe,
  0x37, 0x5d, 0xd3, 0xbd, 0x86, 0xbc, 0xbd, 0x3d, 0x05, 0xec, 0x2e, 0x3e,
  0xf1, 0x06, 0x84, 0xbe, 0x50, 0x9b, 0xb1, 0x3d, 0x2f, 0xc3, 0xb9, 0xbc,
  0xf5, 0x85, 0x8e, 0xbe, 0x76, 0x36, 0x12, 0x3e, 0xb2, 0x1b, 0x67, 0x3e,
  0x60, 0x2e, 0x7a, 0x3e, 0xc4, 0x68, 0xba, 0xbd, 0x8f, 0xfb, 0xa4, 0xbb,
  0xf4, 0x1d, 0x14, 0xbd, 0xdb, 0xb1, 0x66, 0xbe, 0xdf, 0x75, 0x01, 0xbe,
  0x32, 0x45, 0xa1, 0x3d, 0xdb, 0xb3, 0x6e, 0x3e, 0x29, 0x24, 0x31, 0x3e,
  0x76, 0xb1, 0x7e, 0x3e, 0x16, 0x9b, 0x4d, 0x3e, 0xb0, 0xc1, 0xa3, 0x3d,
  0xb3, 0x8e, 0x94, 0xbd, 0xee, 0xf7, 0x8b, 0xbd, 0xd1, 0x8f, 0x14, 0x3e,
  0x35, 0xa0, 0x11, 0x3e, 0x9e, 0x5e, 0x8c, 0x3e, 0x12, 0xbd, 0xde, 0x3d,
  0xc1, 0x91, 0x77, 0x3c, 0xed, 0xea, 0x8f, 0xbe, 0x53, 0xbd, 0x89, 0xbe,
  0xfb, 0xef, 0xec, 0xbd, 0x37, 0x0b, 0xb6, 0x3d, 0x50, 0xac, 0xc4, 0x3d,
  0xc3, 0x4e, 0x0e, 0x3d, 0xce, 0x8a, 0x91, 0xbe, 0xaf, 0xfa, 0x47, 0xbe,
  0x3d, 0x9c, 0x3c, 0xbe, 0x8a, 0xad, 0x0c, 0x3d, 0xa9, 0x09, 0x87, 0x3d,
  0x9e, 0xf1, 0x9f, 0x3c, 0x31, 0x9b, 0x89, 0xbe, 0xf7, 0x8c, 0x2f, 0xbe,
  0x74, 0xf4, 0x32, 0x3d, 0xfd, 0x5e, 0xbb, 0x3d, 0x28, 0xfb, 0x68, 0x3e,
  0xd1, 0x35, 0x7a, 0x3d, 0xe4, 0xa9, 0x3e, 0xbe, 0x6e, 0x2f, 0x23, 0xbe,
  0x42, 0xda, 0xde, 0xbd, 0x9d, 0x03, 0x3c, 0xbd, 0xd2, 0xab, 0x81, 0xbe,
  0xba, 0x80, 0x9d, 0xbe, 0x0d, 0x51, 0x52, 0x3e, 0xe2, 0x7e, 0xcd, 0x3d,
  0xa8, 0x7e, 0xf8, 0x3d, 0x92, 0xcc, 0x1b, 0x3e, 0xb6, 0xc2, 0xea, 0x3c,
  0x43, 0x0f, 0x2a, 0x3e, 0x46, 0xea, 0xff, 0xff, 0x04, 0x00, 0x00, 0x00,
  0x20, 0x00, 0x00, 0x00, 0x0e, 0xb8, 0xf1, 0xbe, 0xde, 0x9e, 0xff, 0xbe,
  0xe1, 0xad, 0x38, 0xbf, 0x22, 0x22, 0x91, 0xbf, 0x00, 0x5d, 0x6c, 0xbf,
  0x5a, 0x03, 0x48, 0xbf, 0x97, 0x27, 0x54, 0xbe, 0x32, 0x47, 0x88, 0xbf,
  0x72, 0xea, 0xff, 0xff, 0x04, 0x00, 0x00, 0x00, 0x20, 0x00, 0x00, 0x00,
  0x04, 0xc1, 0xc6, 0x41, 0xf3, 0x9b, 0x04, 0x41, 0xe1, 0xca, 0x15, 0x41,
  0xa1, 0x09, 0xa4, 0x40, 0x1d, 0x44, 0x09, 0x41, 0x7d, 0x56, 0xc2, 0x41,
  0xc8, 0x85, 0x9f, 0x41, 0x4f, 0xf6, 0xc2, 0x40, 0x9e, 0xea, 0xff, 0xff,
  0x04, 0x00, 0x00, 0x00, 0x20, 0x00, 0x00, 0x00, 0x45, 0x0b, 0x83, 0xbf,
  0x6a, 0xf0, 0x6c, 0xbf, 0x87, 0x89, 0x75, 0xbf, 0x16, 0x9d, 0x88, 0xbf,
  0x3c, 0x86, 0x8b, 0xbf, 0xcf, 0x8d, 0x69, 0xbf, 0x90, 0x99, 0x74, 0xbf,
  0x2e, 0x68, 0xa1, 0xbf, 0xca, 0xea, 0xff, 0xff, 0x04, 0x00, 0x00, 0x00,
  0x20, 0x00, 0x00, 0x00, 0x8b, 0x5d, 0xae, 0x3f, 0x7f, 0x6a, 0x09, 0x40,
  0xa9, 0xe8, 0x0f, 0x40, 0x56, 0x83, 0xba, 0x3f, 0xc6, 0x1d, 0xb6, 0x3f,
  0xf2, 0xcc, 0xca, 0x3f, 0x05, 0xa8, 0x2e, 0x40, 0x7d, 0xdb, 0x56, 0x3f,
  0xf6, 0xea, 0xff, 0xff, 0x04, 0x00, 0x00, 0x00, 0x08, 0x00, 0x00, 0x00,
  0xff, 0xff, 0xff, 0xff, 0x20, 0x00, 0x00, 0x00, 0x0a, 0xeb, 0xff, 0xff,
  0x04, 0x00, 0x00, 0x00, 0x28, 0x00, 0x00, 0x00, 0x6f, 0x4d, 0xf5, 0xbe,
  0xf5, 0xb1, 0xe3, 0x3e, 0x2e, 0x57, 0x0e, 0xbf, 0x0b, 0x0d, 0x0c, 0xbf,
  0x9a, 0x76, 0xb6, 0xbe, 0xa2, 0x33, 0xce, 0x3e, 0x22, 0xfe, 0xc6, 0xbe,
  0xba, 0x14, 0x14, 0x3e, 0x4a, 0x9d, 0x40, 0x3f, 0x21, 0x25, 0xa1, 0x3e,
  0x3e, 0xeb, 0xff, 0xff, 0x04, 0x00, 0x00, 0x00, 0x40, 0x00, 0x00, 0x00,
  0x7f, 0x95, 0x02, 0x3e, 0x67, 0x68, 0x46, 0xbc, 0xa8, 0x7f, 0x3c, 0x3e,
  0xeb, 0x2e, 0xcb, 0xbd, 0x36, 0x82, 0xc3, 0x3c, 0x6c, 0x0d, 0x05, 0xbe,
  0x1b, 0x80, 0x5c, 0x3e, 0xc1, 0xb7, 0x5f, 0x3d, 0x2d, 0x98, 0x9c, 0xbe,
  0x57, 0x42, 0xbe, 0x3d, 0x04, 0x10, 0x26, 0x3e, 0x75, 0x75, 0x4a, 0xbd,
  0xd9, 0xe2, 0x53, 0xbe, 0x56, 0xad, 0x3c, 0x3e, 0xde, 0x32, 0x54, 0xbe,
  0xad, 0x7b, 0xac, 0xbd, 0x8a, 0xeb, 0xff, 0xff, 0x04, 0x00, 0x00, 0x00,
  0x00, 0x08, 0x00, 0x00, 0x5e, 0xd9, 0xb6, 0x3e, 0x42, 0xec, 0x16, 0xbe,
  0x9b, 0x0d, 0x60, 0xbe, 0xb8, 0x15, 0x12, 0x3e, 0x06, 0xa0, 0x95, 0xbe,
  0x79, 0x20, 0xb0, 0xbd, 0x16, 0xab, 0x07, 0xbf, 0x26, 0xd9, 0xc7, 0xbc,
  0xc7, 0x87, 0x57, 0x3d, 0x88, 0x05, 0x7e, 0x3d, 0x96, 0x85, 0xbd, 0xbe,
  0x50, 0xa2, 0xde, 0xbd, 0x74, 0x97, 0xab, 0xbe, 0xd8, 0xed, 0xc5, 0xbd,
  0xee, 0x8d, 0xce, 0xbe, 0x02, 0xb2, 0x15, 0x3e, 0x33, 0x76, 0x42, 0xbe,
  0xb7, 0xb8, 0x16, 0xbd, 0x2a, 0x1f, 0xa5, 0xbe, 0x6a, 0x6b, 0xb1, 0x3e,
  0x99, 0xc7, 0x8c, 0x3d, 0x62, 0x6c, 0xc1, 0xbe, 0x21, 0x7d, 0x48, 0xbd,
  0x72, 0x55, 0x44, 0xbe, 0xed, 0x08, 0xdb, 0xbd, 0x94, 0x40, 0x3d, 0x3c,
  0xcc, 0x3e, 0x04, 0xbf, 0xca, 0xd4, 0x53, 0xbe, 0xdd, 0x5d, 0x46, 0x3d,
  0x85, 0x20, 0xad, 0xbd, 0x4e, 0x2f, 0xbe, 0x3d, 0x56, 0x4b, 0xac, 0xbd,
  0xb7, 0xf5, 0x17, 0xbe, 0x74, 0x4b, 0xab, 0x3c, 0x70, 0x24, 0x83, 0x3e,
  0x41, 0x4d, 0x5a, 0xbe, 0x2f, 0x28, 0x59, 0x3e, 0xab, 0xf1, 0x16, 0x3e,
  0xed, 0x30, 0x94, 0x3e, 0xaa, 0xb5, 0xd3, 0xbe, 0xc6, 0x43, 0x89, 0xbd,
  0xa3, 0xe4, 0x9b, 0x3d, 0xfd, 0x6e, 0x1f, 0x3e, 0x18, 0x85, 0x14, 0x3d,
  0x6c, 0x0a, 0x9e, 0x3e, 0x53, 0xff, 0x6b, 0x3e, 0xb9, 0x70, 0xa2, 0xbc,
  0x43, 0x9b, 0xb2, 0xbe, 0x97, 0x61, 0x0d, 0x3d, 0x15, 0xea, 0x9c, 0xbc,
  0x2b, 0x48, 0x44, 0xbe, 0xbb, 0x93, 0x8f, 0xbe, 0x20, 0x87, 0x15, 0xbd,
  0x47, 0x32, 0x62, 0xbe, 0xf0, 0xa8, 0x05, 0x3e, 0xb5, 0xaf, 0xa0, 0x3d,
  0x2c, 0xa2, 0xbd, 0x3e, 0x3a, 0x39, 0xb7, 0xbe, 0xc4, 0x73, 0x97, 0xbe,
  0x38, 0x3e, 0xe6, 0x3d, 0x10, 0xea, 0x16, 0x3f, 0x6d, 0x3b, 0x68, 0xbe,
  0x94, 0x07, 0x9a, 0xbd, 0x45, 0xbe, 0xe4, 0x3a, 0xc5, 0x07, 0x0a, 0x3e,
  0x78, 0xbf, 0x06, 0xbe, 0x30, 0xf5, 0x91, 0x3d, 0x87, 0xc4, 0xba, 0x3b,
  0x52, 0xb3, 0xfe, 0xbd, 0xb1, 0x50, 0x4a, 0xbe, 0x40, 0xc1, 0xce, 0x3c,
  0x60, 0xd7, 0x11, 0xbe, 0x3b, 0xbf, 0xbb, 0xbe, 0x1f, 0x40, 0x8d, 0xbe,
  0x1b, 0xf4, 0x83, 0xbe, 0xbc, 0xf7, 0x09, 0x3e, 0x6f, 0xdd, 0x81, 0xbd,
  0x57, 0x26, 0x71, 0xbd, 0x61, 0xd2, 0x85, 0xbe, 0x69, 0xad, 0xc0, 0x3c,
  0xda, 0x6a, 0x7c, 0x3d, 0xbc, 0x87, 0xe9, 0x3d, 0x69, 0x5f, 0x17, 0xbe,
  0xdb, 0x18, 0x39, 0x3c, 0xc5, 0xe2, 0x5d, 0xbe, 0xea, 0x0e, 0x62, 0xbe,
  0xca, 0x99, 0xb2, 0xbd, 0xa6, 0x0e, 0x2b, 0xbe, 0x93, 0xac, 0x2f, 0xbe,
  0x12, 0x1e, 0x9e, 0x3e, 0xf2, 0xa1, 0xe9, 0xbe, 0x2f, 0x69, 0x26, 0x3e,
  0x59, 0x15, 0x3c, 0xbc, 0x96, 0xcd, 0xdd, 0x3e, 0x90, 0xbf, 0xb3, 0x3e,
  0xfb, 0xd1, 0x75, 0xbc, 0xad, 0xbb, 0x0c, 0xbe, 0x94, 0x78, 0x30, 0x3d,
  0x19, 0x77, 0xe7, 0xbe, 0xa0, 0x47, 0x2f, 0x3f, 0x33, 0x67, 0xee, 0xbb,
  0x85, 0xff, 0xbc, 0x3e, 0xc6, 0xc7, 0x11, 0x3e, 0x1e, 0xdc, 0xce, 0xbe,
  0x8e, 0xd0, 0x70, 0x3e, 0xf8, 0xc0, 0x46, 0x3e, 0x4a, 0x8b, 0x07, 0xbd,
  0x05, 0x27, 0x07, 0xbf, 0xbd, 0xca, 0x90, 0x3e, 0x11, 0x80, 0xfe, 0xbc,
  0x86, 0x1f, 0x78, 0x3d, 0x20, 0x22, 0xfe, 0xbe, 0x03, 0x7f, 0x6f, 0xbe,
  0xbd, 0x6a, 0x2a, 0x3e, 0x54, 0xf1, 0xe6, 0xbd, 0xcf, 0xd6, 0xbf, 0x3d,
  0xa3, 0x29, 0x5e, 0x3e, 0xcd, 0x44, 0x27, 0x3d, 0x83, 0xac, 0x58, 0xbd,
  0x28, 0x7d, 0x1e, 0x3e, 0xed, 0x18, 0x73, 0xbe, 0x00, 0x57, 0x68, 0x3e,
  0x60, 0xe2, 0xa3, 0xbe, 0xf0, 0x20, 0x5b, 0x3d, 0x06, 0x49, 0xc5, 0xbe,
  0xc8, 0x57, 0x66, 0xbe, 0xcf, 0xc6, 0x90, 0x3d, 0x5f, 0xdb, 0x13, 0x3e,
  0x92, 0x94, 0xbe, 0x3e, 0x71, 0xda, 0xd8, 0x3e, 0xb7, 0x01, 0x0b, 0x3e,
  0x78, 0x02, 0xe5, 0xbe, 0x61, 0xac, 0x31, 0x3d, 0x2a, 0x7c, 0xd8, 0xbe,
  0x4f, 0x09, 0xf7, 0xbd, 0xb4, 0x1b, 0xd8, 0xbd, 0xf5, 0xc8, 0xe9, 0xbe,
  0x30, 0xe1, 0x07, 0x3c, 0xb0, 0x26, 0x0b, 0xbd, 0x20, 0x4c, 0x82, 0x3d,
  0x7b, 0xf8, 0x1b, 0x3e, 0x09, 0x43, 0x15, 0xbe, 0xaa, 0x5e, 0xa6, 0xbd,
  0xf9, 0x05, 0x9c, 0xbd, 0x48, 0x58, 0x83, 0xbd, 0xa5, 0xed, 0x1a, 0xbe,
  0xe4, 0xf9, 0x48, 0xbe, 0x12, 0x44, 0x75, 0xba, 0x74, 0xe4, 0x6f, 0x3c,
  0x74, 0xd9, 0x70, 0xbe, 0xc5, 0x6e, 0xcc, 0xbc, 0x44, 0x4e, 0x4c, 0xbe,
  0xe3, 0xe5, 0x93, 0x3e, 0xeb, 0xe2, 0xf2, 0xbe, 0x68, 0x0e, 0x87, 0x3b,
  0x17, 0xb9, 0x0e, 0xbf, 0x33, 0xca, 0x2f, 0xbe, 0x8e, 0x3d, 0xe4, 0x3d,
  0xa7, 0xc3, 0xbc, 0xbe, 0x9f, 0xe9, 0xc6, 0x3e, 0x30, 0x09, 0xfb, 0x3d,
  0x3c, 0x0e, 0x2d, 0x3f, 0xb4, 0xea, 0x40, 0x3e, 0x5c, 0xa4, 0x1a, 0xbe,
  0x1c, 0x63, 0x74, 0xbe, 0xb9, 0xaa, 0x72, 0xbe, 0x95, 0xe6, 0xa3, 0xbc,
  0x1a, 0x05, 0xaf, 0x3e, 0x23, 0x1a, 0xb2, 0xbc, 0x45, 0x2b, 0x3f, 0x3e,
  0xf2, 0xfb, 0x19, 0x3f, 0xdc, 0xda, 0x27, 0x3d, 0x49, 0x8d, 0x60, 0xbe,
  0x50, 0x3f, 0x0d, 0xbd, 0x9d, 0xd4, 0x08, 0x3f, 0x43, 0x79, 0xe8, 0x3b,
  0x2c, 0x39, 0x40, 0x3d, 0x22, 0xf3, 0x0c, 0xbd, 0xe9, 0x74, 0xf9, 0x3d,
  0x44, 0x97, 0x45, 0xbe, 0x35, 0xc2, 0x2f, 0xbd, 0xa4, 0x16, 0xbd, 0x3c,
  0x8d, 0xa2, 0x95, 0x3d, 0x2f, 0xde, 0x2e, 0xbe, 0xb2, 0xab, 0xa8, 0x3e,
  0x8f, 0x3d, 0x45, 0xbd, 0xa2, 0xe4, 0x43, 0xbc, 0xdb, 0x8e, 0xad, 0xbe,
  0xb1, 0x80, 0x1e, 0x3e, 0x22, 0x04, 0x0d, 0x3e, 0x27, 0x47, 0x7c, 0xbe,
  0xb9, 0x11, 0x0b, 0xbe, 0xa4, 0x32, 0xb8, 0x3b, 0x66, 0xb7, 0x8f, 0x3d,
  0x55, 0x72, 0xf1, 0xbb, 0x90, 0x53, 0x93, 0xbc, 0x7b, 0x12, 0xa1, 0xbd,
  0xae, 0x2a, 0xc0, 0xbe, 0x1e, 0x32, 0x92, 0xbd, 0x12, 0x95, 0xdc, 0x3e,
  0x00, 0x9f, 0x55, 0xbc, 0x2d, 0xaf, 0x96, 0xbd, 0x8d, 0xe0, 0xd9, 0x3c,
  0xc1, 0xb9, 0x61, 0xbd, 0x87, 0x1e, 0x83, 0x3d, 0xe5, 0x24, 0xa8, 0xbe,
  0x9f, 0x17, 0x1e, 0x3e, 0xed, 0xec, 0xe3, 0x3d, 0xf2, 0xa8, 0xf2, 0x3d,
  0x4d, 0x9d, 0x60, 0x3d, 0x66, 0x63, 0x96, 0x3e, 0x4f, 0x20, 0x93, 0xbd,
  0xfe, 0x87, 0x1a, 0xbe, 0x38, 0xf1, 0xde, 0x3e, 0x49, 0x91, 0xa7, 0xbd,
  0xbe, 0x9a, 0x37, 0x3e, 0x8c, 0x60, 0x29, 0xbe, 0x93, 0xff, 0x0e, 0x3f,
  0x63, 0xd0, 0xc7, 0x3e, 0x4c, 0x77, 0xe5, 0x3d, 0xa8, 0x64, 0xe9, 0xbe,
  0x71, 0x7a, 0x62, 0x3e, 0x95, 0xff, 0xb3, 0x3e, 0x43, 0xf3, 0xea, 0x3d,
  0x1a, 0x36, 0x76, 0xbe, 0xd9, 0x72, 0x56, 0xbe, 0xf5, 0xe8, 0x8c, 0xbe,
  0xd0, 0x6e, 0x30, 0xbc, 0x4a, 0x2f, 0x25, 0x3e, 0x14, 0x95, 0xc4, 0xbd,
  0xcd, 0xcc, 0x8e, 0xbe, 0x65, 0x6b, 0xbd, 0x3e, 0x9d, 0xde, 0x0b, 0x3e,
  0x49, 0xed, 0x9b, 0x3d, 0x53, 0xe9, 0x5a, 0x3e, 0x27, 0xf2, 0x98, 0xbe,
  0xdb, 0xeb, 0x1e, 0xbe, 0xea, 0xbe, 0x75, 0x3d, 0xb9, 0xc6, 0xda, 0x3e,
  0xfa, 0x8f, 0x39, 0x3e, 0x8b, 0x7c, 0xad, 0xbb, 0xd7, 0x96, 0xd6, 0xbd,
  0x3e, 0x06, 0x6e, 0x3e, 0x22, 0xa3, 0x9a, 0x3e, 0xd7, 0xdc, 0x88, 0x3e,
  0xc5, 0x8d, 0xb6, 0x3e, 0xfc, 0x8d, 0xf4, 0xba, 0xb5, 0x63, 0x09, 0x3e,
  0x36, 0xf2, 0x65, 0xbe, 0x9c, 0x04, 0x7c, 0xbe, 0xb5, 0xe0, 0xd5, 0x3e,
  0x23, 0x04, 0x49, 0x3d, 0x5e, 0xa0, 0x01, 0xbf, 0xf6, 0x7d, 0x0a, 0xbd,
  0x7f, 0x1c, 0x9a, 0xbe, 0x82, 0x5c, 0x06, 0x3e, 0x2f, 0x1b, 0x01, 0xbf,
  0x42, 0xd1, 0x35, 0xbd, 0x4d, 0x42, 0x96, 0xbd, 0xec, 0x44, 0xe3, 0x3d,
  0x0b, 0x7f, 0x41, 0x3e, 0xef, 0xf3, 0x25, 0xbd, 0xd2, 0x54, 0x88, 0x3e,
  0x1f, 0x5e, 0x23, 0xbf, 0xd5, 0xb3, 0xc1, 0xbe, 0x20, 0xfd, 0x07, 0x3e,
  0x44, 0xe1, 0x91, 0x3d, 0xb3, 0x1d, 0xe7, 0xbe, 0xc6, 0x57, 0xc5, 0x3e,
  0x52, 0x40, 0x94, 0xbe, 0x29, 0x14, 0x19, 0x3d, 0x8b, 0xed, 0x6b, 0xbf,
  0x08, 0x6c, 0xa9, 0xbd, 0x16, 0x2d, 0x60, 0x3d, 0x11, 0x1f, 0xe8, 0xbd,
  0xb3, 0xf5, 0x43, 0xbe, 0x82, 0xd3, 0x87, 0x3c, 0x45, 0x3c, 0xb9, 0x3c,
  0x39, 0xeb, 0x03, 0x3d, 0xca, 0x48, 0x17, 0x3e, 0xe4, 0x23, 0x00, 0x3d,
  0x0a, 0x40, 0x96, 0x3c, 0xda, 0xd5, 0x1c, 0xbe, 0xe9, 0xd3, 0x0f, 0xbe,
  0x05, 0xe7, 0x93, 0x3d, 0x86, 0x86, 0xd8, 0x3c, 0x1d, 0xe0, 0xd1, 0x3c,
  0xc8, 0x67, 0x01, 0x3e, 0x9b, 0x23, 0x0e, 0xbf, 0x0d, 0x4e, 0xd9, 0xbe,
  0xd8, 0xfc, 0x16, 0xbe, 0x37, 0x37, 0x0d, 0x3f, 0xc3, 0x55, 0x42, 0x3e,
  0x81, 0x96, 0xe9, 0x3e, 0xd3, 0xe8, 0xd3, 0x3e, 0xe2, 0x76, 0x70, 0xbf,
  0xd3, 0x69, 0x7e, 0x3e, 0xbc, 0x64, 0x12, 0x3e, 0xa0, 0xdf, 0x8d, 0x3d,
  0x90, 0xf4, 0x04, 0xbe, 0x62, 0x3b, 0xa1, 0x3e, 0x27, 0x11, 0xc2, 0x3e,
  0x64, 0x59, 0x8a, 0x3d, 0x27, 0x6d, 0x02, 0xbf, 0x4c, 0xd1, 0x25, 0xbc,
  0x2e, 0x2f, 0x3f, 0x3e, 0x5b, 0xdc, 0x34, 0xbd, 0x9a, 0xdd, 0x1e, 0xbc,
  0x41, 0x8a, 0xa4, 0x3e, 0x0d, 0x66, 0x55, 0x3c, 0x3f, 0x76, 0x41, 0x3d,
  0x09, 0xfc, 0xba, 0xbd, 0x43, 0x18, 0x8f, 0x3c, 0x7c, 0x58, 0xa6, 0xbd,
  0xaa, 0x97, 0xd5, 0xbe, 0x98, 0xfe, 0x8f, 0x3e, 0x9b, 0xee, 0x0b, 0x3e,
  0xd7, 0x4c, 0x69, 0x3c, 0x2e, 0xf7, 0xad, 0xbd, 0x22, 0xed, 0xc2, 0xbc,
  0xba, 0x33, 0xdf, 0xbd, 0x74, 0xe4, 0xe8, 0xbe, 0x94, 0xb2, 0xd8, 0xbe,
  0x2b, 0x67, 0xa7, 0x3e, 0x68, 0x1e, 0x71, 0x3e, 0x8e, 0xa0, 0xa3, 0x3d,
  0x6e, 0x10, 0x94, 0x3c, 0xc9, 0xa5, 0x7d, 0xbe, 0xf3, 0xaf, 0x91, 0xbe,
  0x07, 0x6c, 0x82, 0x3e, 0x88, 0xa4, 0xca, 0x3e, 0x11, 0x72, 0x40, 0xbe,
  0x20, 0x8f, 0x88, 0x3d, 0x34, 0x72, 0x9d, 0xbd, 0x48, 0xdd, 0xe8, 0x3e,
  0x8f, 0xbe, 0x25, 0xbe, 0x38, 0xc6, 0x0a, 0xbe, 0x8e, 0x0f, 0x64, 0xbe,
  0x94, 0x0b, 0xee, 0xbd, 0xac, 0xd4, 0x8f, 0x3e, 0x87, 0x10, 0x90, 0x3e,
  0x22, 0x69, 0x7b, 0xbe, 0xac, 0xe9, 0xb4, 0xbe, 0xea, 0x5e, 0x41, 0x3e,
  0x71, 0xfa, 0x58, 0x3d, 0x37, 0x3a, 0x09, 0xbe, 0x35, 0x23, 0x25, 0xbe,
  0x53, 0x28, 0x80, 0xbe, 0x18, 0x5b, 0x11, 0xbf, 0x8e, 0x09, 0x12, 0x3e,
  0xe6, 0xac, 0x30, 0xbe, 0x37, 0x7d, 0xbd, 0x3d, 0x2f, 0xa3, 0xa7, 0xbd,
  0xb3, 0x20, 0x97, 0x3e, 0x7a, 0xe9, 0x9d, 0x3e, 0xc2, 0x8d, 0xbb, 0xbe,
  0xaa, 0xb1, 0x10, 0x3e, 0x9b, 0xe8, 0xad, 0xbe, 0x42, 0x38, 0x65, 0x3d,
  0xc9, 0x76, 0x33, 0xbe, 0x2e, 0xd5, 0x8b, 0x3e, 0xa1, 0x0b, 0xab, 0xbe,
  0x50, 0x3c, 0xb4, 0xbe, 0xab, 0xe7, 0x8f, 0x3e, 0x0b, 0x83, 0x70, 0xbd,
  0x76, 0x0c, 0x82, 0x3e, 0xf3, 0x3f, 0xe9, 0xbe, 0x37, 0xba, 0xc8, 0x3d,
  0x1b, 0x91, 0x1a, 0x3e, 0x26, 0xdc, 0x3b, 0x3d, 0xe8, 0x2e, 0x58, 0x3d,
  0xe1, 0x16, 0x85, 0xbe, 0x8e, 0xb1, 0x45, 0xbc, 0x00, 0x37, 0x85, 0x3e,
  0xa5, 0xcf, 0x09, 0x3e, 0x4b, 0x91, 0xfd, 0x3c, 0xff, 0x91, 0x85, 0x3e,
  0xce, 0x91, 0xc7, 0xbe, 0x47, 0x21, 0x80, 0x3e, 0xfd, 0x2e, 0x42, 0x3e,
  0x26, 0xa0, 0x11, 0x3f, 0xeb, 0x6f, 0x7a, 0xbd, 0x69, 0xfe, 0x69, 0xbe,
  0x14, 0x6b, 0xac, 0xbd, 0x32, 0xbd, 0xa7, 0x3e, 0x97, 0x9b, 0xd7, 0x3e,
  0xf9, 0x3f, 0x37, 0x3e, 0x33, 0xb7, 0xc3, 0x3e, 0xff, 0x47, 0xfd, 0xbe,
  0x11, 0x20, 0x91, 0x3c, 0x71, 0x58, 0x0d, 0xbe, 0xd6, 0x30, 0x77, 0x3d,
  0xb9, 0x5a, 0x90, 0x3e, 0x01, 0xf7, 0xae, 0x3d, 0x7b, 0x88, 0x51, 0xbe,
  0x55, 0xb6, 0xa4, 0x3a, 0x04, 0xa4, 0x16, 0xbe, 0x36, 0x7f, 0x07, 0x3e,
  0xb1, 0x67, 0xe4, 0xbd, 0x68, 0xaa, 0x07, 0xbe, 0x37, 0x0f, 0x5a, 0xbd,
  0xe7, 0x1c, 0x6b, 0xbd, 0x3a, 0x91, 0x43, 0xbc, 0xb3, 0xe9, 0x73, 0x3d,
  0x74, 0x49, 0x63, 0x3e, 0x9f, 0x5f, 0xa9, 0xbd, 0xb4, 0x6b, 0x8c, 0x3d,
  0x00, 0x6f, 0x6a, 0xbe, 0x83, 0x4f, 0x24, 0x3e, 0x2e, 0x2d, 0x89, 0xbe,
  0x65, 0xf1, 0x14, 0x3d, 0x1f, 0x9c, 0x27, 0xbe, 0x8e, 0x44, 0xea, 0x3d,
  0x2f, 0x96, 0xcb, 0xbe, 0x0b, 0xd8, 0x86, 0xbe, 0xab, 0x67, 0xb2, 0xbd,
  0xa9, 0x46, 0x3f, 0x3e, 0x22, 0x5e, 0x8e, 0x3e, 0x4e, 0x3f, 0x11, 0x3e,
  0x90, 0xf2, 0x12, 0x3e, 0xca, 0x37, 0xe2, 0xbc, 0xfd, 0x71, 0x72, 0xbe,
  0x97, 0x85, 0x3e, 0xbe, 0x35, 0x94, 0xe4, 0x3c, 0xb7, 0x00, 0x17, 0x3f,
  0xcd, 0xc1, 0x86, 0xbb, 0x7d, 0x85, 0x4e, 0xbf, 0x3f, 0xb7, 0x1d, 0x3e,
  0x36, 0x1d, 0x74, 0xbd, 0xda, 0xd4, 0xc8, 0x3e, 0x39, 0x1e, 0x28, 0xbf,
  0x30, 0x1e, 0x20, 0x3e, 0xe1, 0xc3, 0xc3, 0x3d, 0x32, 0x2c, 0xbb, 0x3c,
  0x2b, 0x29, 0xc3, 0xbd, 0x49, 0x68, 0x7e, 0x3e, 0xf1, 0xe5, 0xb0, 0x3e,
  0xfc, 0xcb, 0x4d, 0x3e, 0xca, 0x75, 0x83, 0x3e, 0x52, 0x3a, 0x17, 0x3e,
  0xeb, 0x1d, 0x29, 0x3e, 0xf6, 0xd2, 0x01, 0xbf, 0x53, 0x16, 0x94, 0x3e,
  0x03, 0xea, 0xdc, 0x3d, 0x55, 0x86, 0xd9, 0x3e, 0xc6, 0x27, 0x0f, 0xbe,
  0x8b, 0x2b, 0xcb, 0xbe, 0xcf, 0x61, 0x31, 0xbe, 0x69, 0x7b, 0x1c, 0x3f,
  0x2b, 0xbc, 0xf6, 0x3e, 0x98, 0x12, 0x6e, 0x3e, 0xb2, 0x8b, 0xed, 0xbd,
  0x9d, 0x4a, 0x39, 0xbf, 0x20, 0xeb, 0x80, 0xbd, 0x5c, 0xba, 0x36, 0xbe,
  0xbb, 0xce, 0xac, 0x3e, 0x6d, 0x3f, 0x00, 0xbe, 0x15, 0x97, 0xe4, 0xbd,
  0x71, 0xc6, 0xb6, 0xbd, 0x55, 0x5b, 0x1d, 0x3e, 0x24, 0x3b, 0x26, 0xbe,
  0x95, 0x01, 0xc9, 0xbd, 0x3d, 0x91, 0xb4, 0xbd, 0x09, 0xf1, 0x95, 0xbd,
  0x9a, 0xae, 0x95, 0x3d, 0x77, 0x91, 0x84, 0x3c, 0x3b, 0x08, 0x00, 0xbe,
  0x27, 0x8e, 0xc2, 0xbe, 0x7a, 0xe7, 0x47, 0x3d, 0x4c, 0x33, 0x5e, 0xbe,
  0x9c, 0xbb, 0x50, 0x3d, 0x0f, 0x84, 0xc6, 0xbe, 0x94, 0x79, 0x9f, 0x3d,
  0x55, 0x56, 0xaa, 0x3e, 0xa0, 0x84, 0x04, 0xbd, 0x7e, 0x7a, 0x92, 0xbe,
  0x88, 0x6f, 0x8b, 0x3d, 0xab, 0x54, 0x47, 0xbe, 0x9f, 0x7c, 0x2a, 0x3e,
  0x8d, 0x95, 0x82, 0x3e, 0x1d, 0x84, 0x8b, 0x3e, 0xd7, 0x3e, 0x48, 0x3e,
  0x40, 0x7f, 0x9d, 0x3d, 0x14, 0xc2, 0x91, 0x3e, 0xae, 0xd8, 0x55, 0xbe,
  0xc8, 0x67, 0x1f, 0xbe, 0x58, 0xeb, 0x81, 0x3c, 0xdc, 0xf1, 0x25, 0x3e,
  0xc8, 0x18, 0xf7, 0x3d, 0x68, 0x45, 0x69, 0xbe, 0x27, 0xb7, 0xb1, 0xbe,
  0x18, 0x01, 0xcb, 0xbc, 0xfa, 0x3f, 0x70, 0x3e, 0xe3, 0x53, 0xd1, 0xbe,
  0x36, 0x8d, 0xa8, 0xbe, 0x11, 0x16, 0xfa, 0xbd, 0x82, 0x0f, 0xb6, 0x3d,
  0xd6, 0xb6, 0xb4, 0x3d, 0x8b, 0xb0, 0x84, 0x3d, 0x4a, 0x25, 0x80, 0xbe,
  0xc7, 0xb5, 0xed, 0xbd, 0xb6, 0x59, 0x71, 0x3e, 0x3b, 0x5c, 0x97, 0xbd,
  0x35, 0x12, 0x03, 0x3d, 0xae, 0x4f, 0xa8, 0xbe, 0xad, 0xb9, 0x1a, 0x3f,
  0x66, 0x6a, 0x89, 0x3e, 0x08, 0xc1, 0x03, 0x3e, 0xe6, 0xff, 0xf9, 0xbe,
  0x09, 0x00, 0xa7, 0xbd, 0x55, 0x57, 0xc4, 0x3e, 0x46, 0x9e, 0x41, 0x3e,
  0x96, 0xf3, 0xff, 0xff, 0x04, 0x00, 0x00, 0x00, 0x80, 0x02, 0x00, 0x00,
  0xff, 0x65, 0xc5, 0x3e, 0x82, 0x07, 0x40, 0xbe, 0x01, 0x5a, 0x2e, 0xbf,
  0x4b, 0xd0, 0xca, 0x3e, 0x91, 0xe3, 0x08, 0xbf, 0x6f, 0x61, 0x53, 0xbc,
  0x99, 0x86, 0x69, 0xbf, 0x8a, 0xcb, 0x67, 0x3d, 0x76, 0x17, 0x02, 0xbe,
  0x4b, 0x1a, 0x04, 0x3f, 0x69, 0x4e, 0x8b, 0x3e, 0x0c, 0x03, 0x0f, 0xbf,
  0xf9, 0x42, 0xcf, 0x3e, 0x4f, 0x84, 0x62, 0x3e, 0x76, 0x5c, 0x34, 0xbe,
  0x4d, 0xc6, 0x0e, 0xbf, 0x6a, 0x81, 0x97, 0xbe, 0x42, 0x68, 0xeb, 0x3e,
  0x0d, 0x63, 0x0e, 0x3e, 0x04, 0x89, 0x67, 0xbe, 0xf9, 0x77, 0x99, 0xbc,
  0xa5, 0xaa, 0x09, 0x3e, 0x80, 0xfc, 0x49, 0xbe, 0x52, 0x04, 0x0e, 0xbf,
  0x2d, 0xb0, 0xbd, 0x3d, 0xdd, 0x0d, 0x03, 0x3f, 0x6c, 0x20, 0x93, 0xbc,
  0xb6, 0xe0, 0x09, 0x3e, 0x0a, 0x6d, 0x82, 0x3c, 0x43, 0x62, 0x22, 0x3e,
  0x2a, 0xc8, 0x29, 0xbe, 0xc5, 0xc4, 0xd2, 0xbe, 0x95, 0x50, 0x3c, 0x3e,
  0x02, 0x1d, 0xca, 0x3e, 0x35, 0x6e, 0xe3, 0xbe, 0x88, 0x64, 0xb2, 0xbe,
  0xaa, 0x22, 0xbe, 0x3e, 0x2e, 0x29, 0xf0, 0x3e, 0x1c, 0x24, 0x5a, 0xbf,
  0x1d, 0xf1, 0x09, 0xbf, 0xc0, 0x81, 0xc5, 0xbe, 0x8a, 0x26, 0x77, 0x3e,
  0x52, 0x1b, 0xcd, 0xbe, 0x24, 0x1c, 0xf6, 0x3d, 0xc8, 0x2e, 0xd8, 0x3e,
  0xf3, 0xc2, 0x6e, 0x3e, 0x74, 0x5a, 0xee, 0x3e, 0xef, 0xca, 0x2d, 0xbf,
  0xf7, 0x62, 0x36, 0xbe, 0x55, 0x7b, 0x48, 0xbe, 0x84, 0x12, 0x9d, 0xbd,
  0x23, 0xc8, 0x2b, 0xbf, 0x76, 0x55, 0xe2, 0x3e, 0xb3, 0x88, 0xea, 0x3e,
  0x80, 0x4e, 0x85, 0x3e, 0x4a, 0xe3, 0x09, 0x3d, 0x56, 0x0b, 0x1f, 0xbf,
  0xa2, 0xae, 0x07, 0xbf, 0x55, 0x09, 0xe1, 0xbe, 0xd2, 0x3f, 0xc5, 0x3d,
  0x08, 0x7a, 0xa8, 0x3e, 0x01, 0xad, 0x3c, 0x3e, 0xdc, 0xc3, 0xf1, 0x3e,
  0x3a, 0xbb, 0x01, 0x3e, 0x0d, 0x2f, 0xd7, 0xbe, 0x02, 0x9e, 0x73, 0x3e,
  0xb0, 0x76, 0x25, 0x3e, 0x19, 0x00, 0xc2, 0x3e, 0x2a, 0x8c, 0xe8, 0xbe,
  0x2d, 0x2b, 0xb4, 0xbe, 0xaa, 0x5b, 0x7f, 0x3e, 0x63, 0xa8, 0xdc, 0xbe,
  0x8e, 0xf2, 0xb7, 0x3e, 0xef, 0xb3, 0xff, 0x3e, 0xf7, 0xef, 0x6e, 0x3e,
  0xc6, 0x16, 0xb4, 0xbe, 0xda, 0x3d, 0x3d, 0xbf, 0x9d, 0x8b, 0x47, 0xbf,
  0xd2, 0x3e, 0x1b, 0xbe, 0x3b, 0x54, 0x55, 0x3e, 0x5e, 0xd1, 0xca, 0xbe,
  0xc5, 0x5d, 0x9d, 0xbe, 0xaa, 0x9b, 0xd6, 0xbe, 0x74, 0x91, 0xb4, 0xbe,
  0x89, 0xff, 0x46, 0xbd, 0xa5, 0x49, 0x08, 0x3f, 0x0d, 0x4b, 0xa8, 0x3e,
  0x27, 0x08, 0x11, 0x3e, 0xb6, 0xea, 0x5b, 0xbe, 0x1c, 0xb7, 0xd0, 0xb7,
  0x30, 0x24, 0x9b, 0x3e, 0x7a, 0xa3, 0xa6, 0xbe, 0x0a, 0x0a, 0x26, 0xbf,
  0x64, 0x76, 0x49, 0xbe, 0xc4, 0xff, 0xe7, 0xbd, 0x94, 0xd6, 0x69, 0xbe,
  0xb8, 0x89, 0xbf, 0xbe, 0xad, 0x8a, 0xdd, 0x3e, 0x7d, 0xa5, 0x63, 0xbf,
  0x7e, 0x55, 0xae, 0x3e, 0xbe, 0x70, 0xda, 0x3e, 0x58, 0x90, 0xac, 0x3e,
  0xc2, 0xda, 0xee, 0xbe, 0xb8, 0x2a, 0x75, 0x3c, 0x89, 0xb6, 0xc4, 0x3e,
  0x97, 0x71, 0xff, 0x3e, 0xea, 0x76, 0xb0, 0x3e, 0x22, 0x85, 0x15, 0xbf,
  0x63, 0xfd, 0xc9, 0xbe, 0x90, 0xdf, 0x13, 0xbf, 0xa6, 0xbb, 0x12, 0xbe,
  0xc2, 0x50, 0x35, 0xbf, 0x88, 0x8c, 0x84, 0x3e, 0x04, 0xfe, 0x03, 0xbf,
  0xe6, 0xef, 0x61, 0x3e, 0x12, 0x2f, 0x20, 0x3c, 0xef, 0x69, 0xe1, 0xbd,
  0x34, 0xde, 0x2f, 0x3e, 0x56, 0x85, 0x91, 0x3e, 0x87, 0xf5, 0x19, 0xbf,
  0x83, 0xb3, 0xb4, 0xbe, 0xf1, 0xc6, 0x72, 0xbe, 0x32, 0xae, 0x03, 0xbf,
  0x89, 0xe4, 0xc4, 0xbe, 0x08, 0xdb, 0xa0, 0xbe, 0x44, 0xa7, 0x96, 0xbe,
  0x11, 0xa7, 0x05, 0x3f, 0x4f, 0x52, 0x80, 0x3e, 0x7a, 0x7d, 0xa2, 0x3e,
  0x2b, 0x67, 0x24, 0x3e, 0xe9, 0x77, 0xfd, 0x3d, 0xdb, 0x57, 0x56, 0xbe,
  0xae, 0xe6, 0xda, 0x3e, 0x16, 0xbf, 0xfe, 0x3c, 0xfa, 0xff, 0x66, 0x3b,
  0x78, 0xbb, 0xdf, 0xbd, 0x55, 0xbc, 0xe2, 0xbc, 0x6f, 0x74, 0x5c, 0x3e,
  0xb3, 0xfd, 0x51, 0x3e, 0xd7, 0x39, 0x8f, 0xbd, 0x34, 0x44, 0x36, 0xbe,
  0xce, 0x26, 0x96, 0x3d, 0x22, 0x5f, 0x22, 0x3e, 0x54, 0x63, 0x77, 0xbe,
  0x18, 0x43, 0x5e, 0xbe, 0x26, 0xb7, 0x00, 0xbf, 0xe7, 0xd5, 0xd3, 0xbd,
  0x8a, 0xde, 0x8a, 0xbe, 0x40, 0xa0, 0xde, 0xbd, 0x62, 0x3c, 0x59, 0x3c,
  0xed, 0xbe, 0xa9, 0x3e, 0xeb, 0x25, 0xae, 0x3d, 0xdc, 0xe2, 0xc1, 0xbe,
  0x86, 0x2d, 0x6f, 0xbd, 0x21, 0x93, 0x63, 0xbe, 0x86, 0x8f, 0xe2, 0x3d,
  0x03, 0xf4, 0x86, 0xbe, 0xca, 0x55, 0x63, 0x3e, 0x58, 0x13, 0x03, 0xbe,
  0x00, 0xed, 0x21, 0x3e, 0x22, 0xf6, 0xff, 0xff, 0x04, 0x00, 0x00, 0x00,
  0x00, 0x09, 0x00, 0x00, 0x26, 0xc7, 0xad, 0xbc, 0xc7, 0xce, 0x05, 0x3e,
  0x06, 0x8c, 0x7d, 0xbd, 0x8f, 0x3d, 0x03, 0xbe, 0x8e, 0x07, 0x21, 0xbd,
  0xda, 0xd7, 0x10, 0x3d, 0x2a, 0x83, 0x83, 0xbd, 0x0b, 0xdb, 0xf9, 0xbd,
  0x36, 0x52, 0x7a, 0x3e, 0x58, 0x16, 0xb7, 0xbd, 0xa8, 0xa5, 0xe0, 0xbd,
  0x02, 0xa5, 0x74, 0xbc, 0x8f, 0x19, 0x96, 0xbe, 0x35, 0x2c, 0xb7, 0x3d,
  0xe4, 0x7d, 0x77, 0x3e, 0x37, 0x52, 0x79, 0xbb, 0x94, 0x5d, 0x05, 0x3e,
  0x52, 0x1c, 0xdd, 0xbe, 0x6b, 0xa0, 0xb5, 0x3d, 0x7f, 0x92, 0xf9, 0x3d,
  0x23, 0x19, 0x80, 0x3e, 0x4f, 0xe8, 0xcd, 0xbc, 0x2c, 0xa5, 0x47, 0x3e,
  0x6e, 0x4e, 0x9c, 0x3c, 0x05, 0x66, 0x6b, 0xbd, 0xc2, 0xb9, 0xe2, 0x3c,
  0x50, 0xde, 0x0b, 0x3e, 0x4c, 0x41, 0xcc, 0xbd, 0xba, 0x6d, 0x03, 0x3e,
  0x31, 0xd4, 0x02, 0xbe, 0x43, 0xe1, 0x43, 0xbc, 0x95, 0xd0, 0xc9, 0x3d,
  0x5c, 0x3e, 0x49, 0x3e, 0x0f, 0x05, 0x0e, 0x3c, 0xa8, 0x5c, 0x89, 0xbc,
  0xfe, 0x97, 0xfd, 0xbb, 0xef, 0x17, 0x0b, 0xbd, 0xfe, 0xe0, 0xa8, 0x3d,
  0x78, 0xec, 0x20, 0x3e, 0x26, 0xa9, 0xe7, 0xbb, 0xe8, 0x65, 0xe0, 0xbd,
  0xf4, 0x02, 0xae, 0xbe, 0x8e, 0x6d, 0xa5, 0x3c, 0x89, 0x02, 0x13, 0xbd,
  0x7e, 0x78, 0xd1, 0x3d, 0x3c, 0xaa, 0x14, 0xbc, 0x40, 0xf6, 0x2d, 0x3d,
  0xd4, 0x80, 0x8f, 0x3b, 0xee, 0x0f, 0xb0, 0x3c, 0x08, 0xbf, 0xc3, 0xbe,
  0x5a, 0x82, 0x0d, 0x3d, 0x2b, 0x52, 0x8c, 0xbe, 0xf1, 0x63, 0x21, 0x3e,
  0xa4, 0x0f, 0x28, 0xbc, 0x38, 0x7e, 0x8d, 0xbc, 0xe8, 0x29, 0x92, 0xbe,
  0xb8, 0x6c, 0xcc, 0xbc, 0x51, 0x03, 0xdb, 0xbb, 0x10, 0x28, 0x78, 0x3d,
  0x0a, 0x60, 0x24, 0x3b, 0x4a, 0xa9, 0x51, 0xbe, 0x97, 0xff, 0x43, 0xbe,
  0x31, 0x21, 0x8d, 0x3e, 0x04, 0xd7, 0x06, 0x3e, 0x40, 0x74, 0x60, 0xbd,
  0xcd, 0xdd, 0x94, 0xbd, 0xef, 0x2d, 0x0d, 0xbe, 0xfe, 0x60, 0x90, 0x3d,
  0xe8, 0xf6, 0xeb, 0x3b, 0x59, 0x2a, 0xee, 0xbd, 0x20, 0xf8, 0x07, 0xbd,
  0xc6, 0xf1, 0xb7, 0xbd, 0x99, 0x90, 0x0f, 0xbd, 0xea, 0xe8, 0x92, 0xbd,
  0x9b, 0xd2, 0xed, 0x3d, 0x8f, 0xcf, 0xc9, 0x3d, 0xbb, 0x89, 0x55, 0x3c,
  0x39, 0xc3, 0x22, 0x3d, 0x3a, 0xe7, 0xfc, 0x3c, 0x86, 0xe1, 0xee, 0x3d,
  0x9b, 0xc3, 0xab, 0x3d, 0xe2, 0x3e, 0x77, 0xbd, 0x40, 0xb0, 0x85, 0x3d,
  0x00, 0xf6, 0xd5, 0x3d, 0x4d, 0x45, 0x11, 0x3e, 0xae, 0xdd, 0x62, 0xbc,
  0x9a, 0xe1, 0xb8, 0x3d, 0x12, 0x36, 0x18, 0xbd, 0x35, 0x14, 0x00, 0x3e,
  0x91, 0xb2, 0xd7, 0x3c, 0xba, 0x9e, 0xeb, 0xbc, 0x98, 0x95, 0x65, 0xb9,
  0xac, 0x6b, 0x01, 0x3e, 0x55, 0xb8, 0x3d, 0x3e, 0x54, 0x08, 0x9d, 0x3d,
  0x2c, 0x97, 0x28, 0x3a, 0x9b, 0x44, 0x13, 0xbb, 0x3d, 0x21, 0x8d, 0xbd,
  0xf3, 0x44, 0x8a, 0xbe, 0x2f, 0x93, 0xd4, 0xbd, 0xea, 0x45, 0xe4, 0x3c,
  0x24, 0x8d, 0x0a, 0x3e, 0x1f, 0x2a, 0x65, 0x3d, 0x1d, 0xe8, 0xf3, 0xbd,
  0xc6, 0x27, 0x71, 0x3a, 0x2c, 0x64, 0x56, 0xbd, 0x23, 0x0b, 0x18, 0xbe,
  0x62, 0xf5, 0xe2, 0xbd, 0x6e, 0x51, 0x46, 0x3c, 0x77, 0x8e, 0x11, 0x3e,
  0xf7, 0xfb, 0xd0, 0xbd, 0x06, 0x70, 0x6a, 0xbe, 0xd8, 0x3f, 0xec, 0xbd,
  0xd9, 0xd2, 0xb3, 0x3c, 0xa4, 0x57, 0xb7, 0xbe, 0x42, 0x0c, 0x99, 0xbe,
  0x92, 0xd6, 0x78, 0xbe, 0x07, 0x69, 0x10, 0x3d, 0x3e, 0xd1, 0x21, 0x3e,
  0xb2, 0xa3, 0x3b, 0xbe, 0xee, 0x72, 0xe2, 0xbd, 0x38, 0x1f, 0x0e, 0x3e,
  0x4f, 0x01, 0xa3, 0xbc, 0x88, 0x1e, 0x68, 0xbd, 0xdc, 0xcc, 0xb8, 0xbe,
  0x2b, 0x85, 0x70, 0x3e, 0x6a, 0xfe, 0xb5, 0xbe, 0x44, 0x46, 0x66, 0x3e,
  0xf6, 0xde, 0x5b, 0xbc, 0xf1, 0x77, 0x23, 0xbe, 0xb6, 0xf6, 0x69, 0xbe,
  0x90, 0x79, 0x93, 0x3c, 0xb4, 0x44, 0x97, 0xbe, 0x03, 0x5c, 0x08, 0x3e,
  0x4a, 0x24, 0x2a, 0xbe, 0xe0, 0x09, 0x83, 0xbc, 0xe9, 0x8f, 0x25, 0x3e,
  0x8f, 0x98, 0x12, 0x3d, 0x43, 0x9a, 0x98, 0xbd, 0xdc, 0xf0, 0x90, 0xbe,
  0xe7, 0xbb, 0xa5, 0xbc, 0x06, 0x87, 0xb3, 0x3d, 0x93, 0x9d, 0x99, 0x3d,
  0x6d, 0x5a, 0xc1, 0x3d, 0x9c, 0x90, 0xbb, 0x3e, 0x58, 0x2e, 0x89, 0xbe,
  0xb9, 0x5f, 0x65, 0xbe, 0x24, 0xd0, 0xa6, 0xbe, 0x5a, 0xd9, 0xb7, 0x3d,
  0x22, 0x69, 0xf6, 0x3d, 0xcc, 0xe6, 0x28, 0xbd, 0xd2, 0x57, 0x79, 0xbe,
  0x9e, 0x39, 0x87, 0x3c, 0xae, 0x82, 0x82, 0xbd, 0xec, 0x81, 0x8e, 0x3c,
  0x90, 0x99, 0x28, 0xbe, 0x6b, 0x6a, 0xc6, 0x3d, 0x36, 0x33, 0x43, 0x3e,
  0x36, 0x2b, 0x36, 0x3e, 0xc5, 0x9f, 0x7c, 0xbd, 0xbd, 0x30, 0xa5, 0x3c,
  0x47, 0x7d, 0xf6, 0xbc, 0xa0, 0x2a, 0x65, 0xbb, 0x03, 0xa6, 0x8a, 0xbd,
  0xe1, 0x66, 0xb6, 0xbd, 0xe8, 0x67, 0x11, 0xbb, 0x93, 0xee, 0x33, 0x3d,
  0x5e, 0x19, 0x81, 0x3d, 0x7d, 0xf1, 0xae, 0x3c, 0xc9, 0x1e, 0x0d, 0xbe,
  0x84, 0x4d, 0x85, 0x3d, 0xf2, 0x48, 0x33, 0x3d, 0x80, 0xa0, 0xa2, 0x3b,
  0x6a, 0xbe, 0x7d, 0x3e, 0x4f, 0xc1, 0xc5, 0x3d, 0xd5, 0xf0, 0xb2, 0x3d,
  0xf1, 0x25, 0x0e, 0xbe, 0xbc, 0xdb, 0x63, 0xbe, 0xb9, 0x47, 0x64, 0xbc,
  0x79, 0x9e, 0x7f, 0x3d, 0x85, 0x00, 0xb0, 0x3d, 0x1b, 0x5c, 0x35, 0x3e,
  0xc5, 0x0f, 0x60, 0x3d, 0xbb, 0x60, 0x04, 0x3d, 0xa7, 0xe8, 0xd3, 0xbc,
  0x14, 0x20, 0x04, 0xbe, 0x10, 0x78, 0x6e, 0xbe, 0x62, 0x5b, 0xe9, 0xbd,
  0x8a, 0xe6, 0x1d, 0x3d, 0x6b, 0xcd, 0xe5, 0x3d, 0x68, 0x4a, 0x1f, 0x3d,
  0xc5, 0xf1, 0x74, 0xbe, 0xa1, 0xd1, 0x8b, 0x3e, 0x55, 0x7e, 0x92, 0x3c,
  0x66, 0x70, 0x37, 0x3e, 0xc3, 0x86, 0x3e, 0xbe, 0xa3, 0x53, 0xa4, 0xbd,
  0xe8, 0x10, 0x24, 0x3e, 0x6b, 0x42, 0x2b, 0xbe, 0x52, 0x1f, 0x72, 0x3e,
  0xc6, 0x11, 0x0d, 0x3e, 0x08, 0x4e, 0xd9, 0xbd, 0x09, 0xb0, 0x26, 0xbe,
  0x1f, 0xf3, 0x67, 0xbe, 0xbd, 0x1a, 0x79, 0xbe, 0x41, 0xc9, 0x97, 0x3d,
  0x13, 0x68, 0x3a, 0xbd, 0x36, 0xc1, 0x84, 0x3c, 0xc0, 0x45, 0xc1, 0x3c,
  0x47, 0x1a, 0x87, 0xbe, 0x40, 0xfb, 0x26, 0xbe, 0xdb, 0xc8, 0x6b, 0x3e,
  0x1c, 0xe6, 0x93, 0xbd, 0xa2, 0x99, 0x47, 0x3e, 0x0e, 0xdc, 0xcc, 0xbd,
  0x11, 0xaf, 0x63, 0xbd, 0x39, 0xec, 0x59, 0xbd, 0x7e, 0x0d, 0x9d, 0xbe,
  0x18, 0xbd, 0xe3, 0xbd, 0xec, 0x72, 0xbf, 0x3d, 0x01, 0x4a, 0x85, 0xbc,
  0xf3, 0x98, 0xbb, 0xbe, 0x65, 0x35, 0xac, 0x3d, 0xc4, 0xb2, 0xb2, 0xbb,
  0x68, 0x09, 0x03, 0xbd, 0xd5, 0x0e, 0x2c, 0x3e, 0x6d, 0x0e, 0x07, 0x3e,
  0x02, 0xff, 0x23, 0x3e, 0xa1, 0xe7, 0xf8, 0xbd, 0x1f, 0xe4, 0x93, 0xbe,
  0x17, 0xae, 0x90, 0xbd, 0xf4, 0xc0, 0xa4, 0x3d, 0x80, 0xed, 0xe9, 0x3b,
  0x4b, 0xe0, 0x81, 0xbd, 0xd0, 0xd4, 0x23, 0x3d, 0xcc, 0x3c, 0xdb, 0xbc,
  0xc0, 0x12, 0xf5, 0x3d, 0xf2, 0xdf, 0x2b, 0xbe, 0xc2, 0x92, 0x6a, 0xbe,
  0x4d, 0x78, 0x61, 0xbd, 0x01, 0x03, 0x54, 0x3c, 0xe2, 0x7e, 0x5a, 0xbe,
  0xc4, 0x97, 0x27, 0xbb, 0xb0, 0x47, 0x22, 0x3c, 0xdc, 0x08, 0xec, 0xbc,
  0x79, 0xd4, 0x1a, 0x3e, 0x39, 0x1b, 0x0f, 0xbe, 0xf4, 0x43, 0x7d, 0x3d,
  0x70, 0x2f, 0x7c, 0xbe, 0x5d, 0x9f, 0xe6, 0x3d, 0xbf, 0xce, 0x0a, 0xbe,
  0xb1, 0xa6, 0x63, 0xbd, 0x5b, 0xc8, 0x00, 0xbe, 0x3f, 0x53, 0x1f, 0xbe,
  0x21, 0x55, 0x21, 0xbe, 0xb3, 0xb4, 0xcb, 0xbd, 0xff, 0x45, 0x7e, 0xbe,
  0xea, 0x28, 0x10, 0xbe, 0x26, 0x1d, 0xa5, 0x3b, 0x2b, 0x88, 0xe1, 0xbd,
  0x1d, 0x6a, 0x00, 0xbe, 0xdd, 0x97, 0x02, 0xbe, 0xa4, 0x8c, 0x62, 0xbe,
  0xb3, 0xfd, 0x91, 0xbd, 0x63, 0x3b, 0x4a, 0x3e, 0xd0, 0xa0, 0x99, 0xbc,
  0x37, 0xff, 0x4f, 0xbe, 0x24, 0x29, 0x02, 0x3e, 0x1b, 0xc9, 0x42, 0x3d,
  0x4a, 0x82, 0x62, 0xbd, 0x37, 0x67, 0xa8, 0x3d, 0xcf, 0x61, 0xae, 0xbe,
  0x82, 0xfb, 0xc4, 0x3c, 0xf1, 0xed, 0xbd, 0x3d, 0xb0, 0xbe, 0x5a, 0x3d,
  0xbc, 0x68, 0x2e, 0xbe, 0x31, 0x77, 0x51, 0xbd, 0xb1, 0x2b, 0xd6, 0xbd,
  0x7a, 0x76, 0x1d, 0xbd, 0x20, 0xf5, 0x38, 0x3e, 0x11, 0x08, 0x06, 0xbd,
  0x50, 0x36, 0xdb, 0xbd, 0x1a, 0xe3, 0x9c, 0xbe, 0xa2, 0x27, 0xc2, 0x3d,
  0xd6, 0x8b, 0x65, 0x3c, 0x59, 0x36, 0xdd, 0xbd, 0xcf, 0x6f, 0x40, 0xbb,
  0x47, 0xe0, 0xf6, 0xbd, 0x0e, 0xd3, 0x27, 0xbe, 0x38, 0xc7, 0xe4, 0xbd,
  0xcd, 0x7e, 0x01, 0xbe, 0x47, 0x59, 0x3b, 0x3e, 0x5b, 0xa4, 0x1c, 0xbe,
  0x02, 0xe7, 0x9d, 0x3d, 0xb0, 0x44, 0xb6, 0x3d, 0x38, 0xb3, 0xa9, 0xbd,
  0x9e, 0xce, 0x8f, 0xbe, 0x66, 0x78, 0xe2, 0x3c, 0x93, 0xe9, 0x92, 0xbd,
  0xe7, 0xce, 0x1f, 0x3d, 0x4a, 0xb2, 0x94, 0xbd, 0x14, 0xc8, 0x09, 0xbe,
  0x0d, 0x04, 0x5e, 0xbe, 0x3b, 0x98, 0xd3, 0xbc, 0x0b, 0xd4, 0x85, 0xbe,
  0x34, 0xf8, 0x86, 0xbd, 0x5d, 0x1b, 0x18, 0xbe, 0xbd, 0x23, 0xa9, 0xbe,
  0x3f, 0x0d, 0x32, 0xbe, 0x85, 0x42, 0xc0, 0x3b, 0x84, 0xc0, 0xa8, 0xbe,
  0xb9, 0x41, 0x14, 0xbe, 0xa7, 0x2d, 0xf9, 0xbd, 0x5a, 0xe1, 0xbe, 0xbc,
  0x69, 0xd0, 0x02, 0xbe, 0xcd, 0x9c, 0x98, 0xbd, 0xa5, 0x27, 0x63, 0xbe,
  0x27, 0x2e, 0xc6, 0xbd, 0xd9, 0x1f, 0x92, 0xbe, 0x73, 0xa2, 0x09, 0xbe,
  0x77, 0x55, 0xd5, 0xbd, 0x1b, 0x98, 0xe3, 0x3c, 0xcb, 0xfb, 0x6b, 0xbd,
  0xf4, 0x53, 0x04, 0x3d, 0x69, 0x47, 0x6c, 0xbe, 0xc1, 0x4f, 0xb9, 0x3b,
  0x6b, 0x68, 0x11, 0xbe, 0xf4, 0xe0, 0x0a, 0x3e, 0xf7, 0xfe, 0xe2, 0x3a,
  0x12, 0x0b, 0xcc, 0xbd, 0x29, 0xd5, 0x80, 0xbd, 0x80, 0x10, 0x8d, 0xbc,
  0x4c, 0xae, 0x4a, 0xbe, 0x84, 0xc4, 0x29, 0x3e, 0xdc, 0x36, 0x79, 0x3d,
  0x6d, 0xbe, 0x8e, 0x3d, 0x6e, 0xfb, 0x37, 0x3d, 0xdd, 0xb2, 0x86, 0x3d,
  0x5d, 0xcb, 0xc3, 0xbc, 0x39, 0x74, 0x93, 0xbd, 0xe6, 0x79, 0xe8, 0x3c,
  0x2a, 0x78, 0x31, 0xbe, 0x8d, 0xba, 0x0f, 0xbb, 0xcf, 0x96, 0xa4, 0xbc,
  0x67, 0x2d, 0xe5, 0x3d, 0x2d, 0x0d, 0xb0, 0x3d, 0x6a, 0x38, 0x2f, 0x3e,
  0x52, 0x49, 0xd1, 0x3d, 0x4c, 0xe8, 0x5b, 0xbd, 0x3d, 0x7b, 0x93, 0xbe,
  0x31, 0xc9, 0x00, 0xbe, 0xf1, 0x2b, 0x73, 0x3e, 0x23, 0xe5, 0x54, 0x3e,
  0x70, 0xc6, 0x8d, 0xbc, 0x60, 0x2f, 0x46, 0x3e, 0xe1, 0x21, 0x1d, 0x3e,
  0x51, 0xc5, 0x32, 0x3d, 0x70, 0xe1, 0x24, 0xbe, 0x22, 0x5a, 0xfb, 0x3d,
  0xf1, 0xc9, 0x22, 0x3e, 0xd0, 0xd5, 0x57, 0x3d, 0x91, 0x64, 0x76, 0x3e,
  0x01, 0x89, 0x27, 0x3e, 0xa0, 0x16, 0xa9, 0x3d, 0x2a, 0xf2, 0x75, 0xbd,
  0x83, 0x7b, 0xfd, 0xbd, 0x8a, 0x31, 0x95, 0xbe, 0x1e, 0xef, 0x18, 0xbc,
  0x82, 0xc2, 0xa4, 0xbc, 0xdf, 0xb4, 0xa4, 0x3d, 0x2b, 0x01, 0x1f, 0xbe,
  0xf7, 0x49, 0x27, 0xbe, 0x41, 0x53, 0x70, 0xbe, 0x6f, 0xd2, 0xbc, 0xbd,
  0xc6, 0x9d, 0x10, 0xbe, 0xaf, 0x02, 0x2c, 0xbc, 0xb6, 0xfd, 0xec, 0x3d,
  0x07, 0x35, 0x9e, 0xbc, 0x28, 0x7a, 0x64, 0x3d, 0xd4, 0x92, 0xa0, 0x3c,
  0x69, 0x35, 0xe1, 0x3c, 0x6f, 0x76, 0xd6, 0x3b, 0xa2, 0xb7, 0x3d, 0xbd,
  0x73, 0x80, 0xdf, 0xbc, 0x71, 0x00, 0xeb, 0xbd, 0xa1, 0x97, 0x0c, 0x3e,
  0x14, 0xaa, 0xad, 0x3c, 0xe1, 0x88, 0x9d, 0xbd, 0x98, 0x80, 0xf5, 0xba,
  0x52, 0x74, 0x18, 0xbe, 0xa5, 0x5f, 0x1a, 0x3e, 0x4c, 0xaf, 0x8d, 0xbe,
  0xee, 0x81, 0x1c, 0xbe, 0x98, 0xde, 0x35, 0xbd, 0x4f, 0x44, 0x10, 0xbe,
  0x15, 0x49, 0x1d, 0xbe, 0xe6, 0x4e, 0x51, 0xbe, 0xe6, 0x1d, 0xfd, 0xbd,
  0xb1, 0x47, 0x2a, 0xbe, 0xa3, 0xd8, 0xdc, 0x3a, 0x53, 0xcf, 0xff, 0x3d,
  0xa2, 0xfe, 0xbc, 0x3d, 0xdc, 0xfa, 0x33, 0xbe, 0xff, 0x1c, 0x1a, 0xbe,
  0xf0, 0xe0, 0x6e, 0x3c, 0x71, 0x04, 0x5f, 0x3e, 0x78, 0xb3, 0xae, 0xbe,
  0x4e, 0xa3, 0xae, 0xbd, 0x32, 0x34, 0x27, 0xbe, 0x7e, 0xe2, 0xdc, 0x3b,
  0x83, 0x72, 0x57, 0xbe, 0x09, 0x02, 0x18, 0x3d, 0x52, 0xdc, 0xb2, 0xbe,
  0x6d, 0x8c, 0x88, 0xbc, 0x93, 0x67, 0x8d, 0xbb, 0x76, 0xbc, 0x1a, 0xbe,
  0x43, 0xfa, 0x5e, 0xbd, 0x99, 0x85, 0x98, 0xbd, 0x11, 0xa0, 0xb2, 0xbd,
  0x7e, 0xf6, 0x51, 0xbe, 0x67, 0xd3, 0x1a, 0xbe, 0x17, 0xc8, 0xa6, 0x3c,
  0xdc, 0x86, 0x29, 0x3e, 0x5f, 0x77, 0xf8, 0xbd, 0x20, 0xa8, 0x3d, 0xbe,
  0x3a, 0x36, 0xb4, 0xbd, 0x32, 0x11, 0x20, 0xbd, 0x38, 0xfc, 0x6c, 0x3d,
  0xda, 0xc3, 0x81, 0xbc, 0x6b, 0x6d, 0x02, 0xbe, 0xb1, 0xf4, 0xb8, 0x3d,
  0x41, 0xf9, 0x88, 0x3e, 0xcd, 0xf6, 0xab, 0xbe, 0x5e, 0xb9, 0xbc, 0x3c,
  0xcf, 0xd1, 0x7d, 0x3d, 0xf0, 0xbd, 0x23, 0x3e, 0x0e, 0xcf, 0x06, 0x3e,
  0x83, 0x8c, 0x4d, 0x3d, 0x4d, 0x59, 0x7a, 0x3d, 0xb2, 0x42, 0x25, 0x3d,
  0x88, 0xc7, 0x69, 0xbe, 0x5c, 0x12, 0x50, 0xbd, 0x22, 0xe6, 0xb2, 0x3c,
  0xbe, 0x47, 0xb1, 0xbd, 0x23, 0xf9, 0x5f, 0x3e, 0x57, 0x6d, 0x5d, 0x3e,
  0xdd, 0x8a, 0x30, 0x3e, 0x2f, 0x89, 0x01, 0xbe, 0x2f, 0x9d, 0x33, 0xbd,
  0xc5, 0xce, 0x48, 0xbe, 0x07, 0xc0, 0x67, 0xbe, 0x4d, 0x10, 0x4c, 0xbe,
  0xe1, 0x0e, 0xd5, 0x3d, 0xbc, 0xbd, 0xfb, 0x3d, 0xef, 0xb8, 0xd6, 0x3d,
  0x16, 0x3e, 0x80, 0xbe, 0x55, 0x28, 0x5d, 0x3d, 0xa7, 0xd4, 0xbd, 0x3c,
  0x83, 0x64, 0x44, 0x3d, 0xeb, 0x36, 0x19, 0xbe, 0x05, 0x20, 0xa0, 0xbc,
  0xbf, 0x3d, 0xff, 0x3d, 0xc7, 0x9f, 0x01, 0xbb, 0x78, 0xa5, 0x70, 0xbc,
  0x3b, 0x2b, 0x37, 0x3b, 0x22, 0xe8, 0xd6, 0xbd, 0x30, 0xe5, 0x0a, 0xbe,
  0x7a, 0x43, 0xe5, 0xbd, 0x6c, 0x7e, 0x85, 0xbe, 0x6e, 0x17, 0x6c, 0x3e,
  0xb3, 0xe7, 0x8e, 0xbe, 0xb2, 0x27, 0x16, 0xbe, 0x22, 0x31, 0xf6, 0xbb,
  0x31, 0x16, 0x36, 0xbe, 0x9e, 0x07, 0x52, 0x3c, 0x5c, 0x98, 0xf3, 0x3c,
  0x7e, 0xa9, 0x90, 0xbe, 0xfb, 0x21, 0xa6, 0xbc, 0x05, 0xa6, 0x66, 0xbe,
  0x57, 0x8e, 0x16, 0x3c, 0x30, 0xce, 0xaa, 0x3c, 0x62, 0x20, 0x2c, 0xbe,
  0xf1, 0x7d, 0xdf, 0xbc, 0xa2, 0x5a, 0x5d, 0xbd, 0xd9, 0xbd, 0x24, 0xbe,
  0x3d, 0x85, 0x41, 0x3e, 0x4f, 0xe5, 0x24, 0xbe, 0x74, 0xd3, 0xee, 0xbd,
  0x8c, 0x3e, 0x34, 0xbc, 0x81, 0x2c, 0xa1, 0x3c, 0x38, 0xd3, 0x03, 0x3d,
  0x95, 0x5b, 0x0f, 0x3e, 0x6d, 0xc8, 0xa1, 0xbe, 0x04, 0xa2, 0x90, 0xbd,
  0x77, 0x52, 0x15, 0xbd, 0x2a, 0x28, 0x42, 0x3d, 0x6e, 0x30, 0x28, 0xbe,
  0x45, 0x60, 0x3c, 0xbe, 0x3c, 0x1d, 0x10, 0xbd, 0x52, 0xd6, 0xb1, 0x3d,
  0xaa, 0xca, 0x9f, 0xbd, 0x75, 0x96, 0xda, 0xbd, 0xc9, 0xf5, 0xba, 0x3d,
  0xb2, 0xed, 0x00, 0x3e, 0xa2, 0x87, 0xb6, 0x3e, 0x9c, 0x45, 0xf7, 0x3d,
  0x4a, 0xe4, 0xf3, 0x3d, 0xbf, 0xb2, 0x7e, 0x3e, 0x52, 0x78, 0x28, 0x3d,
  0x1b, 0xb0, 0xb0, 0xbe, 0x9a, 0x1d, 0x52, 0x3d, 0xc7, 0x77, 0x49, 0x3e,
  0x0f, 0xf9, 0x23, 0x3e, 0xc7, 0xa6, 0x02, 0x3e, 0x77, 0xd9, 0xb2, 0x3e,
  0xd4, 0x71, 0x7c, 0x3d, 0x02, 0xb4, 0x1b, 0x3a, 0x86, 0xbd, 0x6b, 0xbe,
  0x7f, 0xe2, 0x52, 0x3d, 0x0b, 0x59, 0x0a, 0x3e, 0xa9, 0x47, 0x50, 0x3e,
  0x6e, 0x49, 0x71, 0xbc, 0x80, 0xce, 0xa1, 0x3e, 0x5e, 0x58, 0xe3, 0x3d,
  0xc3, 0xcc, 0xee, 0x3d, 0xa4, 0xa0, 0x83, 0xbe, 0x97, 0x11, 0xc5, 0x3e,
  0x3c, 0xf8, 0xd4, 0x3d, 0x1a, 0x3e, 0x4a, 0x3e, 0x8e, 0x52, 0x1d, 0x3c,
  0xf4, 0xd5, 0x03, 0x3e, 0xc2, 0xdf, 0xb9, 0x3d, 0xc1, 0x1c, 0x69, 0x3d,
  0x42, 0xc3, 0xc5, 0xbd, 0x58, 0x8e, 0x81, 0xbd, 0xfd, 0x2f, 0x06, 0xbe,
  0xb8, 0x2e, 0x44, 0x3d, 0xa1, 0xa5, 0x4a, 0xbd, 0xe3, 0xee, 0x8c, 0x3d,
  0xd0, 0x0c, 0xa4, 0x3c, 0x2f, 0x2a, 0x9e, 0x3d, 0xfc, 0x9b, 0x99, 0x3e,
  0x98, 0xe6, 0x30, 0xbb, 0x54, 0xfc, 0x12, 0xbd, 0xaa, 0x8e, 0xd8, 0xbd,
  0x3d, 0xab, 0x72, 0x3d, 0x61, 0x75, 0x1d, 0xbd, 0xab, 0x93, 0x84, 0x3c,
  0x4f, 0x9d, 0x09, 0x3e, 0x4c, 0xf1, 0x99, 0x3d, 0xbb, 0x50, 0x07, 0xbd,
  0x24, 0x44, 0x50, 0x3d, 0xe2, 0x15, 0xc2, 0x3d, 0xa2, 0xec, 0x60, 0xbc,
  0x2b, 0xaf, 0x7b, 0x3d, 0xb6, 0x3b, 0x06, 0xbe, 0x8e, 0x45, 0xb0, 0x3d,
  0xf6, 0xbd, 0xb6, 0x3d, 0x6d, 0xa8, 0xd4, 0xbc, 0x15, 0x71, 0xf0, 0xbd,
  0xbc, 0x80, 0xaa, 0x3d, 0xf3, 0xd0, 0xaa, 0xbd, 0x2a, 0xda, 0x32, 0xbd,
  0xce, 0xbe, 0x59, 0xbe, 0x03, 0xcf, 0xc4, 0x3c, 0xee, 0xa9, 0x48, 0x3e,
  0xd2, 0x9a, 0x9f, 0x3d, 0xd9, 0x16, 0xac, 0x3c, 0x12, 0xd3, 0xd6, 0x3d,
  0x7e, 0x04, 0xa1, 0xbd, 0xe9, 0xd5, 0x94, 0xbd, 0x07, 0xfc, 0x37, 0xbd,
  0x5f, 0xe5, 0x3c, 0x3d, 0x14, 0xd6, 0x2d, 0x3d, 0xe9, 0x8a, 0x18, 0x3c,
  0x7a, 0xc0, 0x99, 0x3d, 0x2e, 0xff, 0xff, 0xff, 0x04, 0x00, 0x00, 0x00,
  0x20, 0x00, 0x00, 0x00, 0xd2, 0x47, 0x3a, 0xbe, 0x44, 0xc2, 0xcc, 0xbe,
  0x5e, 0x3d, 0x78, 0xbe, 0xeb, 0x45, 0xd9, 0xbe, 0xc1, 0xf6, 0xbd, 0xbd,
  0x3a, 0x86, 0x02, 0xbe, 0x00, 0x9c, 0xb3, 0xbe, 0xdd, 0xce, 0x7e, 0xbe,
  0x08, 0xf1, 0xff, 0xff, 0x0c, 0xf1, 0xff, 0xff, 0x0f, 0x00, 0x00, 0x00,
  0x4d, 0x4c, 0x49, 0x52, 0x20, 0x43, 0x6f, 0x6e, 0x76, 0x65, 0x72, 0x74,
  0x65, 0x64, 0x2e, 0x00, 0x01, 0x00, 0x00, 0x00, 0x14, 0x00, 0x00, 0x00,
  0x00, 0x00, 0x0e, 0x00, 0x18, 0x00, 0x14, 0x00, 0x10, 0x00, 0x0c, 0x00,
  0x08, 0x00, 0x04, 0x00, 0x0e, 0x00, 0x00, 0x00, 0x14, 0x00, 0x00, 0x00,
  0x1c, 0x00, 0x00, 0x00, 0x1c, 0x03, 0x00, 0x00, 0x20, 0x03, 0x00, 0x00,
  0x24, 0x03, 0x00, 0x00, 0x04, 0x00, 0x00, 0x00, 0x6d, 0x61, 0x69, 0x6e,
  0x00, 0x00, 0x00, 0x00, 0x0c, 0x00, 0x00, 0x00, 0xb8, 0x02, 0x00, 0x00,
  0x74, 0x02, 0x00, 0x00, 0x30, 0x02, 0x00, 0x00, 0xdc, 0x01, 0x00, 0x00,
  0x9c, 0x01, 0x00, 0x00, 0x68, 0x01, 0x00, 0x00, 0x34, 0x01, 0x00, 0x00,
  0xf0, 0x00, 0x00, 0x00, 0xc8, 0x00, 0x00, 0x00, 0x78, 0x00, 0x00, 0x00,
  0x40, 0x00, 0x00, 0x00, 0x04, 0x00, 0x00, 0x00, 0xc6, 0xfd, 0xff, 0xff,
  0x1c, 0x00, 0x00, 0x00, 0x00, 0x00, 0x00, 0x09, 0x1c, 0x00, 0x00, 0x00,
  0x20, 0x00, 0x00, 0x00, 0x06, 0x00, 0x00, 0x00, 0x00, 0x00, 0x06, 0x00,
  0x08, 0x00, 0x04, 0x00, 0x06, 0x00, 0x00, 0x00, 0x00, 0x00, 0x80, 0x3f,
  0x01, 0x00, 0x00, 0x00, 0x19, 0x00, 0x00, 0x00, 0x01, 0x00, 0x00, 0x00,
  0x18, 0x00, 0x00, 0x00, 0xfe, 0xfd, 0xff, 0xff, 0x14, 0x00, 0x00, 0x00,
  0x00, 0x00, 0x00, 0x08, 0x10, 0x00, 0x00, 0x00, 0x14, 0x00, 0x00, 0x00,
  0x05, 0x00, 0x00, 0x00, 0xe4, 0xf1, 0xff, 0xff, 0x01, 0x00, 0x00, 0x00,
  0x18, 0x00, 0x00, 0x00, 0x03, 0x00, 0x00, 0x00, 0x17, 0x00, 0x00, 0x00,
  0x03, 0x00, 0x00, 0x00, 0x06, 0x00, 0x00, 0x00, 0x32, 0xfe, 0xff, 0xff,
  0x1c, 0x00, 0x00, 0x00, 0x00, 0x00, 0x00, 0x08, 0x1c, 0x00, 0x00, 0x00,
  0x20, 0x00, 0x00, 0x00, 0x05, 0x00, 0x00, 0x00, 0x00, 0x00, 0x06, 0x00,
  0x08, 0x00, 0x07, 0x00, 0x06, 0x00, 0x00, 0x00, 0x00, 0x00, 0x00, 0x01,
  0x01, 0x00, 0x00, 0x00, 0x17, 0x00, 0x00, 0x00, 0x03, 0x00, 0x00, 0x00,
  0x16, 0x00, 0x00, 0x00, 0x04, 0x00, 0x00, 0x00, 0x05, 0x00, 0x00, 0x00,
  0x00, 0x00, 0x0a, 0x00, 0x10, 0x00, 0x0c, 0x00, 0x08, 0x00, 0x04, 0x00,
  0x0a, 0x00, 0x00, 0x00, 0x0c, 0x00, 0x00, 0x00, 0x10, 0x00, 0x00, 0x00,
  0x04, 0x00, 0x00, 0x00, 0x01, 0x00, 0x00, 0x00, 0x16, 0x00, 0x00, 0x00,
  0x02, 0x00, 0x00, 0x00, 0x15, 0x00, 0x00, 0x00, 0x07, 0x00, 0x00, 0x00,
  0xa2, 0xfe, 0xff, 0xff, 0x14, 0x00, 0x00, 0x00, 0x00, 0x00, 0x00, 0x05,
  0x24, 0x00, 0x00, 0x00, 0x28, 0x00, 0x00, 0x00, 0x03, 0x00, 0x00, 0x00,
  0x22, 0xff, 0xff, 0xff, 0x02, 0x00, 0x00, 0x00, 0x02, 0x00, 0x00, 0x00,
  0x02, 0x00, 0x00, 0x00, 0x02, 0x00, 0x00, 0x00, 0x00, 0x00, 0x00, 0x01,
  0x01, 0x00, 0x00, 0x00, 0x15, 0x00, 0x00, 0x00, 0x01, 0x00, 0x00, 0x00,
  0x14, 0x00, 0x00, 0x00, 0xe2, 0xfe, 0xff, 0xff, 0x14, 0x00, 0x00, 0x00,
  0x00, 0x00, 0x00, 0x0b, 0x10, 0x00, 0x00, 0x00, 0x14, 0x00, 0x00, 0x00,
  0x02, 0x00, 0x00, 0x00, 0xc8, 0xf2, 0xff, 0xff, 0x01, 0x00, 0x00, 0x00,
  0x14, 0x00, 0x00, 0x00, 0x02, 0x00, 0x00, 0x00, 0x13, 0x00, 0x00, 0x00,
  0x09, 0x00, 0x00, 0x00, 0x12, 0xff, 0xff, 0xff, 0x14, 0x00, 0x00, 0x00,
  0x00, 0x00, 0x00, 0x15, 0x10, 0x00, 0x00, 0x00, 0x14, 0x00, 0x00, 0x00,
  0x01, 0x00, 0x00, 0x00, 0xf8, 0xf2, 0xff, 0xff, 0x01, 0x00, 0x00, 0x00,
  0x13, 0x00, 0x00, 0x00, 0x02, 0x00, 0x00, 0x00, 0x12, 0x00, 0x00, 0x00,
  0x08, 0x00, 0x00, 0x00, 0x02, 0xff, 0xff, 0xff, 0x10, 0x00, 0x00, 0x00,
  0x00, 0x00, 0x00, 0x01, 0x18, 0x00, 0x00, 0x00, 0x1c, 0x00, 0x00, 0x00,
  0xf4, 0xfe, 0xff, 0xff, 0x00, 0x00, 0x00, 0x01, 0x01, 0x00, 0x00, 0x00,
  0x01, 0x00, 0x00, 0x00, 0x01, 0x00, 0x00, 0x00, 0x12, 0x00, 0x00, 0x00,
  0x03, 0x00, 0x00, 0x00, 0x11, 0x00, 0x00, 0x00, 0x02, 0x00, 0x00, 0x00,
  0x01, 0x00, 0x00, 0x00, 0x7e, 0xff, 0xff, 0xff, 0x24, 0x00, 0x00, 0x00,
  0x00, 0x00, 0x00, 0x05, 0x34, 0x00, 0x00, 0x00, 0x38, 0x00, 0x00, 0x00,
  0x03, 0x00, 0x00, 0x00, 0x00, 0x00, 0x0e, 0x00, 0x18, 0x00, 0x17, 0x00,
  0x10, 0x00, 0x0c, 0x00, 0x08, 0x00, 0x04, 0x00, 0x0e, 0x00, 0x00, 0x00,
  0x02, 0x00, 0x00, 0x00, 0x02, 0x00, 0x00, 0x00, 0x02, 0x00, 0x00, 0x00,
  0x02, 0x00, 0x00, 0x00, 0x00, 0x00, 0x00, 0x01, 0x01, 0x00, 0x00, 0x00,
  0x11, 0x00, 0x00, 0x00, 0x01, 0x00, 0x00, 0x00, 0x10, 0x00, 0x00, 0x00,
  0xce, 0xff, 0xff, 0xff, 0x14, 0x00, 0x00, 0x00, 0x00, 0x00, 0x00, 0x0b,
  0x10, 0x00, 0x00, 0x00, 0x14, 0x00, 0x00, 0x00, 0x02, 0x00, 0x00, 0x00,
  0xb4, 0xf3, 0xff, 0xff, 0x01, 0x00, 0x00, 0x00, 0x10, 0x00, 0x00, 0x00,
  0x02, 0x00, 0x00, 0x00, 0x0f, 0x00, 0x00, 0x00, 0x0b, 0x00, 0x00, 0x00,
  0x00, 0x00, 0x0e, 0x00, 0x18, 0x00, 0x14, 0x00, 0x10, 0x00, 0x0c, 0x00,
  0x0b, 0x00, 0x04, 0x00, 0x0e, 0x00, 0x00, 0x00, 0x14, 0x00, 0x00, 0x00,
  0x00, 0x00, 0x00, 0x15, 0x10, 0x00, 0x00, 0x00, 0x14, 0x00, 0x00, 0x00,
  0x01, 0x00, 0x00, 0x00, 0xf4, 0xf3, 0xff, 0xff, 0x01, 0x00, 0x00, 0x00,
  0x0f, 0x00, 0x00, 0x00, 0x02, 0x00, 0x00, 0x00, 0x0e, 0x00, 0x00, 0x00,
  0x0a, 0x00, 0x00, 0x00, 0x00, 0x00, 0x0e, 0x00, 0x14, 0x00, 0x00, 0x00,
  0x10, 0x00, 0x0c, 0x00, 0x0b, 0x00, 0x04, 0x00, 0x0e, 0x00, 0x00, 0x00,
  0x1c, 0x00, 0x00, 0x00, 0x00, 0x00, 0x00, 0x01, 0x24, 0x00, 0x00, 0x00,
  0x28, 0x00, 0x00, 0x00, 0x0c, 0x00, 0x10, 0x00, 0x00, 0x00, 0x0c, 0x00,
  0x08, 0x00, 0x07, 0x00, 0x0c, 0x00, 0x00, 0x00, 0x00, 0x00, 0x00, 0x01,
  0x01, 0x00, 0x00, 0x00, 0x01, 0x00, 0x00, 0x00, 0x01, 0x00, 0x00, 0x00,
  0x0e, 0x00, 0x00, 0x00, 0x03, 0x00, 0x00, 0x00, 0x00, 0x00, 0x00, 0x00,
  0x0c, 0x00, 0x00, 0x00, 0x0d, 0x00, 0x00, 0x00, 0x01, 0x00, 0x00, 0x00,
  0x19, 0x00, 0x00, 0x00, 0x01, 0x00, 0x00, 0x00, 0x00, 0x00, 0x00, 0x00,
  0x1a, 0x00, 0x00, 0x00, 0xcc, 0x0a, 0x00, 0x00, 0x78, 0x0a, 0x00, 0x00,
  0x18, 0x0a, 0x00, 0x00, 0xd8, 0x09, 0x00, 0x00, 0x98, 0x09, 0x00, 0x00,
  0x5c, 0x09, 0x00, 0x00, 0x20, 0x09, 0x00, 0x00, 0xe0, 0x08, 0x00, 0x00,
  0x68, 0x08, 0x00, 0x00, 0x08, 0x08, 0x00, 0x00, 0xa8, 0x07, 0x00, 0x00,
  0x48, 0x07, 0x00, 0x00, 0xec, 0x06, 0x00, 0x00, 0x64, 0x06, 0x00, 0x00,
  0xb4, 0x05, 0x00, 0x00, 0x30, 0x05, 0x00, 0x00, 0xac, 0x04, 0x00, 0x00,
  0x34, 0x04, 0x00, 0x00, 0x60, 0x03, 0x00, 0x00, 0xd8, 0x02, 0x00, 0x00,
  0x50, 0x02, 0x00, 0x00, 0xd4, 0x01, 0x00, 0x00, 0x74, 0x01, 0x00, 0x00,
  0xe0, 0x00, 0x00, 0x00, 0x60, 0x00, 0x00, 0x00, 0x04, 0x00, 0x00, 0x00,
  0xb2, 0xf5, 0xff, 0xff, 0x00, 0x00, 0x00, 0x01, 0x14, 0x00, 0x00, 0x00,
  0x1c, 0x00, 0x00, 0x00, 0x1c, 0x00, 0x00, 0x00, 0x1a, 0x00, 0x00, 0x00,
  0x34, 0x00, 0x00, 0x00, 0x02, 0x00, 0x00, 0x00, 0xff, 0xff, 0xff, 0xff,
  0x0a, 0x00, 0x00, 0x00, 0x08, 0xf5, 0xff, 0xff, 0x1b, 0x00, 0x00, 0x00,
  0x53, 0x74, 0x61, 0x74, 0x65, 0x66, 0x75, 0x6c, 0x50, 0x61, 0x72, 0x74,
  0x69, 0x74, 0x69, 0x6f, 0x6e, 0x65, 0x64, 0x43, 0x61, 0x6c, 0x6c, 0x5f,
  0x31, 0x3a, 0x30, 0x00, 0x02, 0x00, 0x00, 0x00, 0x01, 0x00, 0x00, 0x00,
  0x0a, 0x00, 0x00, 0x00, 0x0a, 0xf6, 0xff, 0xff, 0x00, 0x00, 0x00, 0x01,
  0x14, 0x00, 0x00, 0x00, 0x1c, 0x00, 0x00, 0x00, 0x1c, 0x00, 0x00, 0x00,
  0x19, 0x00, 0x00, 0x00, 0x58, 0x00, 0x00, 0x00, 0x02, 0x00, 0x00, 0x00,
  0xff, 0xff, 0xff, 0xff, 0x0a, 0x00, 0x00, 0x00, 0x60, 0xf5, 0xff, 0xff,
  0x3c, 0x00, 0x00, 0x00, 0x73, 0x65, 0x71, 0x75, 0x65, 0x6e, 0x74, 0x69,
  0x61, 0x6c, 0x5f, 0x31, 0x2f, 0x64, 0x65, 0x6e, 0x73, 0x65, 0x5f, 0x31,
  0x5f, 0x32, 0x2f, 0x4d, 0x61, 0x74, 0x4d, 0x75, 0x6c, 0x3b, 0x73, 0x65,
  0x71, 0x75, 0x65, 0x6e, 0x74, 0x69, 0x61, 0x6c, 0x5f, 0x31, 0x2f, 0x64,
  0x65, 0x6e, 0x73, 0x65, 0x5f, 0x31, 0x5f, 0x32, 0x2f, 0x42, 0x69, 0x61,
  0x73, 0x41, 0x64, 0x64, 0x00, 0x00, 0x00, 0x00, 0x02, 0x00, 0x00, 0x00,
  0x01, 0x00, 0x00, 0x00, 0x0a, 0x00, 0x00, 0x00, 0x86, 0xf6, 0xff, 0xff,
  0x00, 0x00, 0x00, 0x01, 0x14, 0x00, 0x00, 0x00, 0x1c, 0x00, 0x00, 0x00,
  0x1c, 0x00, 0x00, 0x00, 0x18, 0x00, 0x00, 0x00, 0x6c, 0x00, 0x00, 0x00,
  0x02, 0x00, 0x00, 0x00, 0xff, 0xff, 0xff, 0xff, 0x10, 0x00, 0x00, 0x00,
  0xdc, 0xf5, 0xff, 0xff, 0x52, 0x00, 0x00, 0x00, 0x73, 0x65, 0x71, 0x75,
  0x65, 0x6e, 0x74, 0x69, 0x61, 0x6c, 0x5f, 0x31, 0x2f, 0x64, 0x65, 0x6e,
  0x73, 0x65, 0x5f, 0x31, 0x2f, 0x4d, 0x61, 0x74, 0x4d, 0x75, 0x6c, 0x3b,
  0x73, 0x65, 0x71, 0x75, 0x65, 0x6e, 0x74, 0x69, 0x61, 0x6c, 0x5f, 0x31,
  0x2f, 0x64, 0x65, 0x6e, 0x73, 0x65, 0x5f, 0x31, 0x2f, 0x52, 0x65, 0x6c,
  0x75, 0x3b, 0x73, 0x65, 0x71, 0x75, 0x65, 0x6e, 0x74, 0x69, 0x61, 0x6c,
  0x5f, 0x31, 0x2f, 0x64, 0x65, 0x6e, 0x73, 0x65, 0x5f, 0x31, 0x2f, 0x42,
  0x69, 0x61, 0x73, 0x41, 0x64, 0x64, 0x00, 0x00, 0x02, 0x00, 0x00, 0x00,
  0x01, 0x00, 0x00, 0x00, 0x10, 0x00, 0x00, 0x00, 0x16, 0xf7, 0xff, 0xff,
  0x00, 0x00, 0x00, 0x01, 0x14, 0x00, 0x00, 0x00, 0x1c, 0x00, 0x00, 0x00,
  0x1c, 0x00, 0x00, 0x00, 0x17, 0x00, 0x00, 0x00, 0x38, 0x00, 0x00, 0x00,
  0x02, 0x00, 0x00, 0x00, 0xff, 0xff, 0xff, 0xff, 0x20, 0x00, 0x00, 0x00,
  0x6c, 0xf6, 0xff, 0xff, 0x1e, 0x00, 0x00, 0x00, 0x73, 0x65, 0x71, 0x75,
  0x65, 0x6e, 0x74, 0x69, 0x61, 0x6c, 0x5f, 0x31, 0x2f, 0x66, 0x6c, 0x61,
  0x74, 0x74, 0x65, 0x6e, 0x5f, 0x31, 0x2f, 0x52, 0x65, 0x73, 0x68, 0x61,
  0x70, 0x65, 0x00, 0x00, 0x02, 0x00, 0x00, 0x00, 0x01, 0x00, 0x00, 0x00,
  0x20, 0x00, 0x00, 0x00, 0x72, 0xf7, 0xff, 0xff, 0x00, 0x00, 0x00, 0x01,
  0x14, 0x00, 0x00, 0x00, 0x24, 0x00, 0x00, 0x00, 0x24, 0x00, 0x00, 0x00,
  0x16, 0x00, 0x00, 0x00, 0x4c, 0x00, 0x00, 0x00, 0x04, 0x00, 0x00, 0x00,
  0xff, 0xff, 0xff, 0xff, 0x02, 0x00, 0x00, 0x00, 0x02, 0x00, 0x00, 0x00,
  0x08, 0x00, 0x00, 0x00, 0xd0, 0xf6, 0xff, 0xff, 0x28, 0x00, 0x00, 0x00,
  0x73, 0x65, 0x71, 0x75, 0x65, 0x6e, 0x74, 0x69, 0x61, 0x6c, 0x5f, 0x31,
  0x2f, 0x6d, 0x61, 0x78, 0x5f, 0x70, 0x6f, 0x6f, 0x6c, 0x69, 0x6e, 0x67,
  0x32, 0x64, 0x5f, 0x31, 0x5f, 0x32, 0x2f, 0x4d, 0x61, 0x78, 0x50, 0x6f,
  0x6f, 0x6c, 0x32, 0x64, 0x00, 0x00, 0x00, 0x00, 0x04, 0x00, 0x00, 0x00,
  0x01, 0x00, 0x00, 0x00, 0x02, 0x00, 0x00, 0x00, 0x02, 0x00, 0x00, 0x00,
  0x08, 0x00, 0x00, 0x00, 0xea, 0xf7, 0xff, 0xff, 0x00, 0x00, 0x00, 0x01,
  0x14, 0x00, 0x00, 0x00, 0x24, 0x00, 0x00, 0x00, 0x24, 0x00, 0x00, 0x00,
  0x15, 0x00, 0x00, 0x00, 0x58, 0x00, 0x00, 0x00, 0x04, 0x00, 0x00, 0x00,
  0xff, 0xff, 0xff, 0xff, 0x04, 0x00, 0x00, 0x00, 0x04, 0x00, 0x00, 0x00,
  0x08, 0x00, 0x00, 0x00, 0x48, 0xf7, 0xff, 0xff, 0x34, 0x00, 0x00, 0x00,
  0x73, 0x65, 0x71, 0x75, 0x65, 0x6e, 0x74, 0x69, 0x61, 0x6c, 0x5f, 0x31,
  0x2f, 0x62, 0x61, 0x74, 0x63, 0x68, 0x5f, 0x6e, 0x6f, 0x72, 0x6d, 0x61,
  0x6c, 0x69, 0x7a, 0x61, 0x74, 0x69, 0x6f, 0x6e, 0x5f, 0x31, 0x5f, 0x32,
  0x2f, 0x62, 0x61, 0x74, 0x63, 0x68, 0x6e, 0x6f, 0x72, 0x6d, 0x2f, 0x61,
  0x64, 0x64, 0x5f, 0x31, 0x00, 0x00, 0x00, 0x00, 0x04, 0x00, 0x00, 0x00,
  0x01, 0x00, 0x00, 0x00, 0x04, 0x00, 0x00, 0x00, 0x04, 0x00, 0x00, 0x00,
  0x08, 0x00, 0x00, 0x00, 0x6e, 0xf8, 0xff, 0xff, 0x00, 0x00, 0x00, 0x01,
  0x14, 0x00, 0x00, 0x00, 0x24, 0x00, 0x00, 0x00, 0x24, 0x00, 0x00, 0x00,
  0x14, 0x00, 0x00, 0x00, 0x58, 0x00, 0x00, 0x00, 0x04, 0x00, 0x00, 0x00,
  0xff, 0xff, 0xff, 0xff, 0x04, 0x00, 0x00, 0x00, 0x04, 0x00, 0x00, 0x00,
  0x08, 0x00, 0x00, 0x00, 0xcc, 0xf7, 0xff, 0xff, 0x34, 0x00, 0x00, 0x00,
  0x73, 0x65, 0x71, 0x75, 0x65, 0x6e, 0x74, 0x69, 0x61, 0x6c, 0x5f, 0x31,
  0x2f, 0x62, 0x61, 0x74, 0x63, 0x68, 0x5f, 0x6e, 0x6f, 0x72, 0x6d, 0x61,
  0x6c, 0x69, 0x7a, 0x61, 0x74, 0x69, 0x6f, 0x6e, 0x5f, 0x31, 0x5f, 0x32,
  0x2f, 0x62, 0x61, 0x74, 0x63, 0x68, 0x6e, 0x6f, 0x72, 0x6d, 0x2f, 0x6d,
  0x75, 0x6c, 0x5f, 0x31, 0x00, 0x00, 0x00, 0x00, 0x04, 0x00, 0x00, 0x00,
  0x01, 0x00, 0x00, 0x00, 0x04, 0x00, 0x00, 0x00, 0x04, 0x00, 0x00, 0x00,
  0x08, 0x00, 0x00, 0x00, 0xf2, 0xf8, 0xff, 0xff, 0x00, 0x00, 0x00, 0x01,
  0x14, 0x00, 0x00, 0x00, 0x24, 0x00, 0x00, 0x00, 0x24, 0x00, 0x00, 0x00,
  0x13, 0x00, 0x00, 0x00, 0xa4, 0x00, 0x00, 0x00, 0x04, 0x00, 0x00, 0x00,
  0xff, 0xff, 0xff, 0xff, 0x04, 0x00, 0x00, 0x00, 0x04, 0x00, 0x00, 0x00,
  0x08, 0x00, 0x00, 0x00, 0x50, 0xf8, 0xff, 0xff, 0x80, 0x00, 0x00, 0x00,
  0x73, 0x65, 0x71, 0x75, 0x65, 0x6e, 0x74, 0x69, 0x61, 0x6c, 0x5f, 0x31,
  0x2f, 0x63, 0x6f, 0x6e, 0x76, 0x32, 0x64, 0x5f, 0x31, 0x5f, 0x32, 0x2f,
  0x52, 0x65, 0x6c, 0x75, 0x3b, 0x73, 0x65, 0x71, 0x75, 0x65, 0x6e, 0x74,
  0x69, 0x61, 0x6c, 0x5f, 0x31, 0x2f, 0x63, 0x6f, 0x6e, 0x76, 0x32, 0x64,
  0x5f, 0x31, 0x5f, 0x32, 0x2f, 0x42, 0x69, 0x61, 0x73, 0x41, 0x64, 0x64,
  0x3b, 0x73, 0x65, 0x71, 0x75, 0x65, 0x6e, 0x74, 0x69, 0x61, 0x6c, 0x5f,
  0x31, 0x2f, 0x63, 0x6f, 0x6e, 0x76, 0x32, 0x64, 0x5f, 0x31, 0x5f, 0x32,
  0x2f, 0x63, 0x6f, 0x6e, 0x76, 0x6f, 0x6c, 0x75, 0x74, 0x69, 0x6f, 0x6e,
  0x3b, 0x73, 0x65, 0x71, 0x75, 0x65, 0x6e, 0x74, 0x69, 0x61, 0x6c, 0x5f,
  0x31, 0x2f, 0x63, 0x6f, 0x6e, 0x76, 0x32, 0x64, 0x5f, 0x31, 0x5f, 0x32,
  0x2f, 0x53, 0x71, 0x75, 0x65, 0x65, 0x7a, 0x65, 0x00, 0x00, 0x00, 0x00,
  0x04, 0x00, 0x00, 0x00, 0x01, 0x00, 0x00, 0x00, 0x04, 0x00, 0x00, 0x00,
  0x04, 0x00, 0x00, 0x00, 0x08, 0x00, 0x00, 0x00, 0xc2, 0xf9, 0xff, 0xff,
  0x00, 0x00, 0x00, 0x01, 0x14, 0x00, 0x00, 0x00, 0x24, 0x00, 0x00, 0x00,
  0x24, 0x00, 0x00, 0x00, 0x12, 0x00, 0x00, 0x00, 0x48, 0x00, 0x00, 0x00,
  0x04, 0x00, 0x00, 0x00, 0xff, 0xff, 0xff, 0xff, 0x04, 0x00, 0x00, 0x00,
  0x04, 0x00, 0x00, 0x00, 0x08, 0x00, 0x00, 0x00, 0x20, 0xf9, 0xff, 0xff,
  0x26, 0x00, 0x00, 0x00, 0x73, 0x65, 0x71, 0x75, 0x65, 0x6e, 0x74, 0x69,
  0x61, 0x6c, 0x5f, 0x31, 0x2f, 0x6d, 0x61, 0x78, 0x5f, 0x70, 0x6f, 0x6f,
  0x6c, 0x69, 0x6e, 0x67, 0x32, 0x64, 0x5f, 0x31, 0x2f, 0x4d, 0x61, 0x78,
  0x50, 0x6f, 0x6f, 0x6c, 0x32, 0x64, 0x00, 0x00, 0x04, 0x00, 0x00, 0x00,
  0x01, 0x00, 0x00, 0x00, 0x04, 0x00, 0x00, 0x00, 0x04, 0x00, 0x00, 0x00,
  0x08, 0x00, 0x00, 0x00, 0x36, 0xfa, 0xff, 0xff, 0x00, 0x00, 0x00, 0x01,
  0x14, 0x00, 0x00, 0x00, 0x24, 0x00, 0x00, 0x00, 0x24, 0x00, 0x00, 0x00,
  0x11, 0x00, 0x00, 0x00, 0x54, 0x00, 0x00, 0x00, 0x04, 0x00, 0x00, 0x00,
  0xff, 0xff, 0xff, 0xff, 0x08, 0x00, 0x00, 0x00, 0x08, 0x00, 0x00, 0x00,
  0x08, 0x00, 0x00, 0x00, 0x94, 0xf9, 0xff, 0xff, 0x32, 0x00, 0x00, 0x00,
  0x73, 0x65, 0x71, 0x75, 0x65, 0x6e, 0x74, 0x69, 0x61, 0x6c, 0x5f, 0x31,
  0x2f, 0x62, 0x61, 0x74, 0x63, 0x68, 0x5f, 0x6e, 0x6f, 0x72, 0x6d, 0x61,
  0x6c, 0x69, 0x7a, 0x61, 0x74, 0x69, 0x6f, 0x6e, 0x5f, 0x31, 0x2f, 0x62,
  0x61, 0x74, 0x63, 0x68, 0x6e, 0x6f, 0x72, 0x6d, 0x2f, 0x61, 0x64, 0x64,
  0x5f, 0x31, 0x00, 0x00, 0x04, 0x00, 0x00, 0x00, 0x01, 0x00, 0x00, 0x00,
  0x08, 0x00, 0x00, 0x00, 0x08, 0x00, 0x00, 0x00, 0x08, 0x00, 0x00, 0x00,
  0xb6, 0xfa, 0xff, 0xff, 0x00, 0x00, 0x00, 0x01, 0x14, 0x00, 0x00, 0x00,
  0x24, 0x00, 0x00, 0x00, 0x24, 0x00, 0x00, 0x00, 0x10, 0x00, 0x00, 0x00,
  0x54, 0x00, 0x00, 0x00, 0x04, 0x00, 0x00, 0x00, 0xff, 0xff, 0xff, 0xff,
  0x08, 0x00, 0x00, 0x00, 0x08, 0x00, 0x00, 0x00, 0x08, 0x00, 0x00, 0x00,
  0x14, 0xfa, 0xff, 0xff, 0x32, 0x00, 0x00, 0x00, 0x73, 0x65, 0x71, 0x75,
  0x65, 0x6e, 0x74, 0x69, 0x61, 0x6c, 0x5f, 0x31, 0x2f, 0x62, 0x61, 0x74,
  0x63, 0x68, 0x5f, 0x6e, 0x6f, 0x72, 0x6d, 0x61, 0x6c, 0x69, 0x7a, 0x61,
  0x74, 0x69, 0x6f, 0x6e, 0x5f, 0x31, 0x2f, 0x62, 0x61, 0x74, 0x63, 0x68,
  0x6e, 0x6f, 0x72, 0x6d, 0x2f, 0x6d, 0x75, 0x6c, 0x5f, 0x31, 0x00, 0x00,
  0x04, 0x00, 0x00, 0x00, 0x01, 0x00, 0x00, 0x00, 0x08, 0x00, 0x00, 0x00,
  0x08, 0x00, 0x00, 0x00, 0x08, 0x00, 0x00, 0x00, 0x36, 0xfb, 0xff, 0xff,
  0x00, 0x00, 0x00, 0x01, 0x14, 0x00, 0x00, 0x00, 0x24, 0x00, 0x00, 0x00,
  0x24, 0x00, 0x00, 0x00, 0x0f, 0x00, 0x00, 0x00, 0x80, 0x00, 0x00, 0x00,
  0x04, 0x00, 0x00, 0x00, 0xff, 0xff, 0xff, 0xff, 0x08, 0x00, 0x00, 0x00,
  0x08, 0x00, 0x00, 0x00, 0x08, 0x00, 0x00, 0x00, 0x94, 0xfa, 0xff, 0xff,
  0x5c, 0x00, 0x00, 0x00, 0x73, 0x65, 0x71, 0x75, 0x65, 0x6e, 0x74, 0x69,
  0x61, 0x6c, 0x5f, 0x31, 0x2f, 0x63, 0x6f, 0x6e, 0x76, 0x32, 0x64, 0x5f,
  0x31, 0x2f, 0x52, 0x65, 0x6c, 0x75, 0x3b, 0x73, 0x65, 0x71, 0x75, 0x65,
  0x6e, 0x74, 0x69, 0x61, 0x6c, 0x5f, 0x31, 0x2f, 0x63, 0x6f, 0x6e, 0x76,
  0x32, 0x64, 0x5f, 0x31, 0x2f, 0x42, 0x69, 0x61, 0x73, 0x41, 0x64, 0x64,
  0x3b, 0x73, 0x65, 0x71, 0x75, 0x65, 0x6e, 0x74, 0x69, 0x61, 0x6c, 0x5f,
  0x31, 0x2f, 0x63, 0x6f, 0x6e, 0x76, 0x32, 0x64, 0x5f, 0x31, 0x2f, 0x63,
  0x6f, 0x6e, 0x76, 0x6f, 0x6c, 0x75, 0x74, 0x69, 0x6f, 0x6e, 0x3b, 0x31,
  0x00, 0x00, 0x00, 0x00, 0x04, 0x00, 0x00, 0x00, 0x01, 0x00, 0x00, 0x00,
  0x08, 0x00, 0x00, 0x00, 0x08, 0x00, 0x00, 0x00, 0x08, 0x00, 0x00, 0x00,
  0x32, 0xfc, 0xff, 0xff, 0x00, 0x00, 0x00, 0x01, 0x10, 0x00, 0x00, 0x00,
  0x10, 0x00, 0x00, 0x00, 0x0e, 0x00, 0x00, 0x00, 0x68, 0x00, 0x00, 0x00,
  0x28, 0xfb, 0xff, 0xff, 0x5b, 0x00, 0x00, 0x00, 0x73, 0x65, 0x71, 0x75,
  0x65, 0x6e, 0x74, 0x69, 0x61, 0x6c, 0x5f, 0x31, 0x2f, 0x63, 0x6f, 0x6e,
  0x76, 0x32, 0x64, 0x5f, 0x31, 0x2f, 0x52, 0x65, 0x6c, 0x75, 0x3b, 0x73,
  0x65, 0x71, 0x75, 0x65, 0x6e, 0x74, 0x69, 0x61, 0x6c, 0x5f, 0x31, 0x2f,
  0x63, 0x6f, 0x6e, 0x76, 0x32, 0x64, 0x5f, 0x31, 0x2f, 0x42, 0x69, 0x61,
  0x73, 0x41, 0x64, 0x64, 0x3b, 0x73, 0x65, 0x71, 0x75, 0x65, 0x6e, 0x74,
  0x69, 0x61, 0x6c, 0x5f, 0x31, 0x2f, 0x63, 0x6f, 0x6e, 0x76, 0x32, 0x64,
  0x5f, 0x31, 0x2f, 0x63, 0x6f, 0x6e, 0x76, 0x6f, 0x6c, 0x75, 0x74, 0x69,
  0x6f, 0x6e, 0x3b, 0x00, 0x01, 0x00, 0x00, 0x00, 0x08, 0x00, 0x00, 0x00,
  0xb6, 0xfc, 0xff, 0xff, 0x00, 0x00, 0x00, 0x01, 0x10, 0x00, 0x00, 0x00,
  0x10, 0x00, 0x00, 0x00, 0x0d, 0x00, 0x00, 0x00, 0x30, 0x00, 0x00, 0x00,
  0xac, 0xfb, 0xff, 0xff, 0x21, 0x00, 0x00, 0x00, 0x73, 0x65, 0x71, 0x75,
  0x65, 0x6e, 0x74, 0x69, 0x61, 0x6c, 0x5f, 0x31, 0x2f, 0x63, 0x6f, 0x6e,
  0x76, 0x32, 0x64, 0x5f, 0x31, 0x2f, 0x63, 0x6f, 0x6e, 0x76, 0x6f, 0x6c,
  0x75, 0x74, 0x69, 0x6f, 0x6e, 0x00, 0x00, 0x00, 0x04, 0x00, 0x00, 0x00,
  0x08, 0x00, 0x00, 0x00, 0x03, 0x00, 0x00, 0x00, 0x03, 0x00, 0x00, 0x00,
  0x01, 0x00, 0x00, 0x00, 0x0e, 0xfd, 0xff, 0xff, 0x00, 0x00, 0x00, 0x01,
  0x10, 0x00, 0x00, 0x00, 0x10, 0x00, 0x00, 0x00, 0x0c, 0x00, 0x00, 0x00,
  0x40, 0x00, 0x00, 0x00, 0x04, 0xfc, 0xff, 0xff, 0x30, 0x00, 0x00, 0x00,
  0x73, 0x65, 0x71, 0x75, 0x65, 0x6e, 0x74, 0x69, 0x61, 0x6c, 0x5f, 0x31,
  0x2f, 0x62, 0x61, 0x74, 0x63, 0x68, 0x5f, 0x6e, 0x6f, 0x72, 0x6d, 0x61,
  0x6c, 0x69, 0x7a, 0x61, 0x74, 0x69, 0x6f, 0x6e, 0x5f, 0x31, 0x2f, 0x62,
  0x61, 0x74, 0x63, 0x68, 0x6e, 0x6f, 0x72, 0x6d, 0x2f, 0x73, 0x75, 0x62,
  0x00, 0x00, 0x00, 0x00, 0x01, 0x00, 0x00, 0x00, 0x08, 0x00, 0x00, 0x00,
  0x6a, 0xfd, 0xff, 0xff, 0x00, 0x00, 0x00, 0x01, 0x10, 0x00, 0x00, 0x00,
  0x10, 0x00, 0x00, 0x00, 0x0b, 0x00, 0x00, 0x00, 0x40, 0x00, 0x00, 0x00,
  0x60, 0xfc, 0xff, 0xff, 0x30, 0x00, 0x00, 0x00, 0x73, 0x65, 0x71, 0x75,
  0x65, 0x6e, 0x74, 0x69, 0x61, 0x6c, 0x5f, 0x31, 0x2f, 0x62, 0x61, 0x74,
  0x63, 0x68, 0x5f, 0x6e, 0x6f, 0x72, 0x6d, 0x61, 0x6c, 0x69, 0x7a, 0x61,
  0x74, 0x69, 0x6f, 0x6e, 0x5f, 0x31, 0x2f, 0x62, 0x61, 0x74, 0x63, 0x68,
  0x6e, 0x6f, 0x72, 0x6d, 0x2f, 0x6d, 0x75, 0x6c, 0x00, 0x00, 0x00, 0x00,
  0x01, 0x00, 0x00, 0x00, 0x08, 0x00, 0x00, 0x00, 0xc6, 0xfd, 0xff, 0xff,
  0x00, 0x00, 0x00, 0x01, 0x10, 0x00, 0x00, 0x00, 0x10, 0x00, 0x00, 0x00,
  0x0a, 0x00, 0x00, 0x00, 0x40, 0x00, 0x00, 0x00, 0xbc, 0xfc, 0xff, 0xff,
  0x32, 0x00, 0x00, 0x00, 0x73, 0x65, 0x71, 0x75, 0x65, 0x6e, 0x74, 0x69,
  0x61, 0x6c, 0x5f, 0x31, 0x2f, 0x62, 0x61, 0x74, 0x63, 0x68, 0x5f, 0x6e,
  0x6f, 0x72, 0x6d, 0x61, 0x6c, 0x69, 0x7a, 0x61, 0x74, 0x69, 0x6f, 0x6e,
  0x5f, 0x31, 0x5f, 0x32, 0x2f, 0x62, 0x61, 0x74, 0x63, 0x68, 0x6e, 0x6f,
  0x72, 0x6d, 0x2f, 0x73, 0x75, 0x62, 0x00, 0x00, 0x01, 0x00, 0x00, 0x00,
  0x08, 0x00, 0x00, 0x00, 0x22, 0xfe, 0xff, 0xff, 0x00, 0x00, 0x00, 0x01,
  0x10, 0x00, 0x00, 0x00, 0x10, 0x00, 0x00, 0x00, 0x09, 0x00, 0x00, 0x00,
  0x40, 0x00, 0x00, 0x00, 0x18, 0xfd, 0xff, 0xff, 0x32, 0x00, 0x00, 0x00,
  0x73, 0x65, 0x71, 0x75, 0x65, 0x6e, 0x74, 0x69, 0x61, 0x6c, 0x5f, 0x31,
  0x2f, 0x62, 0x61, 0x74, 0x63, 0x68, 0x5f, 0x6e, 0x6f, 0x72, 0x6d, 0x61,
  0x6c, 0x69, 0x7a, 0x61, 0x74, 0x69, 0x6f, 0x6e, 0x5f, 0x31, 0x5f, 0x32,
  0x2f, 0x62, 0x61, 0x74, 0x63, 0x68, 0x6e, 0x6f, 0x72, 0x6d, 0x2f, 0x6d,
  0x75, 0x6c, 0x00, 0x00, 0x01, 0x00, 0x00, 0x00, 0x08, 0x00, 0x00, 0x00,
  0x00, 0x00, 0x16, 0x00, 0x1c, 0x00, 0x18, 0x00, 0x17, 0x00, 0x10, 0x00,
  0x0c, 0x00, 0x08, 0x00, 0x00, 0x00, 0x00, 0x00, 0x00, 0x00, 0x07, 0x00,
  0x16, 0x00, 0x00, 0x00, 0x00, 0x00, 0x00, 0x01, 0x14, 0x00, 0x00, 0x00,
  0x14, 0x00, 0x00, 0x00, 0x08, 0x00, 0x00, 0x00, 0x00, 0x00, 0x00, 0x02,
  0x1c, 0x00, 0x00, 0x00, 0x90, 0xfd, 0xff, 0xff, 0x0f, 0x00, 0x00, 0x00,
  0x61, 0x72, 0x69, 0x74, 0x68, 0x2e, 0x63, 0x6f, 0x6e, 0x73, 0x74, 0x61,
  0x6e, 0x74, 0x36, 0x00, 0x01, 0x00, 0x00, 0x00, 0x02, 0x00, 0x00, 0x00,
  0xd2, 0xfe, 0xff, 0xff, 0x00, 0x00, 0x00, 0x01, 0x10, 0x00, 0x00, 0x00,
  0x10, 0x00, 0x00, 0x00, 0x07, 0x00, 0x00, 0x00, 0x1c, 0x00, 0x00, 0x00,
  0xc8, 0xfd, 0xff, 0xff, 0x0f, 0x00, 0x00, 0x00, 0x61, 0x72, 0x69, 0x74,
  0x68, 0x2e, 0x63, 0x6f, 0x6e, 0x73, 0x74, 0x61, 0x6e, 0x74, 0x35, 0x00,
  0x01, 0x00, 0x00, 0x00, 0x0a, 0x00, 0x00, 0x00, 0x0a, 0xff, 0xff, 0xff,
  0x00, 0x00, 0x00, 0x01, 0x10, 0x00, 0x00, 0x00, 0x10, 0x00, 0x00, 0x00,
  0x06, 0x00, 0x00, 0x00, 0x1c, 0x00, 0x00, 0x00, 0x00, 0xfe, 0xff, 0xff,
  0x0f, 0x00, 0x00, 0x00, 0x61, 0x72, 0x69, 0x74, 0x68, 0x2e, 0x63, 0x6f,
  0x6e, 0x73, 0x74, 0x61, 0x6e, 0x74, 0x34, 0x00, 0x01, 0x00, 0x00, 0x00,
  0x10, 0x00, 0x00, 0x00, 0x42, 0xff, 0xff, 0xff, 0x00, 0x00, 0x00, 0x01,
  0x10, 0x00, 0x00, 0x00, 0x10, 0x00, 0x00, 0x00, 0x05, 0x00, 0x00, 0x00,
  0x1c, 0x00, 0x00, 0x00, 0x38, 0xfe, 0xff, 0xff, 0x0f, 0x00, 0x00, 0x00,
  0x61, 0x72, 0x69, 0x74, 0x68, 0x2e, 0x63, 0x6f, 0x6e, 0x73, 0x74, 0x61,
  0x6e, 0x74, 0x33, 0x00, 0x02, 0x00, 0x00, 0x00, 0x10, 0x00, 0x00, 0x00,
  0x20, 0x00, 0x00, 0x00, 0x7e, 0xff, 0xff, 0xff, 0x00, 0x00, 0x00, 0x01,
  0x10, 0x00, 0x00, 0x00, 0x10, 0x00, 0x00, 0x00, 0x04, 0x00, 0x00, 0x00,
  0x1c, 0x00, 0x00, 0x00, 0x74, 0xfe, 0xff, 0xff, 0x0f, 0x00, 0x00, 0x00,
  0x61, 0x72, 0x69, 0x74, 0x68, 0x2e, 0x63, 0x6f, 0x6e, 0x73, 0x74, 0x61,
  0x6e, 0x74, 0x32, 0x00, 0x02, 0x00, 0x00, 0x00, 0x0a, 0x00, 0x00, 0x00,
  0x10, 0x00, 0x00, 0x00, 0xba, 0xff, 0xff, 0xff, 0x00, 0x00, 0x00, 0x01,
  0x10, 0x00, 0x00, 0x00, 0x10, 0x00, 0x00, 0x00, 0x03, 0x00, 0x00, 0x00,
  0x1c, 0x00, 0x00, 0x00, 0xb0, 0xfe, 0xff, 0xff, 0x0f, 0x00, 0x00, 0x00,
  0x61, 0x72, 0x69, 0x74, 0x68, 0x2e, 0x63, 0x6f, 0x6e, 0x73, 0x74, 0x61,
  0x6e, 0x74, 0x31, 0x00, 0x04, 0x00, 0x00, 0x00, 0x08, 0x00, 0x00, 0x00,
  0x03, 0x00, 0x00, 0x00, 0x03, 0x00, 0x00, 0x00, 0x08, 0x00, 0x00, 0x00,
  0x00, 0x00, 0x16, 0x00, 0x18, 0x00, 0x14, 0x00, 0x00, 0x00, 0x10, 0x00,
  0x0c, 0x00, 0x08, 0x00, 0x00, 0x00, 0x00, 0x00, 0x00, 0x00, 0x07, 0x00,
  0x16, 0x00, 0x00, 0x00, 0x00, 0x00, 0x00, 0x01, 0x10, 0x00, 0x00, 0x00,
  0x10, 0x00, 0x00, 0x00, 0x02, 0x00, 0x00, 0x00, 0x1c, 0x00, 0x00, 0x00,
  0x0c, 0xff, 0xff, 0xff, 0x0e, 0x00, 0x00, 0x00, 0x61, 0x72, 0x69, 0x74,
  0x68, 0x2e, 0x63, 0x6f, 0x6e, 0x73, 0x74, 0x61, 0x6e, 0x74, 0x00, 0x00,
  0x01, 0x00, 0x00, 0x00, 0x08, 0x00, 0x00, 0x00, 0x00, 0x00, 0x16, 0x00,
  0x1c, 0x00, 0x18, 0x00, 0x00, 0x00, 0x14, 0x00, 0x10, 0x00, 0x0c, 0x00,
  0x00, 0x00, 0x00, 0x00, 0x08, 0x00, 0x07, 0x00, 0x16, 0x00, 0x00, 0x00,
  0x00, 0x00, 0x00, 0x01, 0x14, 0x00, 0x00, 0x00, 0x24, 0x00, 0x00, 0x00,
  0x24, 0x00, 0x00, 0x00, 0x01, 0x00, 0x00, 0x00, 0x40, 0x00, 0x00, 0x00,
  0x04, 0x00, 0x00, 0x00, 0xff, 0xff, 0xff, 0xff, 0x08, 0x00, 0x00, 0x00,
  0x08, 0x00, 0x00, 0x00, 0x01, 0x00, 0x00, 0x00, 0x74, 0xff, 0xff, 0xff,
  0x1e, 0x00, 0x00, 0x00, 0x73, 0x65, 0x72, 0x76, 0x69, 0x6e, 0x67, 0x5f,
  0x64, 0x65, 0x66, 0x61, 0x75, 0x6c, 0x74, 0x5f, 0x6b, 0x65, 0x72, 0x61,
  0x73, 0x5f, 0x74, 0x65, 0x6e, 0x73, 0x6f, 0x72, 0x3a, 0x30, 0x00, 0x00,
  0x04, 0x00, 0x00, 0x00, 0x01, 0x00, 0x00, 0x00, 0x08, 0x00, 0x00, 0x00,
  0x08, 0x00, 0x00, 0x00, 0x01, 0x00, 0x00, 0x00, 0x07, 0x00, 0x00, 0x00,
  0x6c, 0x00, 0x00, 0x00, 0x50, 0x00, 0x00, 0x00, 0x48, 0x00, 0x00, 0x00,
  0x34, 0x00, 0x00, 0x00, 0x24, 0x00, 0x00, 0x00, 0x14, 0x00, 0x00, 0x00,
  0x04, 0x00, 0x00, 0x00, 0xbc, 0xff, 0xff, 0xff, 0x19, 0x00, 0x00, 0x00,
  0x00, 0x00, 0x00, 0x19, 0xc8, 0xff, 0xff, 0xff, 0x09, 0x00, 0x00, 0x00,
  0x00, 0x00, 0x00, 0x09, 0xd4, 0xff, 0xff, 0xff, 0x16, 0x00, 0x00, 0x00,
  0x00, 0x00, 0x00, 0x16, 0xe0, 0xff, 0xff, 0xff, 0x11, 0x00, 0x00, 0x00,
  0x00, 0x00, 0x00, 0x11, 0x04, 0x00, 0x04, 0x00, 0x04, 0x00, 0x00, 0x00,
  0xf4, 0xff, 0xff, 0xff, 0x12, 0x00, 0x00, 0x00, 0x00, 0x00, 0x00, 0x12,
  0x0c, 0x00, 0x0c, 0x00, 0x0b, 0x00, 0x00, 0x00, 0x00, 0x00, 0x04, 0x00,
  0x0c, 0x00, 0x00, 0x00, 0x03, 0x00, 0x00, 0x00, 0x00, 0x00, 0x00, 0x03
 
};

#endif //DIGIT_MODEL_NCKH_H