#ifndef SINE_MODEL_H
#define SINE_MODEL_H


unsigned int sine_model_len = 3396;
unsigned char sine_model[] = {
 0x1c, 0x00, 0x00, 0x00, 0x54, 0x46, 0x4c, 0x33, 0x14, 0x00, 0x20, 0x00,
  0x1c, 0x00, 0x18, 0x00, 0x14, 0x00, 0x10, 0x00, 0x0c, 0x00, 0x00, 0x00,
  0x08, 0x00, 0x04, 0x00, 0x14, 0x00, 0x00, 0x00, 0x1c, 0x00, 0x00, 0x00,
  0x8c, 0x00, 0x00, 0x00, 0xe4, 0x00, 0x00, 0x00, 0x18, 0x07, 0x00, 0x00,
  0x28, 0x07, 0x00, 0x00, 0xe0, 0x0c, 0x00, 0x00, 0x03, 0x00, 0x00, 0x00,
  0x01, 0x00, 0x00, 0x00, 0x04, 0x00, 0x00, 0x00, 0x16, 0xf8, 0xff, 0xff,
  0x0c, 0x00, 0x00, 0x00, 0x1c, 0x00, 0x00, 0x00, 0x3c, 0x00, 0x00, 0x00,
  0x0f, 0x00, 0x00, 0x00, 0x73, 0x65, 0x72, 0x76, 0x69, 0x6e, 0x67, 0x5f,
  0x64, 0x65, 0x66, 0x61, 0x75, 0x6c, 0x74, 0x00, 0x01, 0x00, 0x00, 0x00,
  0x04, 0x00, 0x00, 0x00, 0x90, 0xff, 0xff, 0xff, 0x0b, 0x00, 0x00, 0x00,
  0x04, 0x00, 0x00, 0x00, 0x08, 0x00, 0x00, 0x00, 0x6f, 0x75, 0x74, 0x70,
  0x75, 0x74, 0x5f, 0x30, 0x00, 0x00, 0x00, 0x00, 0x01, 0x00, 0x00, 0x00,
  0x04, 0x00, 0x00, 0x00, 0xaa, 0xf9, 0xff, 0xff, 0x04, 0x00, 0x00, 0x00,
  0x0c, 0x00, 0x00, 0x00, 0x6b, 0x65, 0x72, 0x61, 0x73, 0x5f, 0x74, 0x65,
  0x6e, 0x73, 0x6f, 0x72, 0x00, 0x00, 0x00, 0x00, 0x02, 0x00, 0x00, 0x00,
  0x34, 0x00, 0x00, 0x00, 0x04, 0x00, 0x00, 0x00, 0xdc, 0xff, 0xff, 0xff,
  0x0e, 0x00, 0x00, 0x00, 0x04, 0x00, 0x00, 0x00, 0x13, 0x00, 0x00, 0x00,
  0x43, 0x4f, 0x4e, 0x56, 0x45, 0x52, 0x53, 0x49, 0x4f, 0x4e, 0x5f, 0x4d,
  0x45, 0x54, 0x41, 0x44, 0x41, 0x54, 0x41, 0x00, 0x08, 0x00, 0x0c, 0x00,
  0x08, 0x00, 0x04, 0x00, 0x08, 0x00, 0x00, 0x00, 0x0d, 0x00, 0x00, 0x00,
  0x04, 0x00, 0x00, 0x00, 0x13, 0x00, 0x00, 0x00, 0x6d, 0x69, 0x6e, 0x5f,
  0x72, 0x75, 0x6e, 0x74, 0x69, 0x6d, 0x65, 0x5f, 0x76, 0x65, 0x72, 0x73,
  0x69, 0x6f, 0x6e, 0x00, 0x0f, 0x00, 0x00, 0x00, 0x30, 0x06, 0x00, 0x00,
  0x28, 0x06, 0x00, 0x00, 0xd8, 0x05, 0x00, 0x00, 0xc0, 0x01, 0x00, 0x00,
  0xac, 0x01, 0x00, 0x00, 0x5c, 0x01, 0x00, 0x00, 0x0c, 0x01, 0x00, 0x00,
  0xbc, 0x00, 0x00, 0x00, 0xb4, 0x00, 0x00, 0x00, 0xac, 0x00, 0x00, 0x00,
  0xa4, 0x00, 0x00, 0x00, 0x9c, 0x00, 0x00, 0x00, 0x94, 0x00, 0x00, 0x00,
  0x74, 0x00, 0x00, 0x00, 0x04, 0x00, 0x00, 0x00, 0x62, 0xfa, 0xff, 0xff,
  0x04, 0x00, 0x00, 0x00, 0x60, 0x00, 0x00, 0x00, 0x0c, 0x00, 0x00, 0x00,
  0x08, 0x00, 0x0e, 0x00, 0x08, 0x00, 0x04, 0x00, 0x08, 0x00, 0x00, 0x00,
  0x10, 0x00, 0x00, 0x00, 0x28, 0x00, 0x00, 0x00, 0x00, 0x00, 0x06, 0x00,
  0x08, 0x00, 0x04, 0x00, 0x06, 0x00, 0x00, 0x00, 0x04, 0x00, 0x00, 0x00,
  0x01, 0x00, 0x00, 0x00, 0xea, 0x03, 0x00, 0x00, 0x0c, 0x00, 0x18, 0x00,
  0x14, 0x00, 0x10, 0x00, 0x0c, 0x00, 0x04, 0x00, 0x0c, 0x00, 0x00, 0x00,
  0x48, 0x0f, 0x67, 0x69, 0x7f, 0x52, 0x02, 0xc4, 0x02, 0x00, 0x00, 0x00,
  0x02, 0x00, 0x00, 0x00, 0x04, 0x00, 0x00, 0x00, 0x06, 0x00, 0x00, 0x00,
  0x32, 0x2e, 0x31, 0x38, 0x2e, 0x30, 0x00, 0x00, 0xce, 0xfa, 0xff, 0xff,
  0x04, 0x00, 0x00, 0x00, 0x10, 0x00, 0x00, 0x00, 0x31, 0x2e, 0x31, 0x34,
  0x2e, 0x30, 0x00, 0x00, 0x00, 0x00, 0x00, 0x00, 0x00, 0x00, 0x00, 0x00,
  0xf8, 0xf4, 0xff, 0xff, 0xfc, 0xf4, 0xff, 0xff, 0x00, 0xf5, 0xff, 0xff,
  0x04, 0xf5, 0xff, 0xff, 0x08, 0xf5, 0xff, 0xff, 0xfe, 0xfa, 0xff, 0xff,
  0x04, 0x00, 0x00, 0x00, 0x40, 0x00, 0x00, 0x00, 0x97, 0xda, 0x1c, 0xbf,
  0xd4, 0x24, 0x9f, 0x3f, 0xf4, 0x9f, 0x2e, 0xbf, 0x10, 0x8c, 0x24, 0x3f,
  0x53, 0x0a, 0x41, 0x3f, 0x09, 0x30, 0x1a, 0xbf, 0x9b, 0x37, 0x0a, 0xbf,
  0x11, 0x2a, 0x56, 0x3f, 0x01, 0xc7, 0x0b, 0x40, 0x5e, 0x9c, 0x0d, 0xbf,
  0x8a, 0x77, 0x01, 0x3f, 0x8f, 0x06, 0x0d, 0xbf, 0x6c, 0x0b, 0x0c, 0xbf,
  0x5c, 0x77, 0x15, 0xbf, 0x8e, 0x29, 0x15, 0xbf, 0xeb, 0xc7, 0xe3, 0x3f,
  0x4a, 0xfb, 0xff, 0xff, 0x04, 0x00, 0x00, 0x00, 0x40, 0x00, 0x00, 0x00,
  0xba, 0xfc, 0xa5, 0x3f, 0x6b, 0xca, 0x34, 0xbf, 0x95, 0xee, 0x94, 0x3f,
  0x49, 0xa1, 0x84, 0xbf, 0x7f, 0x90, 0x85, 0xbf, 0x04, 0x41, 0xbd, 0x3f,
  0x3b, 0x85, 0x9f, 0x3f, 0x66, 0x6a, 0x41, 0xbf, 0xee, 0x99, 0x42, 0xbf,
  0x27, 0x7b, 0xc2, 0x3f, 0x4c, 0xf8, 0xca, 0xbf, 0x20, 0x62, 0xaa, 0x3f,
  0xee, 0x71, 0xb0, 0x3f, 0x9c, 0x10, 0xa8, 0x3f, 0x5a, 0xf9, 0x97, 0x3f,
  0xdf, 0xeb, 0x15, 0xbf, 0x96, 0xfb, 0xff, 0xff, 0x04, 0x00, 0x00, 0x00,
  0x40, 0x00, 0x00, 0x00, 0xca, 0xa4, 0x72, 0xbe, 0xb1, 0x3b, 0x02, 0xbd,
  0x6a, 0x7e, 0x0e, 0x3e, 0x7b, 0x58, 0x5f, 0xbe, 0xac, 0x38, 0xac, 0x3d,
  0x57, 0x36, 0x6b, 0xbd, 0x87, 0x34, 0xb9, 0x3e, 0xfc, 0xd8, 0xad, 0xbe,
  0x1b, 0xd6, 0x82, 0x3e, 0x6f, 0xc2, 0xbf, 0xbe, 0x20, 0x01, 0xb2, 0xbe,
  0x38, 0xd7, 0xc8, 0x3e, 0xb0, 0xf3, 0x9e, 0x3d, 0x66, 0x96, 0xed, 0xbd,
  0xa0, 0x0b, 0x2d, 0x3e, 0xad, 0xda, 0xf5, 0xbd, 0xe2, 0xfb, 0xff, 0xff,
  0x04, 0x00, 0x00, 0x00, 0x04, 0x00, 0x00, 0x00, 0xfb, 0x18, 0xfb, 0xbd,
  0xf2, 0xfb, 0xff, 0xff, 0x04, 0x00, 0x00, 0x00, 0x00, 0x04, 0x00, 0x00,
  0xa6, 0x21, 0xd2, 0x3e, 0x2e, 0x97, 0x3a, 0xbf, 0xf1, 0x71, 0x64, 0x3e,
  0x4a, 0x57, 0x39, 0xbf, 0x2b, 0xab, 0x3c, 0xbf, 0xb7, 0xdc, 0xb1, 0x3e,
  0x09, 0xf7, 0xc7, 0x3d, 0x2b, 0x1c, 0x08, 0xbf, 0xf4, 0x7a, 0x86, 0xbf,
  0x84, 0x98, 0x95, 0x3e, 0xbe, 0x73, 0x0a, 0xbe, 0xe2, 0x63, 0x5b, 0x3d,
  0x4f, 0x5b, 0xa8, 0x3e, 0x30, 0xc2, 0x94, 0x3e, 0xd2, 0x2d, 0x1c, 0x3f,
  0x5d, 0x0d, 0x66, 0xbf, 0x11, 0x4f, 0x7f, 0xbf, 0x3e, 0x79, 0x7e, 0x3e,
  0x17, 0xd9, 0x14, 0xbf, 0x3a, 0x9d, 0x5e, 0x3e, 0x85, 0xac, 0xba, 0x3e,
  0xc2, 0xa3, 0x5b, 0xbf, 0x3f, 0x73, 0x29, 0xbf, 0x59, 0x9f, 0xa0, 0xbe,
  0xa0, 0xed, 0x31, 0xbe, 0xcb, 0x86, 0x67, 0xbf, 0x4f, 0x74, 0xe9, 0x3e,
  0x83, 0xb5, 0x6a, 0xbf, 0xf8, 0x19, 0x30, 0xbf, 0xfa, 0xf2, 0xe9, 0xbe,
  0xdc, 0xd1, 0x66, 0xbf, 0x43, 0x7e, 0xa8, 0xbd, 0xc1, 0xcf, 0x29, 0xbf,
  0x9f, 0x73, 0x5b, 0x3f, 0xc1, 0x19, 0x99, 0xbf, 0x9c, 0xd9, 0xab, 0x3e,
  0xe0, 0x39, 0x7c, 0x3f, 0x14, 0xf4, 0x29, 0xbf, 0x47, 0x13, 0x57, 0xbf,
  0xb0, 0xb9, 0x3f, 0x3f, 0x58, 0x35, 0x44, 0x3f, 0xb2, 0xfa, 0xba, 0xbf,
  0x05, 0xa0, 0x3a, 0x3f, 0x30, 0x20, 0x9d, 0xbf, 0x90, 0x53, 0x7a, 0xbf,
  0x79, 0x12, 0x94, 0xbf, 0x2e, 0x68, 0x90, 0xbf, 0x50, 0xf8, 0x4f, 0x3f,
  0x7b, 0x79, 0xc0, 0x3f, 0x75, 0x38, 0x90, 0xbf, 0xff, 0xe0, 0xdb, 0x3f,
  0x91, 0x77, 0x4e, 0xbf, 0x5d, 0x52, 0x96, 0xbf, 0x1e, 0xf2, 0xd4, 0x3f,
  0xde, 0x4b, 0xc0, 0x3f, 0x0a, 0x18, 0x46, 0xbf, 0xbd, 0xd3, 0x4f, 0xbf,
  0x0e, 0x53, 0xe3, 0x3f, 0x1f, 0xc9, 0x2d, 0xbf, 0xfe, 0xd5, 0x94, 0x3f,
  0x8b, 0x0a, 0xbd, 0x3f, 0x99, 0x73, 0xaf, 0x3f, 0xda, 0xad, 0x89, 0x3f,
  0xe1, 0x2e, 0x85, 0xbf, 0x9f, 0xdc, 0xdb, 0xbf, 0x35, 0x09, 0x13, 0xbd,
  0x75, 0x3c, 0xd7, 0xbf, 0x28, 0xd0, 0x92, 0x3e, 0x82, 0x22, 0xa3, 0x3e,
  0x87, 0x06, 0x01, 0xc0, 0x5b, 0x7b, 0x10, 0xc0, 0x2d, 0x51, 0x12, 0x3f,
  0xb0, 0x93, 0x5e, 0xbc, 0x6e, 0x43, 0x14, 0xc0, 0x7b, 0xa4, 0x87, 0x3f,
  0x50, 0x4c, 0x05, 0xc0, 0xf9, 0xdf, 0x04, 0xc0, 0xf5, 0x12, 0x09, 0xc0,
  0xd2, 0xc4, 0xd4, 0xbf, 0x99, 0x77, 0xac, 0xbc, 0x8f, 0x6b, 0xa5, 0x3e,
  0x0f, 0xcd, 0x85, 0x3d, 0xce, 0xde, 0xc5, 0x3e, 0xcc, 0x5a, 0x42, 0xbe,
  0xe3, 0x64, 0xab, 0x3e, 0xce, 0x41, 0x27, 0x3e, 0x28, 0xf1, 0xcf, 0x3b,
  0xe4, 0x5f, 0x17, 0xbe, 0x57, 0x1f, 0x06, 0xbf, 0xf5, 0xe7, 0xba, 0x3e,
  0x5b, 0xeb, 0xcf, 0xbe, 0x76, 0x49, 0xe3, 0x3e, 0xd7, 0x03, 0x1c, 0x3f,
  0xa5, 0x1c, 0xba, 0xbd, 0xea, 0xdc, 0x06, 0x3f, 0x09, 0x67, 0xae, 0xbe,
  0x43, 0x4e, 0xf8, 0x3e, 0xb0, 0xdb, 0x3a, 0xbe, 0x4c, 0x50, 0xed, 0x3e,
  0xb5, 0xee, 0xe4, 0x3e, 0x20, 0xb6, 0x36, 0x3f, 0xe3, 0x82, 0x20, 0x3f,
  0x8d, 0xbc, 0x11, 0x3e, 0x3e, 0x32, 0x69, 0xbd, 0xff, 0xe1, 0xb6, 0x3e,
  0xcc, 0x5c, 0x3f, 0xbe, 0x59, 0xc4, 0x2c, 0x3f, 0x94, 0x72, 0x33, 0x3e,
  0x7a, 0x59, 0xf6, 0x3c, 0xa6, 0xb4, 0x9f, 0xbe, 0xc9, 0x96, 0x4a, 0xbd,
  0x21, 0x35, 0x2b, 0xbe, 0x3e, 0x31, 0x1b, 0x3f, 0x63, 0xe6, 0xbb, 0xbe,
  0x88, 0xf2, 0x1c, 0x3f, 0xd4, 0x0a, 0x39, 0xbf, 0x7b, 0xe4, 0x89, 0xbf,
  0x53, 0x19, 0xe2, 0x3d, 0xa0, 0xf7, 0xb3, 0x3e, 0xd7, 0xd5, 0x11, 0xbf,
  0xcd, 0xf2, 0xa0, 0xbf, 0x57, 0xaf, 0xd7, 0x3e, 0xfd, 0xa2, 0x35, 0xbf,
  0xc5, 0x99, 0x0b, 0x3e, 0x8d, 0x1d, 0xb1, 0x3d, 0xe5, 0x27, 0x80, 0x3e,
  0x9f, 0x2a, 0x00, 0x3f, 0xfb, 0x4e, 0x51, 0xbf, 0xdf, 0xae, 0x0e, 0x3f,
  0x8f, 0xe4, 0xb8, 0xbd, 0xe0, 0x26, 0xc5, 0x3e, 0xca, 0xea, 0x8a, 0x3e,
  0xc2, 0x3f, 0x1e, 0x3f, 0x6f, 0x1d, 0x2f, 0x3d, 0xd5, 0x03, 0x1f, 0xbe,
  0xe2, 0x9d, 0x58, 0xbe, 0x54, 0xbb, 0x9e, 0x3e, 0x0c, 0x30, 0xbf, 0x3e,
  0x6d, 0x1a, 0x55, 0x3f, 0x6c, 0x18, 0xe5, 0xbd, 0xb5, 0x5b, 0x52, 0x3e,
  0xda, 0xdb, 0x10, 0xbe, 0x3d, 0x84, 0xb3, 0x3e, 0x58, 0x43, 0x23, 0x3e,
  0x36, 0x5f, 0x30, 0x3d, 0xb3, 0xf6, 0x15, 0xbf, 0xc6, 0x74, 0xdd, 0x3c,
  0x3c, 0xe3, 0x57, 0xbe, 0x25, 0xec, 0xcb, 0xbc, 0xeb, 0x69, 0x10, 0xbd,
  0x85, 0x24, 0x1f, 0xbe, 0xb0, 0xa6, 0xb0, 0xbd, 0xc5, 0x23, 0xa3, 0xbe,
  0x37, 0x7a, 0xa4, 0xbe, 0xd3, 0x6a, 0x01, 0xbf, 0xfd, 0xc6, 0xb6, 0xbe,
  0xa0, 0x22, 0x92, 0x3e, 0x6c, 0x8a, 0x8c, 0x3e, 0x3a, 0x61, 0xf1, 0x3c,
  0x2e, 0x15, 0x24, 0xbe, 0x3d, 0x3f, 0xa6, 0x3f, 0xb4, 0x40, 0x40, 0xbf,
  0xd7, 0x57, 0x88, 0x3f, 0x90, 0xdd, 0x41, 0xbf, 0x12, 0xc9, 0x74, 0xbf,
  0x9f, 0x26, 0xbb, 0x3f, 0xd9, 0x41, 0x3f, 0x3f, 0x16, 0x23, 0xc1, 0xbe,
  0xb8, 0xf9, 0x45, 0xbf, 0x8e, 0x53, 0x92, 0x3f, 0x92, 0x37, 0x20, 0xbf,
  0x31, 0x38, 0x90, 0x3f, 0x97, 0x4c, 0x43, 0x3f, 0xcf, 0xc5, 0x67, 0x3f,
  0x82, 0x13, 0xa9, 0x3f, 0x73, 0xe2, 0x79, 0xbf, 0xe7, 0x7c, 0xae, 0xbf,
  0x5b, 0x97, 0xa0, 0x3f, 0xde, 0x6f, 0xc0, 0xbf, 0x55, 0xdb, 0xa1, 0x3f,
  0xae, 0x49, 0x46, 0x3f, 0x20, 0x51, 0x87, 0xbf, 0x1f, 0xb8, 0xa0, 0xbf,
  0x93, 0x78, 0x51, 0x3f, 0x23, 0x31, 0x63, 0x3f, 0xcf, 0xc9, 0x5b, 0xbf,
  0x75, 0x84, 0x0e, 0x3f, 0x95, 0x69, 0xbf, 0xbf, 0x16, 0x90, 0xc6, 0xbf,
  0x54, 0x09, 0xc4, 0xbf, 0x2b, 0xc5, 0xae, 0xbf, 0xa6, 0x15, 0xf5, 0x3e,
  0x47, 0xe8, 0x80, 0x3d, 0x3a, 0xa9, 0xb6, 0x3e, 0x22, 0x8e, 0x0a, 0xbd,
  0x29, 0x12, 0xfa, 0xbe, 0xff, 0xe2, 0xcf, 0xbd, 0x98, 0xa9, 0xcb, 0x3e,
  0x73, 0x51, 0xbe, 0x3e, 0x14, 0xbe, 0xa4, 0xbd, 0x77, 0x3b, 0xa7, 0xbe,
  0x96, 0x31, 0x8c, 0x3e, 0x53, 0x8f, 0xee, 0xbe, 0xa1, 0x6b, 0x38, 0x3d,
  0xb5, 0xe9, 0xd9, 0x3e, 0x7d, 0xd1, 0x0f, 0x3f, 0xde, 0xfc, 0x02, 0x3e,
  0xf4, 0xfb, 0x60, 0xbe, 0xd7, 0xae, 0x0e, 0x40, 0x0c, 0x62, 0xbe, 0xbe,
  0x2a, 0xa5, 0xfa, 0x3f, 0x22, 0x99, 0x89, 0xbf, 0x89, 0x69, 0x96, 0xbf,
  0xd6, 0xe8, 0xee, 0x3f, 0x4d, 0x17, 0xc6, 0x3f, 0x7c, 0xca, 0x26, 0xbf,
  0xac, 0x8a, 0x6e, 0xbf, 0x39, 0xa3, 0x16, 0x40, 0x7a, 0x6e, 0x7b, 0xbf,
  0xaa, 0x2e, 0x06, 0x40, 0xe7, 0x28, 0x01, 0x40, 0x43, 0xe8, 0xfa, 0x3f,
  0x5f, 0xe7, 0x0e, 0x40, 0xc9, 0x94, 0x43, 0xbf, 0x69, 0x9b, 0x08, 0xc0,
  0xae, 0x69, 0xdf, 0x3e, 0x15, 0x60, 0xf6, 0xbf, 0xa2, 0x44, 0x8d, 0x3f,
  0x28, 0x34, 0x97, 0x3f, 0x0a, 0xcb, 0x0b, 0xc0, 0x7d, 0xb4, 0xf7, 0xbf,
  0x53, 0xb7, 0x38, 0x3f, 0x28, 0x1d, 0x4a, 0x3f, 0x09, 0x67, 0xca, 0xbf,
  0xbe, 0xdd, 0x7b, 0x3f, 0x26, 0xab, 0xbc, 0xbf, 0xb5, 0xae, 0x07, 0xc0,
  0xd0, 0x24, 0x04, 0xc0, 0xc7, 0x37, 0x0a, 0xc0, 0xbf, 0x9f, 0x22, 0x3f,
  0x0d, 0xfa, 0x15, 0x3f, 0x92, 0xb7, 0x1f, 0xbf, 0x16, 0xef, 0x9e, 0xbd,
  0x1a, 0x9a, 0xd8, 0xbe, 0x13, 0x2f, 0xed, 0xbe, 0xb5, 0x18, 0x5e, 0xbe,
  0x17, 0x84, 0xa0, 0x3e, 0x69, 0x3c, 0x64, 0x3d, 0x23, 0xf1, 0x51, 0xbf,
  0x8f, 0x00, 0xa4, 0x3e, 0xa6, 0xa1, 0x01, 0x3d, 0xb5, 0x8f, 0xbd, 0xbd,
  0xd8, 0xc9, 0xc7, 0x3e, 0x69, 0xed, 0x86, 0x3d, 0xaa, 0x8b, 0x02, 0x3f,
  0x92, 0x9a, 0x14, 0xbf, 0x00, 0x00, 0x06, 0x00, 0x08, 0x00, 0x04, 0x00,
  0x06, 0x00, 0x00, 0x00, 0x04, 0x00, 0x00, 0x00, 0x40, 0x00, 0x00, 0x00,
  0x83, 0x94, 0x44, 0xbf, 0xc5, 0x7f, 0x3a, 0x3f, 0xe5, 0xa3, 0xe6, 0xbe,
  0x5b, 0xe5, 0xcf, 0x3e, 0x92, 0xd1, 0xbb, 0x3f, 0xa2, 0xbf, 0xea, 0xbe,
  0x33, 0x99, 0xc7, 0x3e, 0x43, 0xfc, 0x64, 0xbf, 0xf7, 0x10, 0x10, 0x3e,
  0x33, 0x45, 0x6d, 0xbd, 0x6f, 0x22, 0x11, 0x3f, 0x90, 0xfe, 0xe5, 0xbe,
  0x64, 0xb1, 0xa8, 0xbe, 0xeb, 0x10, 0x22, 0x3f, 0x3c, 0x6b, 0x37, 0xbf,
  0xd8, 0x07, 0xef, 0xbe, 0x60, 0xfa, 0xff, 0xff, 0x64, 0xfa, 0xff, 0xff,
  0x0f, 0x00, 0x00, 0x00, 0x4d, 0x4c, 0x49, 0x52, 0x20, 0x43, 0x6f, 0x6e,
  0x76, 0x65, 0x72, 0x74, 0x65, 0x64, 0x2e, 0x00, 0x01, 0x00, 0x00, 0x00,
  0x14, 0x00, 0x00, 0x00, 0x00, 0x00, 0x0e, 0x00, 0x18, 0x00, 0x14, 0x00,
  0x10, 0x00, 0x0c, 0x00, 0x08, 0x00, 0x04, 0x00, 0x0e, 0x00, 0x00, 0x00,
  0x14, 0x00, 0x00, 0x00, 0x1c, 0x00, 0x00, 0x00, 0x1c, 0x01, 0x00, 0x00,
  0x20, 0x01, 0x00, 0x00, 0x24, 0x01, 0x00, 0x00, 0x04, 0x00, 0x00, 0x00,
  0x6d, 0x61, 0x69, 0x6e, 0x00, 0x00, 0x00, 0x00, 0x05, 0x00, 0x00, 0x00,
  0xd0, 0x00, 0x00, 0x00, 0x9c, 0x00, 0x00, 0x00, 0x5c, 0x00, 0x00, 0x00,
  0x38, 0x00, 0x00, 0x00, 0x04, 0x00, 0x00, 0x00, 0x52, 0xff, 0xff, 0xff,
  0x10, 0x00, 0x00, 0x00, 0x00, 0x00, 0x00, 0x08, 0x0c, 0x00, 0x00, 0x00,
  0x10, 0x00, 0x00, 0x00, 0xe4, 0xfa, 0xff, 0xff, 0x01, 0x00, 0x00, 0x00,
  0x0b, 0x00, 0x00, 0x00, 0x03, 0x00, 0x00, 0x00, 0x0a, 0x00, 0x00, 0x00,
  0x01, 0x00, 0x00, 0x00, 0x03, 0x00, 0x00, 0x00, 0xae, 0xff, 0xff, 0xff,
  0x0c, 0x00, 0x00, 0x00, 0x10, 0x00, 0x00, 0x00, 0x01, 0x00, 0x00, 0x00,
  0x01, 0x00, 0x00, 0x00, 0x0a, 0x00, 0x00, 0x00, 0x01, 0x00, 0x00, 0x00,
  0x09, 0x00, 0x00, 0x00, 0xa2, 0xff, 0xff, 0xff, 0x10, 0x00, 0x00, 0x00,
  0x00, 0x00, 0x00, 0x08, 0x0c, 0x00, 0x00, 0x00, 0x10, 0x00, 0x00, 0x00,
  0x34, 0xfb, 0xff, 0xff, 0x01, 0x00, 0x00, 0x00, 0x09, 0x00, 0x00, 0x00,
  0x03, 0x00, 0x00, 0x00, 0x08, 0x00, 0x00, 0x00, 0x02, 0x00, 0x00, 0x00,
  0x04, 0x00, 0x00, 0x00, 0x00, 0x00, 0x0a, 0x00, 0x10, 0x00, 0x0c, 0x00,
  0x08, 0x00, 0x04, 0x00, 0x0a, 0x00, 0x00, 0x00, 0x0c, 0x00, 0x00, 0x00,
  0x10, 0x00, 0x00, 0x00, 0x01, 0x00, 0x00, 0x00, 0x01, 0x00, 0x00, 0x00,
  0x08, 0x00, 0x00, 0x00, 0x01, 0x00, 0x00, 0x00, 0x07, 0x00, 0x00, 0x00,
  0x00, 0x00, 0x0e, 0x00, 0x14, 0x00, 0x00, 0x00, 0x10, 0x00, 0x0c, 0x00,
  0x0b, 0x00, 0x04, 0x00, 0x0e, 0x00, 0x00, 0x00, 0x10, 0x00, 0x00, 0x00,
  0x00, 0x00, 0x00, 0x08, 0x0c, 0x00, 0x00, 0x00, 0x10, 0x00, 0x00, 0x00,
  0xa0, 0xfb, 0xff, 0xff, 0x01, 0x00, 0x00, 0x00, 0x07, 0x00, 0x00, 0x00,
  0x03, 0x00, 0x00, 0x00, 0x00, 0x00, 0x00, 0x00, 0x06, 0x00, 0x00, 0x00,
  0x05, 0x00, 0x00, 0x00, 0x01, 0x00, 0x00, 0x00, 0x0b, 0x00, 0x00, 0x00,
  0x01, 0x00, 0x00, 0x00, 0x00, 0x00, 0x00, 0x00, 0x0c, 0x00, 0x00, 0x00,
  0x08, 0x04, 0x00, 0x00, 0xb0, 0x03, 0x00, 0x00, 0x58, 0x03, 0x00, 0x00,
  0x1c, 0x03, 0x00, 0x00, 0xc0, 0x02, 0x00, 0x00, 0x68, 0x02, 0x00, 0x00,
  0x1c, 0x02, 0x00, 0x00, 0xa0, 0x01, 0x00, 0x00, 0x40, 0x01, 0x00, 0x00,
  0xc0, 0x00, 0x00, 0x00, 0x60, 0x00, 0x00, 0x00, 0x04, 0x00, 0x00, 0x00,
  0x3e, 0xfc, 0xff, 0xff, 0x00, 0x00, 0x00, 0x01, 0x14, 0x00, 0x00, 0x00,
  0x1c, 0x00, 0x00, 0x00, 0x1c, 0x00, 0x00, 0x00, 0x0c, 0x00, 0x00, 0x00,
  0x34, 0x00, 0x00, 0x00, 0x02, 0x00, 0x00, 0x00, 0xff, 0xff, 0xff, 0xff,
  0x01, 0x00, 0x00, 0x00, 0x28, 0xfc, 0xff, 0xff, 0x1b, 0x00, 0x00, 0x00,
  0x53, 0x74, 0x61, 0x74, 0x65, 0x66, 0x75, 0x6c, 0x50, 0x61, 0x72, 0x74,
  0x69, 0x74, 0x69, 0x6f, 0x6e, 0x65, 0x64, 0x43, 0x61, 0x6c, 0x6c, 0x5f,
  0x31, 0x3a, 0x30, 0x00, 0x02, 0x00, 0x00, 0x00, 0x01, 0x00, 0x00, 0x00,
  0x01, 0x00, 0x00, 0x00, 0x96, 0xfc, 0xff, 0xff, 0x00, 0x00, 0x00, 0x01,
  0x14, 0x00, 0x00, 0x00, 0x1c, 0x00, 0x00, 0x00, 0x1c, 0x00, 0x00, 0x00,
  0x0b, 0x00, 0x00, 0x00, 0x38, 0x00, 0x00, 0x00, 0x02, 0x00, 0x00, 0x00,
  0xff, 0xff, 0xff, 0xff, 0x10, 0x00, 0x00, 0x00, 0x80, 0xfc, 0xff, 0xff,
  0x1e, 0x00, 0x00, 0x00, 0x73, 0x65, 0x71, 0x75, 0x65, 0x6e, 0x74, 0x69,
  0x61, 0x6c, 0x5f, 0x31, 0x2f, 0x64, 0x65, 0x6e, 0x73, 0x65, 0x5f, 0x31,
  0x5f, 0x32, 0x2f, 0x53, 0x69, 0x67, 0x6d, 0x6f, 0x69, 0x64, 0x00, 0x00,
  0x02, 0x00, 0x00, 0x00, 0x01, 0x00, 0x00, 0x00, 0x10, 0x00, 0x00, 0x00,
  0xf2, 0xfc, 0xff, 0xff, 0x00, 0x00, 0x00, 0x01, 0x14, 0x00, 0x00, 0x00,
  0x1c, 0x00, 0x00, 0x00, 0x1c, 0x00, 0x00, 0x00, 0x0a, 0x00, 0x00, 0x00,
  0x58, 0x00, 0x00, 0x00, 0x02, 0x00, 0x00, 0x00, 0xff, 0xff, 0xff, 0xff,
  0x10, 0x00, 0x00, 0x00, 0xdc, 0xfc, 0xff, 0xff, 0x3c, 0x00, 0x00, 0x00,
  0x73, 0x65, 0x71, 0x75, 0x65, 0x6e, 0x74, 0x69, 0x61, 0x6c, 0x5f, 0x31,
  0x2f, 0x64, 0x65, 0x6e, 0x73, 0x65, 0x5f, 0x31, 0x5f, 0x32, 0x2f, 0x4d,
  0x61, 0x74, 0x4d, 0x75, 0x6c, 0x3b, 0x73, 0x65, 0x71, 0x75, 0x65, 0x6e,
  0x74, 0x69, 0x61, 0x6c, 0x5f, 0x31, 0x2f, 0x64, 0x65, 0x6e, 0x73, 0x65,
  0x5f, 0x31, 0x5f, 0x32, 0x2f, 0x42, 0x69, 0x61, 0x73, 0x41, 0x64, 0x64,
  0x00, 0x00, 0x00, 0x00, 0x02, 0x00, 0x00, 0x00, 0x01, 0x00, 0x00, 0x00,
  0x10, 0x00, 0x00, 0x00, 0x6e, 0xfd, 0xff, 0xff, 0x00, 0x00, 0x00, 0x01,
  0x14, 0x00, 0x00, 0x00, 0x1c, 0x00, 0x00, 0x00, 0x1c, 0x00, 0x00, 0x00,
  0x09, 0x00, 0x00, 0x00, 0x38, 0x00, 0x00, 0x00, 0x02, 0x00, 0x00, 0x00,
  0xff, 0xff, 0xff, 0xff, 0x10, 0x00, 0x00, 0x00, 0x58, 0xfd, 0xff, 0xff,
  0x1c, 0x00, 0x00, 0x00, 0x73, 0x65, 0x71, 0x75, 0x65, 0x6e, 0x74, 0x69,
  0x61, 0x6c, 0x5f, 0x31, 0x2f, 0x64, 0x65, 0x6e, 0x73, 0x65, 0x5f, 0x31,
  0x2f, 0x53, 0x69, 0x67, 0x6d, 0x6f, 0x69, 0x64, 0x00, 0x00, 0x00, 0x00,
  0x02, 0x00, 0x00, 0x00, 0x01, 0x00, 0x00, 0x00, 0x10, 0x00, 0x00, 0x00,
  0xca, 0xfd, 0xff, 0xff, 0x00, 0x00, 0x00, 0x01, 0x14, 0x00, 0x00, 0x00,
  0x1c, 0x00, 0x00, 0x00, 0x1c, 0x00, 0x00, 0x00, 0x08, 0x00, 0x00, 0x00,
  0x54, 0x00, 0x00, 0x00, 0x02, 0x00, 0x00, 0x00, 0xff, 0xff, 0xff, 0xff,
  0x10, 0x00, 0x00, 0x00, 0xb4, 0xfd, 0xff, 0xff, 0x38, 0x00, 0x00, 0x00,
  0x73, 0x65, 0x71, 0x75, 0x65, 0x6e, 0x74, 0x69, 0x61, 0x6c, 0x5f, 0x31,
  0x2f, 0x64, 0x65, 0x6e, 0x73, 0x65, 0x5f, 0x31, 0x2f, 0x4d, 0x61, 0x74,
  0x4d, 0x75, 0x6c, 0x3b, 0x73, 0x65, 0x71, 0x75, 0x65, 0x6e, 0x74, 0x69,
  0x61, 0x6c, 0x5f, 0x31, 0x2f, 0x64, 0x65, 0x6e, 0x73, 0x65, 0x5f, 0x31,
  0x2f, 0x42, 0x69, 0x61, 0x73, 0x41, 0x64, 0x64, 0x00, 0x00, 0x00, 0x00,
  0x02, 0x00, 0x00, 0x00, 0x01, 0x00, 0x00, 0x00, 0x10, 0x00, 0x00, 0x00,
  0x96, 0xfe, 0xff, 0xff, 0x00, 0x00, 0x00, 0x01, 0x10, 0x00, 0x00, 0x00,
  0x10, 0x00, 0x00, 0x00, 0x07, 0x00, 0x00, 0x00, 0x28, 0x00, 0x00, 0x00,
  0x1c, 0xfe, 0xff, 0xff, 0x1b, 0x00, 0x00, 0x00, 0x73, 0x65, 0x71, 0x75,
  0x65, 0x6e, 0x74, 0x69, 0x61, 0x6c, 0x5f, 0x31, 0x2f, 0x64, 0x65, 0x6e,
  0x73, 0x65, 0x5f, 0x31, 0x2f, 0x4d, 0x61, 0x74, 0x4d, 0x75, 0x6c, 0x00,
  0x02, 0x00, 0x00, 0x00, 0x10, 0x00, 0x00, 0x00, 0x01, 0x00, 0x00, 0x00,
  0xde, 0xfe, 0xff, 0xff, 0x00, 0x00, 0x00, 0x01, 0x10, 0x00, 0x00, 0x00,
  0x10, 0x00, 0x00, 0x00, 0x06, 0x00, 0x00, 0x00, 0x38, 0x00, 0x00, 0x00,
  0x64, 0xfe, 0xff, 0xff, 0x2b, 0x00, 0x00, 0x00, 0x73, 0x65, 0x71, 0x75,
  0x65, 0x6e, 0x74, 0x69, 0x61, 0x6c, 0x5f, 0x31, 0x2f, 0x64, 0x65, 0x6e,
  0x73, 0x65, 0x5f, 0x31, 0x2f, 0x42, 0x69, 0x61, 0x73, 0x41, 0x64, 0x64,
  0x2f, 0x52, 0x65, 0x61, 0x64, 0x56, 0x61, 0x72, 0x69, 0x61, 0x62, 0x6c,
  0x65, 0x4f, 0x70, 0x00, 0x01, 0x00, 0x00, 0x00, 0x10, 0x00, 0x00, 0x00,
  0x32, 0xff, 0xff, 0xff, 0x00, 0x00, 0x00, 0x01, 0x10, 0x00, 0x00, 0x00,
  0x10, 0x00, 0x00, 0x00, 0x05, 0x00, 0x00, 0x00, 0x3c, 0x00, 0x00, 0x00,
  0xb8, 0xfe, 0xff, 0xff, 0x2d, 0x00, 0x00, 0x00, 0x73, 0x65, 0x71, 0x75,
  0x65, 0x6e, 0x74, 0x69, 0x61, 0x6c, 0x5f, 0x31, 0x2f, 0x64, 0x65, 0x6e,
  0x73, 0x65, 0x5f, 0x31, 0x5f, 0x32, 0x2f, 0x42, 0x69, 0x61, 0x73, 0x41,
  0x64, 0x64, 0x2f, 0x52, 0x65, 0x61, 0x64, 0x56, 0x61, 0x72, 0x69, 0x61,
  0x62, 0x6c, 0x65, 0x4f, 0x70, 0x00, 0x00, 0x00, 0x01, 0x00, 0x00, 0x00,
  0x10, 0x00, 0x00, 0x00, 0x8a, 0xff, 0xff, 0xff, 0x00, 0x00, 0x00, 0x01,
  0x10, 0x00, 0x00, 0x00, 0x10, 0x00, 0x00, 0x00, 0x04, 0x00, 0x00, 0x00,
  0x1c, 0x00, 0x00, 0x00, 0x10, 0xff, 0xff, 0xff, 0x0f, 0x00, 0x00, 0x00,
  0x61, 0x72, 0x69, 0x74, 0x68, 0x2e, 0x63, 0x6f, 0x6e, 0x73, 0x74, 0x61,
  0x6e, 0x74, 0x32, 0x00, 0x01, 0x00, 0x00, 0x00, 0x01, 0x00, 0x00, 0x00,
  0xc2, 0xff, 0xff, 0xff, 0x00, 0x00, 0x00, 0x01, 0x10, 0x00, 0x00, 0x00,
  0x10, 0x00, 0x00, 0x00, 0x03, 0x00, 0x00, 0x00, 0x1c, 0x00, 0x00, 0x00,
  0x48, 0xff, 0xff, 0xff, 0x0f, 0x00, 0x00, 0x00, 0x61, 0x72, 0x69, 0x74,
  0x68, 0x2e, 0x63, 0x6f, 0x6e, 0x73, 0x74, 0x61, 0x6e, 0x74, 0x31, 0x00,
  0x02, 0x00, 0x00, 0x00, 0x10, 0x00, 0x00, 0x00, 0x10, 0x00, 0x00, 0x00,
  0x00, 0x00, 0x16, 0x00, 0x18, 0x00, 0x14, 0x00, 0x00, 0x00, 0x10, 0x00,
  0x0c, 0x00, 0x08, 0x00, 0x00, 0x00, 0x00, 0x00, 0x00, 0x00, 0x07, 0x00,
  0x16, 0x00, 0x00, 0x00, 0x00, 0x00, 0x00, 0x01, 0x10, 0x00, 0x00, 0x00,
  0x10, 0x00, 0x00, 0x00, 0x02, 0x00, 0x00, 0x00, 0x1c, 0x00, 0x00, 0x00,
  0x9c, 0xff, 0xff, 0xff, 0x0e, 0x00, 0x00, 0x00, 0x61, 0x72, 0x69, 0x74,
  0x68, 0x2e, 0x63, 0x6f, 0x6e, 0x73, 0x74, 0x61, 0x6e, 0x74, 0x00, 0x00,
  0x02, 0x00, 0x00, 0x00, 0x01, 0x00, 0x00, 0x00, 0x10, 0x00, 0x00, 0x00,
  0x00, 0x00, 0x16, 0x00, 0x1c, 0x00, 0x18, 0x00, 0x00, 0x00, 0x14, 0x00,
  0x10, 0x00, 0x0c, 0x00, 0x00, 0x00, 0x00, 0x00, 0x08, 0x00, 0x07, 0x00,
  0x16, 0x00, 0x00, 0x00, 0x00, 0x00, 0x00, 0x01, 0x14, 0x00, 0x00, 0x00,
  0x20, 0x00, 0x00, 0x00, 0x20, 0x00, 0x00, 0x00, 0x01, 0x00, 0x00, 0x00,
  0x3c, 0x00, 0x00, 0x00, 0x02, 0x00, 0x00, 0x00, 0xff, 0xff, 0xff, 0xff,
  0x01, 0x00, 0x00, 0x00, 0x04, 0x00, 0x04, 0x00, 0x04, 0x00, 0x00, 0x00,
  0x1e, 0x00, 0x00, 0x00, 0x73, 0x65, 0x72, 0x76, 0x69, 0x6e, 0x67, 0x5f,
  0x64, 0x65, 0x66, 0x61, 0x75, 0x6c, 0x74, 0x5f, 0x6b, 0x65, 0x72, 0x61,
  0x73, 0x5f, 0x74, 0x65, 0x6e, 0x73, 0x6f, 0x72, 0x3a, 0x30, 0x00, 0x00,
  0x02, 0x00, 0x00, 0x00, 0x01, 0x00, 0x00, 0x00, 0x01, 0x00, 0x00, 0x00,
  0x02, 0x00, 0x00, 0x00, 0x20, 0x00, 0x00, 0x00, 0x04, 0x00, 0x00, 0x00,
  0xf4, 0xff, 0xff, 0xff, 0x0e, 0x00, 0x00, 0x00, 0x00, 0x00, 0x00, 0x0e,
  0x0c, 0x00, 0x0c, 0x00, 0x0b, 0x00, 0x00, 0x00, 0x00, 0x00, 0x04, 0x00,
  0x0c, 0x00, 0x00, 0x00, 0x09, 0x00, 0x00, 0x00, 0x00, 0x00, 0x00, 0x09
 
};

#endif //SINE_MODEL_H