#ifndef MODEL_H
#define MODEL_H


unsigned int model_len = 3396;
unsigned char model[] = {
 0x1c, 0x00, 0x00, 0x00, 0x54, 0x46, 0x4c, 0x33, 0x14, 0x00, 0x20, 0x00,
  0x1c, 0x00, 0x18, 0x00, 0x14, 0x00, 0x10, 0x00, 0x0c, 0x00, 0x00, 0x00,
  0x08, 0x00, 0x04, 0x00, 0x14, 0x00, 0x00, 0x00, 0x1c, 0x00, 0x00, 0x00,
  0x8c, 0x00, 0x00, 0x00, 0xe4, 0x00, 0x00, 0x00, 0x18, 0x07, 0x00, 0x00,
  0x28, 0x07, 0x00, 0x00, 0xe0, 0x0c, 0x00, 0x00, 0x03, 0x00, 0x00, 0x00,
  0x01, 0x00, 0x00, 0x00, 0x04, 0x00, 0x00, 0x00, 0x16, 0xf8, 0xff, 0xff,
  0x0c, 0x00, 0x00, 0x00, 0x1c, 0x00, 0x00, 0x00, 0x3c, 0x00, 0x00, 0x00,
  0x0f, 0x00, 0x00, 0x00, 0x73, 0x65, 0x72, 0x76, 0x69, 0x6e, 0x67, 0x5f,
  0x64, 0x65, 0x66, 0x61, 0x75, 0x6c, 0x74, 0x00, 0x01, 0x00, 0x00, 0x00,
  0x04, 0x00, 0x00, 0x00, 0x90, 0xff, 0xff, 0xff, 0x0b, 0x00, 0x00, 0x00,
  0x04, 0x00, 0x00, 0x00, 0x08, 0x00, 0x00, 0x00, 0x6f, 0x75, 0x74, 0x70,
  0x75, 0x74, 0x5f, 0x30, 0x00, 0x00, 0x00, 0x00, 0x01, 0x00, 0x00, 0x00,
  0x04, 0x00, 0x00, 0x00, 0xaa, 0xf9, 0xff, 0xff, 0x04, 0x00, 0x00, 0x00,
  0x0e, 0x00, 0x00, 0x00, 0x6b, 0x65, 0x72, 0x61, 0x73, 0x5f, 0x74, 0x65,
  0x6e, 0x73, 0x6f, 0x72, 0x5f, 0x34, 0x00, 0x00, 0x02, 0x00, 0x00, 0x00,
  0x34, 0x00, 0x00, 0x00, 0x04, 0x00, 0x00, 0x00, 0xdc, 0xff, 0xff, 0xff,
  0x0e, 0x00, 0x00, 0x00, 0x04, 0x00, 0x00, 0x00, 0x13, 0x00, 0x00, 0x00,
  0x43, 0x4f, 0x4e, 0x56, 0x45, 0x52, 0x53, 0x49, 0x4f, 0x4e, 0x5f, 0x4d,
  0x45, 0x54, 0x41, 0x44, 0x41, 0x54, 0x41, 0x00, 0x08, 0x00, 0x0c, 0x00,
  0x08, 0x00, 0x04, 0x00, 0x08, 0x00, 0x00, 0x00, 0x0d, 0x00, 0x00, 0x00,
  0x04, 0x00, 0x00, 0x00, 0x13, 0x00, 0x00, 0x00, 0x6d, 0x69, 0x6e, 0x5f,
  0x72, 0x75, 0x6e, 0x74, 0x69, 0x6d, 0x65, 0x5f, 0x76, 0x65, 0x72, 0x73,
  0x69, 0x6f, 0x6e, 0x00, 0x0f, 0x00, 0x00, 0x00, 0x30, 0x06, 0x00, 0x00,
  0x28, 0x06, 0x00, 0x00, 0xd8, 0x05, 0x00, 0x00, 0xc0, 0x01, 0x00, 0x00,
  0xac, 0x01, 0x00, 0x00, 0x5c, 0x01, 0x00, 0x00, 0x0c, 0x01, 0x00, 0x00,
  0xbc, 0x00, 0x00, 0x00, 0xb4, 0x00, 0x00, 0x00, 0xac, 0x00, 0x00, 0x00,
  0xa4, 0x00, 0x00, 0x00, 0x9c, 0x00, 0x00, 0x00, 0x94, 0x00, 0x00, 0x00,
  0x74, 0x00, 0x00, 0x00, 0x04, 0x00, 0x00, 0x00, 0x62, 0xfa, 0xff, 0xff,
  0x04, 0x00, 0x00, 0x00, 0x60, 0x00, 0x00, 0x00, 0x0c, 0x00, 0x00, 0x00,
  0x08, 0x00, 0x0e, 0x00, 0x08, 0x00, 0x04, 0x00, 0x08, 0x00, 0x00, 0x00,
  0x10, 0x00, 0x00, 0x00, 0x28, 0x00, 0x00, 0x00, 0x00, 0x00, 0x06, 0x00,
  0x08, 0x00, 0x04, 0x00, 0x06, 0x00, 0x00, 0x00, 0x04, 0x00, 0x00, 0x00,
  0x01, 0x00, 0x00, 0x00, 0xea, 0x03, 0x00, 0x00, 0x0c, 0x00, 0x18, 0x00,
  0x14, 0x00, 0x10, 0x00, 0x0c, 0x00, 0x04, 0x00, 0x0c, 0x00, 0x00, 0x00,
  0x48, 0x0f, 0x67, 0x69, 0x7f, 0x52, 0x02, 0xc4, 0x02, 0x00, 0x00, 0x00,
  0x02, 0x00, 0x00, 0x00, 0x04, 0x00, 0x00, 0x00, 0x06, 0x00, 0x00, 0x00,
  0x32, 0x2e, 0x31, 0x38, 0x2e, 0x30, 0x00, 0x00, 0xce, 0xfa, 0xff, 0xff,
  0x04, 0x00, 0x00, 0x00, 0x10, 0x00, 0x00, 0x00, 0x31, 0x2e, 0x31, 0x34,
  0x2e, 0x30, 0x00, 0x00, 0x00, 0x00, 0x00, 0x00, 0x00, 0x00, 0x00, 0x00,
  0xfc, 0xf4, 0xff, 0xff, 0x00, 0xf5, 0xff, 0xff, 0x04, 0xf5, 0xff, 0xff,
  0x08, 0xf5, 0xff, 0xff, 0x0c, 0xf5, 0xff, 0xff, 0xfe, 0xfa, 0xff, 0xff,
  0x04, 0x00, 0x00, 0x00, 0x40, 0x00, 0x00, 0x00, 0xe3, 0xd4, 0x89, 0xbf,
  0xd0, 0xe6, 0x8e, 0xbf, 0x03, 0x9b, 0x82, 0xbf, 0x23, 0xc1, 0xbd, 0x3e,
  0x21, 0x4c, 0x8c, 0x3f, 0x07, 0xec, 0xcf, 0xbe, 0xf5, 0xac, 0x85, 0xbf,
  0xad, 0x6b, 0x82, 0xbf, 0xbf, 0x94, 0x98, 0x3f, 0x5d, 0x4e, 0xce, 0x3e,
  0x7d, 0x2e, 0x91, 0xbf, 0x77, 0xc9, 0x88, 0x3f, 0x01, 0x96, 0xca, 0xbe,
  0x8c, 0x90, 0xba, 0xbe, 0x42, 0x62, 0xb5, 0xbe, 0xb8, 0x8f, 0xcf, 0x3e,
  0x4a, 0xfb, 0xff, 0xff, 0x04, 0x00, 0x00, 0x00, 0x40, 0x00, 0x00, 0x00,
  0xdb, 0x75, 0x69, 0x3f, 0x08, 0x23, 0x90, 0x3f, 0x21, 0x9e, 0x38, 0x3f,
  0x5a, 0xb1, 0x3e, 0xbf, 0xae, 0x9e, 0x7c, 0xbf, 0x72, 0x73, 0x68, 0x3f,
  0x5c, 0x89, 0x4f, 0x3f, 0xda, 0xd8, 0x41, 0x3f, 0x4e, 0x18, 0xb9, 0xbf,
  0x5a, 0x21, 0x65, 0xbf, 0xcf, 0x97, 0xa1, 0x3f, 0xae, 0xd0, 0x81, 0xbf,
  0xb8, 0x6d, 0x50, 0x3f, 0x33, 0xfb, 0x11, 0x3f, 0x21, 0x34, 0xfa, 0x3e,
  0x62, 0x42, 0x71, 0xbf, 0x96, 0xfb, 0xff, 0xff, 0x04, 0x00, 0x00, 0x00,
  0x40, 0x00, 0x00, 0x00, 0x82, 0x37, 0x20, 0x3e, 0xd3, 0xfa, 0x42, 0x3d,
  0x00, 0x9d, 0xf9, 0xbb, 0xb8, 0x7b, 0xe4, 0x3d, 0x0e, 0x86, 0x64, 0xbd,
  0xc0, 0xf9, 0x5b, 0x3b, 0x4d, 0x4a, 0xcc, 0x3c, 0xe0, 0xdd, 0xa0, 0xbd,
  0xf4, 0xc2, 0x52, 0x3d, 0x4a, 0x7c, 0xbc, 0x3d, 0x31, 0x4a, 0x30, 0x3e,
  0x55, 0x2c, 0x19, 0xbe, 0x06, 0x48, 0xac, 0xbc, 0x90, 0x18, 0x4d, 0xbd,
  0xc3, 0xf5, 0xf8, 0xbd, 0xb1, 0x61, 0xe4, 0x3d, 0xe2, 0xfb, 0xff, 0xff,
  0x04, 0x00, 0x00, 0x00, 0x04, 0x00, 0x00, 0x00, 0x5e, 0x9b, 0x4e, 0x3c,
  0xf2, 0xfb, 0xff, 0xff, 0x04, 0x00, 0x00, 0x00, 0x00, 0x04, 0x00, 0x00,
  0xc8, 0xdd, 0xd6, 0x3f, 0x80, 0xd2, 0xba, 0x3f, 0xfe, 0xcc, 0xbe, 0x3f,
  0x5c, 0x93, 0x98, 0x3e, 0x6d, 0x4b, 0x04, 0xbe, 0x46, 0x46, 0x66, 0xbf,
  0x9f, 0x04, 0xa5, 0x3f, 0xcc, 0xde, 0xca, 0x3f, 0x53, 0xa7, 0x10, 0xbf,
  0xfd, 0x06, 0x29, 0x3e, 0x69, 0x0a, 0x01, 0x40, 0x1f, 0x8c, 0x58, 0xbc,
  0x65, 0x9f, 0x05, 0xbf, 0x87, 0xa0, 0xa3, 0xbe, 0x9b, 0xca, 0xfa, 0xbe,
  0xcf, 0x49, 0x51, 0x3f, 0xc8, 0x5d, 0x6e, 0xbe, 0xae, 0x4b, 0x5f, 0xbf,
  0x6c, 0x76, 0x9c, 0xbe, 0x65, 0xd9, 0x1b, 0xbf, 0xd2, 0x06, 0x75, 0xbe,
  0xe8, 0x9e, 0x96, 0x3f, 0x88, 0x4e, 0xb3, 0xbe, 0xdd, 0x5c, 0xcf, 0x3e,
  0x30, 0x3c, 0x07, 0x3f, 0xd9, 0x90, 0x54, 0xbf, 0x0f, 0xde, 0x34, 0xbe,
  0x06, 0x7f, 0xb8, 0xbd, 0xfd, 0xd8, 0x4b, 0x3f, 0x87, 0x41, 0x3f, 0x3f,
  0x16, 0x4c, 0x2f, 0x3f, 0x83, 0xa2, 0x61, 0xbe, 0x7b, 0xc9, 0xb1, 0xbe,
  0xd7, 0x50, 0x26, 0xbe, 0x8c, 0x68, 0x91, 0xbe, 0x48, 0x59, 0xf8, 0xbe,
  0xd4, 0x83, 0x0d, 0x3e, 0x89, 0x83, 0x97, 0x3f, 0x5a, 0xee, 0x12, 0xbe,
  0xfd, 0xaa, 0x3e, 0x3e, 0xa7, 0x41, 0xc9, 0x3e, 0xc4, 0x59, 0x65, 0xbf,
  0x05, 0xf2, 0x6c, 0xbe, 0x53, 0xb5, 0x55, 0xbd, 0x97, 0xf6, 0xae, 0x3f,
  0x34, 0xca, 0x5a, 0x3f, 0x4b, 0xac, 0x67, 0x3f, 0xed, 0xbf, 0x6d, 0xbf,
  0x54, 0x16, 0xbb, 0x3e, 0x21, 0x84, 0x89, 0x3e, 0x31, 0x82, 0x22, 0xbe,
  0x23, 0xe5, 0x8d, 0x3e, 0xd3, 0x2a, 0x99, 0xbe, 0x04, 0xf1, 0x08, 0xbf,
  0x3c, 0x1c, 0x98, 0x3d, 0x0e, 0x12, 0x03, 0x3f, 0x31, 0xfb, 0x53, 0xbd,
  0xe3, 0xfe, 0x2c, 0x3f, 0xbe, 0x57, 0x46, 0x3f, 0x16, 0x91, 0x37, 0xbe,
  0xbf, 0x1a, 0x59, 0xbf, 0xa2, 0x20, 0x30, 0xbf, 0xf2, 0x46, 0x80, 0xbe,
  0x0a, 0x4b, 0xe9, 0x3e, 0xed, 0x2e, 0xc1, 0x3d, 0x11, 0x7c, 0x1e, 0x3f,
  0x3d, 0x60, 0x7c, 0xbe, 0x7a, 0xa9, 0x57, 0x3d, 0xf5, 0xd4, 0x63, 0x3e,
  0x0d, 0x95, 0x38, 0xbf, 0x6a, 0x73, 0x16, 0x3e, 0xac, 0x4b, 0xc0, 0x3d,
  0x92, 0x41, 0x22, 0x3e, 0x68, 0xe5, 0x04, 0x3e, 0xab, 0xd0, 0x19, 0x3f,
  0x64, 0x8e, 0x4b, 0xbd, 0xb4, 0xb1, 0x85, 0xbf, 0x43, 0xe6, 0x07, 0xbf,
  0xcf, 0xd5, 0x9f, 0xbf, 0x3e, 0xa8, 0x19, 0x3f, 0x37, 0x7e, 0x03, 0xbf,
  0xa2, 0x62, 0xef, 0x3c, 0x7d, 0xe3, 0x1a, 0xbe, 0xc7, 0x3e, 0x2c, 0xbf,
  0xba, 0x7d, 0xb9, 0x3d, 0xc0, 0xa2, 0xad, 0x3f, 0xbc, 0x00, 0x01, 0x3e,
  0xa1, 0x11, 0x11, 0x3e, 0xac, 0x81, 0x12, 0x3f, 0x04, 0x5b, 0xd7, 0xbe,
  0x45, 0x49, 0x6b, 0xbd, 0x7a, 0xa6, 0xdc, 0xbd, 0x00, 0xa3, 0x27, 0x3f,
  0x2a, 0x26, 0x2c, 0x3f, 0xf8, 0x41, 0x63, 0x3f, 0xb9, 0xcd, 0x79, 0xbf,
  0x24, 0xb6, 0x2e, 0x3e, 0x91, 0xe4, 0x5c, 0x3f, 0xaa, 0xd1, 0xc1, 0xbe,
  0xc7, 0xdb, 0x62, 0x3f, 0x4e, 0x25, 0xe6, 0xbe, 0x61, 0x73, 0x79, 0xbf,
  0xa7, 0x55, 0xe2, 0xbd, 0xd3, 0xaf, 0x5f, 0xbe, 0x90, 0x4f, 0x82, 0xbe,
  0x68, 0x29, 0xdf, 0x3e, 0xd7, 0x4a, 0x6e, 0x3e, 0xcc, 0x2f, 0x82, 0xbe,
  0x86, 0x1d, 0x61, 0xbf, 0x50, 0xe2, 0xbe, 0xbe, 0x4c, 0xf3, 0x19, 0xbf,
  0xea, 0xb1, 0x80, 0x3f, 0x46, 0xc4, 0x92, 0xbf, 0x72, 0xa7, 0x23, 0xbf,
  0xb3, 0x11, 0x22, 0xbf, 0x5c, 0x35, 0x50, 0xbf, 0x9b, 0x1b, 0x8c, 0xbb,
  0x19, 0x08, 0x88, 0x3f, 0x64, 0xd2, 0x82, 0xbf, 0xb6, 0x29, 0xa0, 0xbe,
  0x3c, 0x04, 0x02, 0x3f, 0xd2, 0x13, 0x0a, 0xbf, 0x02, 0xf3, 0x5c, 0xbf,
  0x27, 0xb7, 0xc3, 0x3e, 0x16, 0xea, 0xd7, 0x3e, 0x04, 0x50, 0x82, 0x3e,
  0x9d, 0x32, 0x05, 0x3f, 0x0d, 0xec, 0x7f, 0xbf, 0xc4, 0x20, 0x0c, 0xbe,
  0xcc, 0xaa, 0x26, 0xbf, 0x33, 0x57, 0xaa, 0xbe, 0xab, 0xb6, 0x05, 0xbf,
  0x21, 0x6c, 0x8c, 0xbd, 0xc4, 0x6d, 0x80, 0x3f, 0x10, 0xba, 0x2e, 0x3e,
  0xc9, 0xd3, 0xcd, 0x3d, 0xf5, 0x9e, 0x03, 0xbe, 0x55, 0x5e, 0x25, 0xbe,
  0xdd, 0xd2, 0x82, 0xbf, 0xc1, 0xc6, 0x36, 0xbc, 0x7a, 0x90, 0x0a, 0x3f,
  0xe8, 0xfe, 0x90, 0x3e, 0x01, 0xe8, 0xcf, 0x3e, 0x96, 0x57, 0x89, 0xbe,
  0x2d, 0x10, 0x96, 0x3f, 0x4e, 0xf9, 0xc5, 0x3f, 0xef, 0xb5, 0x88, 0x3f,
  0xad, 0xc5, 0x5c, 0x3f, 0x4f, 0x74, 0x85, 0x3e, 0x50, 0xd8, 0xaf, 0xbe,
  0xc9, 0x39, 0xaa, 0x3f, 0xfa, 0x25, 0x6b, 0x3f, 0xfa, 0x00, 0x03, 0xbf,
  0x90, 0x81, 0x0e, 0x3e, 0xd0, 0x19, 0xab, 0x3f, 0x26, 0x26, 0x99, 0xbe,
  0xa1, 0xa3, 0x85, 0xbf, 0xc8, 0xd7, 0x3c, 0xbf, 0x4c, 0xbe, 0xae, 0xbe,
  0x61, 0x1c, 0x2d, 0x3f, 0xb2, 0x02, 0x11, 0x3f, 0x2d, 0xd0, 0x6b, 0x3f,
  0x4c, 0x41, 0x8c, 0x3e, 0x72, 0x02, 0x87, 0x3f, 0x44, 0x7d, 0x99, 0xbe,
  0xd3, 0xcd, 0xab, 0xbe, 0xdb, 0x86, 0x03, 0x3e, 0x94, 0xc1, 0x86, 0x3e,
  0x18, 0x04, 0xe6, 0xbe, 0xb5, 0xd2, 0x42, 0x3f, 0xa0, 0xf4, 0xd7, 0x3e,
  0x71, 0xa9, 0x59, 0xbe, 0x10, 0x3b, 0x6b, 0xbf, 0xca, 0x21, 0x30, 0xbf,
  0xe4, 0x5a, 0x2e, 0xbf, 0xa7, 0xb2, 0xe5, 0x3e, 0x2b, 0x3d, 0xcf, 0xbf,
  0x85, 0xa0, 0x1c, 0xc0, 0x81, 0x80, 0xe2, 0xbf, 0xa0, 0xdd, 0x1c, 0xbf,
  0x0d, 0xb5, 0xf7, 0x3e, 0x90, 0xcb, 0x29, 0x3f, 0xde, 0x83, 0x0a, 0xc0,
  0x58, 0x4f, 0xc2, 0xbf, 0xbe, 0x2f, 0xc2, 0x3d, 0xff, 0x4b, 0xbb, 0xbe,
  0x3c, 0xf6, 0x1c, 0xc0, 0xf5, 0x0a, 0x13, 0x3f, 0xee, 0x08, 0x12, 0x3f,
  0x0e, 0x21, 0x01, 0x3f, 0x8e, 0x30, 0x04, 0x3f, 0x12, 0x4d, 0x10, 0xbf,
  0x99, 0x05, 0x51, 0xbc, 0xf7, 0x1c, 0x65, 0x3f, 0xcf, 0x89, 0x36, 0x3e,
  0x04, 0xbf, 0xaf, 0x3e, 0x35, 0xf3, 0x6c, 0xbe, 0xba, 0xfe, 0x8e, 0xbf,
  0x34, 0x56, 0x1d, 0x3f, 0x85, 0x32, 0x1a, 0x3e, 0xb0, 0xe0, 0xad, 0xbc,
  0x82, 0xad, 0x63, 0x3f, 0x83, 0x99, 0x07, 0x3f, 0xc0, 0x04, 0x39, 0xbd,
  0x3e, 0x86, 0x09, 0xbf, 0xbc, 0xce, 0x61, 0xbf, 0x89, 0xa5, 0x23, 0xbf,
  0x4d, 0x10, 0xfb, 0x3e, 0x31, 0x75, 0xf0, 0xbe, 0x83, 0x28, 0x37, 0xbf,
  0xf2, 0x38, 0xcf, 0x3e, 0x53, 0xd5, 0x6e, 0xbe, 0xa2, 0x31, 0xf3, 0x3e,
  0x30, 0x2d, 0x6a, 0x3f, 0xd4, 0x8f, 0x12, 0xbe, 0x75, 0x0f, 0xfc, 0xbd,
  0x72, 0x3f, 0x4e, 0xbe, 0xf5, 0xf5, 0x5f, 0xbf, 0xd9, 0x3e, 0x3c, 0xbf,
  0x80, 0x17, 0xee, 0x3d, 0xff, 0x88, 0x8e, 0x3f, 0x73, 0xfd, 0x88, 0x3f,
  0xa3, 0xf7, 0x80, 0x3f, 0x26, 0xb5, 0x79, 0xbf, 0xf8, 0xcd, 0x2f, 0xbf,
  0xfb, 0x83, 0x9b, 0xbf, 0x14, 0x46, 0xfc, 0xbe, 0xd7, 0x43, 0x80, 0xbf,
  0x31, 0xce, 0xb7, 0x3e, 0xcb, 0x24, 0x62, 0x3f, 0x49, 0x36, 0x33, 0xbf,
  0xd4, 0xca, 0x02, 0xbf, 0xb2, 0x72, 0x4c, 0x3d, 0x5a, 0xe8, 0x5f, 0xbf,
  0x26, 0x99, 0x30, 0xbf, 0xe9, 0x52, 0x80, 0x3e, 0xbf, 0xd1, 0x5f, 0x3f,
  0xba, 0x3f, 0x1b, 0x3f, 0xf0, 0xb8, 0x31, 0x3f, 0xa9, 0x83, 0xc5, 0xbe,
  0x72, 0x58, 0x96, 0x3f, 0xec, 0xed, 0xa6, 0x3f, 0xb9, 0xc4, 0x3a, 0x3f,
  0xaa, 0xdd, 0x44, 0x3f, 0xc3, 0x15, 0x91, 0xbd, 0x0e, 0x7a, 0x67, 0xbf,
  0x19, 0xa5, 0x8a, 0x3f, 0x0b, 0x05, 0x97, 0x3f, 0xa1, 0x3a, 0xca, 0xbe,
  0xa8, 0x72, 0x17, 0x3f, 0x80, 0xc1, 0xe0, 0x3f, 0xfb, 0x32, 0x70, 0xbe,
  0x81, 0x5a, 0xbe, 0xbe, 0x27, 0xd3, 0x09, 0xbf, 0xc3, 0x4d, 0x0b, 0xbf,
  0x1f, 0x1f, 0xe9, 0x3e, 0x00, 0x00, 0x06, 0x00, 0x08, 0x00, 0x04, 0x00,
  0x06, 0x00, 0x00, 0x00, 0x04, 0x00, 0x00, 0x00, 0x40, 0x00, 0x00, 0x00,
  0xc9, 0x59, 0x4f, 0x3f, 0x12, 0x7c, 0x0f, 0xbf, 0x8e, 0x4a, 0x84, 0xbf,
  0x25, 0x9e, 0xb9, 0x3e, 0x93, 0x7b, 0xe4, 0x3e, 0xb4, 0x7c, 0xf7, 0xbe,
  0xcc, 0xcf, 0x43, 0x3f, 0xd0, 0x4f, 0x89, 0xbf, 0xce, 0xc4, 0x17, 0xbf,
  0xb3, 0x36, 0x4e, 0x3f, 0xa2, 0xf8, 0x8e, 0x3f, 0x9b, 0xd0, 0x90, 0xbf,
  0x68, 0xe0, 0x5d, 0x3f, 0x2f, 0x8f, 0x79, 0xbf, 0x6b, 0xd0, 0x69, 0xbf,
  0x71, 0xae, 0x10, 0x3f, 0x64, 0xfa, 0xff, 0xff, 0x68, 0xfa, 0xff, 0xff,
  0x0f, 0x00, 0x00, 0x00, 0x4d, 0x4c, 0x49, 0x52, 0x20, 0x43, 0x6f, 0x6e,
  0x76, 0x65, 0x72, 0x74, 0x65, 0x64, 0x2e, 0x00, 0x01, 0x00, 0x00, 0x00,
  0x14, 0x00, 0x00, 0x00, 0x00, 0x00, 0x0e, 0x00, 0x18, 0x00, 0x14, 0x00,
  0x10, 0x00, 0x0c, 0x00, 0x08, 0x00, 0x04, 0x00, 0x0e, 0x00, 0x00, 0x00,
  0x14, 0x00, 0x00, 0x00, 0x1c, 0x00, 0x00, 0x00, 0x1c, 0x01, 0x00, 0x00,
  0x20, 0x01, 0x00, 0x00, 0x24, 0x01, 0x00, 0x00, 0x04, 0x00, 0x00, 0x00,
  0x6d, 0x61, 0x69, 0x6e, 0x00, 0x00, 0x00, 0x00, 0x05, 0x00, 0x00, 0x00,
  0xd0, 0x00, 0x00, 0x00, 0x9c, 0x00, 0x00, 0x00, 0x5c, 0x00, 0x00, 0x00,
  0x38, 0x00, 0x00, 0x00, 0x04, 0x00, 0x00, 0x00, 0x52, 0xff, 0xff, 0xff,
  0x10, 0x00, 0x00, 0x00, 0x00, 0x00, 0x00, 0x08, 0x0c, 0x00, 0x00, 0x00,
  0x10, 0x00, 0x00, 0x00, 0xe8, 0xfa, 0xff, 0xff, 0x01, 0x00, 0x00, 0x00,
  0x0b, 0x00, 0x00, 0x00, 0x03, 0x00, 0x00, 0x00, 0x0a, 0x00, 0x00, 0x00,
  0x01, 0x00, 0x00, 0x00, 0x03, 0x00, 0x00, 0x00, 0xae, 0xff, 0xff, 0xff,
  0x0c, 0x00, 0x00, 0x00, 0x10, 0x00, 0x00, 0x00, 0x01, 0x00, 0x00, 0x00,
  0x01, 0x00, 0x00, 0x00, 0x0a, 0x00, 0x00, 0x00, 0x01, 0x00, 0x00, 0x00,
  0x09, 0x00, 0x00, 0x00, 0xa2, 0xff, 0xff, 0xff, 0x10, 0x00, 0x00, 0x00,
  0x00, 0x00, 0x00, 0x08, 0x0c, 0x00, 0x00, 0x00, 0x10, 0x00, 0x00, 0x00,
  0x38, 0xfb, 0xff, 0xff, 0x01, 0x00, 0x00, 0x00, 0x09, 0x00, 0x00, 0x00,
  0x03, 0x00, 0x00, 0x00, 0x08, 0x00, 0x00, 0x00, 0x02, 0x00, 0x00, 0x00,
  0x04, 0x00, 0x00, 0x00, 0x00, 0x00, 0x0a, 0x00, 0x10, 0x00, 0x0c, 0x00,
  0x08, 0x00, 0x04, 0x00, 0x0a, 0x00, 0x00, 0x00, 0x0c, 0x00, 0x00, 0x00,
  0x10, 0x00, 0x00, 0x00, 0x01, 0x00, 0x00, 0x00, 0x01, 0x00, 0x00, 0x00,
  0x08, 0x00, 0x00, 0x00, 0x01, 0x00, 0x00, 0x00, 0x07, 0x00, 0x00, 0x00,
  0x00, 0x00, 0x0e, 0x00, 0x14, 0x00, 0x00, 0x00, 0x10, 0x00, 0x0c, 0x00,
  0x0b, 0x00, 0x04, 0x00, 0x0e, 0x00, 0x00, 0x00, 0x10, 0x00, 0x00, 0x00,
  0x00, 0x00, 0x00, 0x08, 0x0c, 0x00, 0x00, 0x00, 0x10, 0x00, 0x00, 0x00,
  0xa4, 0xfb, 0xff, 0xff, 0x01, 0x00, 0x00, 0x00, 0x07, 0x00, 0x00, 0x00,
  0x03, 0x00, 0x00, 0x00, 0x00, 0x00, 0x00, 0x00, 0x06, 0x00, 0x00, 0x00,
  0x05, 0x00, 0x00, 0x00, 0x01, 0x00, 0x00, 0x00, 0x0b, 0x00, 0x00, 0x00,
  0x01, 0x00, 0x00, 0x00, 0x00, 0x00, 0x00, 0x00, 0x0c, 0x00, 0x00, 0x00,
  0x04, 0x04, 0x00, 0x00, 0xac, 0x03, 0x00, 0x00, 0x54, 0x03, 0x00, 0x00,
  0x18, 0x03, 0x00, 0x00, 0xdc, 0x02, 0x00, 0x00, 0x80, 0x02, 0x00, 0x00,
  0x30, 0x02, 0x00, 0x00, 0xac, 0x01, 0x00, 0x00, 0x48, 0x01, 0x00, 0x00,
  0xc4, 0x00, 0x00, 0x00, 0x60, 0x00, 0x00, 0x00, 0x04, 0x00, 0x00, 0x00,
  0x42, 0xfc, 0xff, 0xff, 0x00, 0x00, 0x00, 0x01, 0x14, 0x00, 0x00, 0x00,
  0x1c, 0x00, 0x00, 0x00, 0x1c, 0x00, 0x00, 0x00, 0x0c, 0x00, 0x00, 0x00,
  0x34, 0x00, 0x00, 0x00, 0x02, 0x00, 0x00, 0x00, 0xff, 0xff, 0xff, 0xff,
  0x01, 0x00, 0x00, 0x00, 0x2c, 0xfc, 0xff, 0xff, 0x1b, 0x00, 0x00, 0x00,
  0x53, 0x74, 0x61, 0x74, 0x65, 0x66, 0x75, 0x6c, 0x50, 0x61, 0x72, 0x74,
  0x69, 0x74, 0x69, 0x6f, 0x6e, 0x65, 0x64, 0x43, 0x61, 0x6c, 0x6c, 0x5f,
  0x31, 0x3a, 0x30, 0x00, 0x02, 0x00, 0x00, 0x00, 0x01, 0x00, 0x00, 0x00,
  0x01, 0x00, 0x00, 0x00, 0x9a, 0xfc, 0xff, 0xff, 0x00, 0x00, 0x00, 0x01,
  0x14, 0x00, 0x00, 0x00, 0x1c, 0x00, 0x00, 0x00, 0x1c, 0x00, 0x00, 0x00,
  0x0b, 0x00, 0x00, 0x00, 0x3c, 0x00, 0x00, 0x00, 0x02, 0x00, 0x00, 0x00,
  0xff, 0xff, 0xff, 0xff, 0x10, 0x00, 0x00, 0x00, 0x84, 0xfc, 0xff, 0xff,
  0x20, 0x00, 0x00, 0x00, 0x73, 0x65, 0x71, 0x75, 0x65, 0x6e, 0x74, 0x69,
  0x61, 0x6c, 0x5f, 0x31, 0x5f, 0x31, 0x2f, 0x64, 0x65, 0x6e, 0x73, 0x65,
  0x5f, 0x34, 0x5f, 0x31, 0x2f, 0x53, 0x69, 0x67, 0x6d, 0x6f, 0x69, 0x64,
  0x00, 0x00, 0x00, 0x00, 0x02, 0x00, 0x00, 0x00, 0x01, 0x00, 0x00, 0x00,
  0x10, 0x00, 0x00, 0x00, 0xfa, 0xfc, 0xff, 0xff, 0x00, 0x00, 0x00, 0x01,
  0x14, 0x00, 0x00, 0x00, 0x1c, 0x00, 0x00, 0x00, 0x1c, 0x00, 0x00, 0x00,
  0x0a, 0x00, 0x00, 0x00, 0x5c, 0x00, 0x00, 0x00, 0x02, 0x00, 0x00, 0x00,
  0xff, 0xff, 0xff, 0xff, 0x10, 0x00, 0x00, 0x00, 0xe4, 0xfc, 0xff, 0xff,
  0x40, 0x00, 0x00, 0x00, 0x73, 0x65, 0x71, 0x75, 0x65, 0x6e, 0x74, 0x69,
  0x61, 0x6c, 0x5f, 0x31, 0x5f, 0x31, 0x2f, 0x64, 0x65, 0x6e, 0x73, 0x65,
  0x5f, 0x34, 0x5f, 0x31, 0x2f, 0x4d, 0x61, 0x74, 0x4d, 0x75, 0x6c, 0x3b,
  0x73, 0x65, 0x71, 0x75, 0x65, 0x6e, 0x74, 0x69, 0x61, 0x6c, 0x5f, 0x31,
  0x5f, 0x31, 0x2f, 0x64, 0x65, 0x6e, 0x73, 0x65, 0x5f, 0x34, 0x5f, 0x31,
  0x2f, 0x42, 0x69, 0x61, 0x73, 0x41, 0x64, 0x64, 0x00, 0x00, 0x00, 0x00,
  0x02, 0x00, 0x00, 0x00, 0x01, 0x00, 0x00, 0x00, 0x10, 0x00, 0x00, 0x00,
  0x7a, 0xfd, 0xff, 0xff, 0x00, 0x00, 0x00, 0x01, 0x14, 0x00, 0x00, 0x00,
  0x1c, 0x00, 0x00, 0x00, 0x1c, 0x00, 0x00, 0x00, 0x09, 0x00, 0x00, 0x00,
  0x3c, 0x00, 0x00, 0x00, 0x02, 0x00, 0x00, 0x00, 0xff, 0xff, 0xff, 0xff,
  0x10, 0x00, 0x00, 0x00, 0x64, 0xfd, 0xff, 0xff, 0x20, 0x00, 0x00, 0x00,
  0x73, 0x65, 0x71, 0x75, 0x65, 0x6e, 0x74, 0x69, 0x61, 0x6c, 0x5f, 0x31,
  0x5f, 0x31, 0x2f, 0x64, 0x65, 0x6e, 0x73, 0x65, 0x5f, 0x33, 0x5f, 0x31,
  0x2f, 0x53, 0x69, 0x67, 0x6d, 0x6f, 0x69, 0x64, 0x00, 0x00, 0x00, 0x00,
  0x02, 0x00, 0x00, 0x00, 0x01, 0x00, 0x00, 0x00, 0x10, 0x00, 0x00, 0x00,
  0xda, 0xfd, 0xff, 0xff, 0x00, 0x00, 0x00, 0x01, 0x14, 0x00, 0x00, 0x00,
  0x1c, 0x00, 0x00, 0x00, 0x1c, 0x00, 0x00, 0x00, 0x08, 0x00, 0x00, 0x00,
  0x5c, 0x00, 0x00, 0x00, 0x02, 0x00, 0x00, 0x00, 0xff, 0xff, 0xff, 0xff,
  0x10, 0x00, 0x00, 0x00, 0xc4, 0xfd, 0xff, 0xff, 0x40, 0x00, 0x00, 0x00,
  0x73, 0x65, 0x71, 0x75, 0x65, 0x6e, 0x74, 0x69, 0x61, 0x6c, 0x5f, 0x31,
  0x5f, 0x31, 0x2f, 0x64, 0x65, 0x6e, 0x73, 0x65, 0x5f, 0x33, 0x5f, 0x31,
  0x2f, 0x4d, 0x61, 0x74, 0x4d, 0x75, 0x6c, 0x3b, 0x73, 0x65, 0x71, 0x75,
  0x65, 0x6e, 0x74, 0x69, 0x61, 0x6c, 0x5f, 0x31, 0x5f, 0x31, 0x2f, 0x64,
  0x65, 0x6e, 0x73, 0x65, 0x5f, 0x33, 0x5f, 0x31, 0x2f, 0x42, 0x69, 0x61,
  0x73, 0x41, 0x64, 0x64, 0x00, 0x00, 0x00, 0x00, 0x02, 0x00, 0x00, 0x00,
  0x01, 0x00, 0x00, 0x00, 0x10, 0x00, 0x00, 0x00, 0xae, 0xfe, 0xff, 0xff,
  0x00, 0x00, 0x00, 0x01, 0x10, 0x00, 0x00, 0x00, 0x10, 0x00, 0x00, 0x00,
  0x07, 0x00, 0x00, 0x00, 0x2c, 0x00, 0x00, 0x00, 0x34, 0xfe, 0xff, 0xff,
  0x1f, 0x00, 0x00, 0x00, 0x73, 0x65, 0x71, 0x75, 0x65, 0x6e, 0x74, 0x69,
  0x61, 0x6c, 0x5f, 0x31, 0x5f, 0x31, 0x2f, 0x64, 0x65, 0x6e, 0x73, 0x65,
  0x5f, 0x33, 0x5f, 0x31, 0x2f, 0x4d, 0x61, 0x74, 0x4d, 0x75, 0x6c, 0x00,
  0x02, 0x00, 0x00, 0x00, 0x10, 0x00, 0x00, 0x00, 0x01, 0x00, 0x00, 0x00,
  0xfa, 0xfe, 0xff, 0xff, 0x00, 0x00, 0x00, 0x01, 0x10, 0x00, 0x00, 0x00,
  0x10, 0x00, 0x00, 0x00, 0x06, 0x00, 0x00, 0x00, 0x3c, 0x00, 0x00, 0x00,
  0x80, 0xfe, 0xff, 0xff, 0x2f, 0x00, 0x00, 0x00, 0x73, 0x65, 0x71, 0x75,
  0x65, 0x6e, 0x74, 0x69, 0x61, 0x6c, 0x5f, 0x31, 0x5f, 0x31, 0x2f, 0x64,
  0x65, 0x6e, 0x73, 0x65, 0x5f, 0x33, 0x5f, 0x31, 0x2f, 0x42, 0x69, 0x61,
  0x73, 0x41, 0x64, 0x64, 0x2f, 0x52, 0x65, 0x61, 0x64, 0x56, 0x61, 0x72,
  0x69, 0x61, 0x62, 0x6c, 0x65, 0x4f, 0x70, 0x00, 0x01, 0x00, 0x00, 0x00,
  0x10, 0x00, 0x00, 0x00, 0x52, 0xff, 0xff, 0xff, 0x00, 0x00, 0x00, 0x01,
  0x10, 0x00, 0x00, 0x00, 0x10, 0x00, 0x00, 0x00, 0x05, 0x00, 0x00, 0x00,
  0x1c, 0x00, 0x00, 0x00, 0xd8, 0xfe, 0xff, 0xff, 0x0f, 0x00, 0x00, 0x00,
  0x61, 0x72, 0x69, 0x74, 0x68, 0x2e, 0x63, 0x6f, 0x6e, 0x73, 0x74, 0x61,
  0x6e, 0x74, 0x33, 0x00, 0x01, 0x00, 0x00, 0x00, 0x10, 0x00, 0x00, 0x00,
  0x8a, 0xff, 0xff, 0xff, 0x00, 0x00, 0x00, 0x01, 0x10, 0x00, 0x00, 0x00,
  0x10, 0x00, 0x00, 0x00, 0x04, 0x00, 0x00, 0x00, 0x1c, 0x00, 0x00, 0x00,
  0x10, 0xff, 0xff, 0xff, 0x0f, 0x00, 0x00, 0x00, 0x61, 0x72, 0x69, 0x74,
  0x68, 0x2e, 0x63, 0x6f, 0x6e, 0x73, 0x74, 0x61, 0x6e, 0x74, 0x32, 0x00,
  0x01, 0x00, 0x00, 0x00, 0x01, 0x00, 0x00, 0x00, 0xc2, 0xff, 0xff, 0xff,
  0x00, 0x00, 0x00, 0x01, 0x10, 0x00, 0x00, 0x00, 0x10, 0x00, 0x00, 0x00,
  0x03, 0x00, 0x00, 0x00, 0x1c, 0x00, 0x00, 0x00, 0x48, 0xff, 0xff, 0xff,
  0x0f, 0x00, 0x00, 0x00, 0x61, 0x72, 0x69, 0x74, 0x68, 0x2e, 0x63, 0x6f,
  0x6e, 0x73, 0x74, 0x61, 0x6e, 0x74, 0x31, 0x00, 0x02, 0x00, 0x00, 0x00,
  0x10, 0x00, 0x00, 0x00, 0x10, 0x00, 0x00, 0x00, 0x00, 0x00, 0x16, 0x00,
  0x18, 0x00, 0x14, 0x00, 0x00, 0x00, 0x10, 0x00, 0x0c, 0x00, 0x08, 0x00,
  0x00, 0x00, 0x00, 0x00, 0x00, 0x00, 0x07, 0x00, 0x16, 0x00, 0x00, 0x00,
  0x00, 0x00, 0x00, 0x01, 0x10, 0x00, 0x00, 0x00, 0x10, 0x00, 0x00, 0x00,
  0x02, 0x00, 0x00, 0x00, 0x1c, 0x00, 0x00, 0x00, 0x9c, 0xff, 0xff, 0xff,
  0x0e, 0x00, 0x00, 0x00, 0x61, 0x72, 0x69, 0x74, 0x68, 0x2e, 0x63, 0x6f,
  0x6e, 0x73, 0x74, 0x61, 0x6e, 0x74, 0x00, 0x00, 0x02, 0x00, 0x00, 0x00,
  0x01, 0x00, 0x00, 0x00, 0x10, 0x00, 0x00, 0x00, 0x00, 0x00, 0x16, 0x00,
  0x1c, 0x00, 0x18, 0x00, 0x00, 0x00, 0x14, 0x00, 0x10, 0x00, 0x0c, 0x00,
  0x00, 0x00, 0x00, 0x00, 0x08, 0x00, 0x07, 0x00, 0x16, 0x00, 0x00, 0x00,
  0x00, 0x00, 0x00, 0x01, 0x14, 0x00, 0x00, 0x00, 0x20, 0x00, 0x00, 0x00,
  0x20, 0x00, 0x00, 0x00, 0x01, 0x00, 0x00, 0x00, 0x40, 0x00, 0x00, 0x00,
  0x02, 0x00, 0x00, 0x00, 0xff, 0xff, 0xff, 0xff, 0x01, 0x00, 0x00, 0x00,
  0x04, 0x00, 0x04, 0x00, 0x04, 0x00, 0x00, 0x00, 0x20, 0x00, 0x00, 0x00,
  0x73, 0x65, 0x72, 0x76, 0x69, 0x6e, 0x67, 0x5f, 0x64, 0x65, 0x66, 0x61,
  0x75, 0x6c, 0x74, 0x5f, 0x6b, 0x65, 0x72, 0x61, 0x73, 0x5f, 0x74, 0x65,
  0x6e, 0x73, 0x6f, 0x72, 0x5f, 0x34, 0x3a, 0x30, 0x00, 0x00, 0x00, 0x00,
  0x02, 0x00, 0x00, 0x00, 0x01, 0x00, 0x00, 0x00, 0x01, 0x00, 0x00, 0x00,
  0x02, 0x00, 0x00, 0x00, 0x20, 0x00, 0x00, 0x00, 0x04, 0x00, 0x00, 0x00,
  0xf4, 0xff, 0xff, 0xff, 0x0e, 0x00, 0x00, 0x00, 0x00, 0x00, 0x00, 0x0e,
  0x0c, 0x00, 0x0c, 0x00, 0x0b, 0x00, 0x00, 0x00, 0x00, 0x00, 0x04, 0x00,
  0x0c, 0x00, 0x00, 0x00, 0x09, 0x00, 0x00, 0x00, 0x00, 0x00, 0x00, 0x09
 
};

#endif //MODEL_H