#ifndef SINE_MODEL_H
#define SINE_MODEL_H


unsigned int sine_model_len = 3396;
unsigned char sine_model[] = {
 0x1c, 0x00, 0x00, 0x00, 0x54, 0x46, 0x4c, 0x33, 0x14, 0x00, 0x20, 0x00,
  0x1c, 0x00, 0x18, 0x00, 0x14, 0x00, 0x10, 0x00, 0x0c, 0x00, 0x00, 0x00,
  0x08, 0x00, 0x04, 0x00, 0x14, 0x00, 0x00, 0x00, 0x1c, 0x00, 0x00, 0x00,
  0x8c, 0x00, 0x00, 0x00, 0xe4, 0x00, 0x00, 0x00, 0x18, 0x07, 0x00, 0x00,
  0x28, 0x07, 0x00, 0x00, 0xe0, 0x0c, 0x00, 0x00, 0x03, 0x00, 0x00, 0x00,
  0x01, 0x00, 0x00, 0x00, 0x04, 0x00, 0x00, 0x00, 0x16, 0xf8, 0xff, 0xff,
  0x0c, 0x00, 0x00, 0x00, 0x1c, 0x00, 0x00, 0x00, 0x3c, 0x00, 0x00, 0x00,
  0x0f, 0x00, 0x00, 0x00, 0x73, 0x65, 0x72, 0x76, 0x69, 0x6e, 0x67, 0x5f,
  0x64, 0x65, 0x66, 0x61, 0x75, 0x6c, 0x74, 0x00, 0x01, 0x00, 0x00, 0x00,
  0x04, 0x00, 0x00, 0x00, 0x90, 0xff, 0xff, 0xff, 0x0b, 0x00, 0x00, 0x00,
  0x04, 0x00, 0x00, 0x00, 0x08, 0x00, 0x00, 0x00, 0x6f, 0x75, 0x74, 0x70,
  0x75, 0x74, 0x5f, 0x30, 0x00, 0x00, 0x00, 0x00, 0x01, 0x00, 0x00, 0x00,
  0x04, 0x00, 0x00, 0x00, 0xaa, 0xf9, 0xff, 0xff, 0x04, 0x00, 0x00, 0x00,
  0x0c, 0x00, 0x00, 0x00, 0x6b, 0x65, 0x72, 0x61, 0x73, 0x5f, 0x74, 0x65,
  0x6e, 0x73, 0x6f, 0x72, 0x00, 0x00, 0x00, 0x00, 0x02, 0x00, 0x00, 0x00,
  0x34, 0x00, 0x00, 0x00, 0x04, 0x00, 0x00, 0x00, 0xdc, 0xff, 0xff, 0xff,
  0x0e, 0x00, 0x00, 0x00, 0x04, 0x00, 0x00, 0x00, 0x13, 0x00, 0x00, 0x00,
  0x43, 0x4f, 0x4e, 0x56, 0x45, 0x52, 0x53, 0x49, 0x4f, 0x4e, 0x5f, 0x4d,
  0x45, 0x54, 0x41, 0x44, 0x41, 0x54, 0x41, 0x00, 0x08, 0x00, 0x0c, 0x00,
  0x08, 0x00, 0x04, 0x00, 0x08, 0x00, 0x00, 0x00, 0x0d, 0x00, 0x00, 0x00,
  0x04, 0x00, 0x00, 0x00, 0x13, 0x00, 0x00, 0x00, 0x6d, 0x69, 0x6e, 0x5f,
  0x72, 0x75, 0x6e, 0x74, 0x69, 0x6d, 0x65, 0x5f, 0x76, 0x65, 0x72, 0x73,
  0x69, 0x6f, 0x6e, 0x00, 0x0f, 0x00, 0x00, 0x00, 0x30, 0x06, 0x00, 0x00,
  0x28, 0x06, 0x00, 0x00, 0xd8, 0x05, 0x00, 0x00, 0xc0, 0x01, 0x00, 0x00,
  0xac, 0x01, 0x00, 0x00, 0x5c, 0x01, 0x00, 0x00, 0x0c, 0x01, 0x00, 0x00,
  0xbc, 0x00, 0x00, 0x00, 0xb4, 0x00, 0x00, 0x00, 0xac, 0x00, 0x00, 0x00,
  0xa4, 0x00, 0x00, 0x00, 0x9c, 0x00, 0x00, 0x00, 0x94, 0x00, 0x00, 0x00,
  0x74, 0x00, 0x00, 0x00, 0x04, 0x00, 0x00, 0x00, 0x62, 0xfa, 0xff, 0xff,
  0x04, 0x00, 0x00, 0x00, 0x60, 0x00, 0x00, 0x00, 0x0c, 0x00, 0x00, 0x00,
  0x08, 0x00, 0x0e, 0x00, 0x08, 0x00, 0x04, 0x00, 0x08, 0x00, 0x00, 0x00,
  0x10, 0x00, 0x00, 0x00, 0x28, 0x00, 0x00, 0x00, 0x00, 0x00, 0x06, 0x00,
  0x08, 0x00, 0x04, 0x00, 0x06, 0x00, 0x00, 0x00, 0x04, 0x00, 0x00, 0x00,
  0x01, 0x00, 0x00, 0x00, 0xea, 0x03, 0x00, 0x00, 0x0c, 0x00, 0x18, 0x00,
  0x14, 0x00, 0x10, 0x00, 0x0c, 0x00, 0x04, 0x00, 0x0c, 0x00, 0x00, 0x00,
  0x48, 0x0f, 0x67, 0x69, 0x7f, 0x52, 0x02, 0xc4, 0x02, 0x00, 0x00, 0x00,
  0x02, 0x00, 0x00, 0x00, 0x04, 0x00, 0x00, 0x00, 0x06, 0x00, 0x00, 0x00,
  0x32, 0x2e, 0x31, 0x38, 0x2e, 0x30, 0x00, 0x00, 0xce, 0xfa, 0xff, 0xff,
  0x04, 0x00, 0x00, 0x00, 0x10, 0x00, 0x00, 0x00, 0x31, 0x2e, 0x31, 0x34,
  0x2e, 0x30, 0x00, 0x00, 0x00, 0x00, 0x00, 0x00, 0x00, 0x00, 0x00, 0x00,
  0xf8, 0xf4, 0xff, 0xff, 0xfc, 0xf4, 0xff, 0xff, 0x00, 0xf5, 0xff, 0xff,
  0x04, 0xf5, 0xff, 0xff, 0x08, 0xf5, 0xff, 0xff, 0xfe, 0xfa, 0xff, 0xff,
  0x04, 0x00, 0x00, 0x00, 0x40, 0x00, 0x00, 0x00, 0x1b, 0x32, 0x18, 0xbf,
  0xf0, 0x42, 0x22, 0xbf, 0xf5, 0x41, 0x39, 0xbf, 0xa5, 0x3e, 0x32, 0xbf,
  0x63, 0x7e, 0x1d, 0x40, 0x0d, 0x17, 0x04, 0xbf, 0xde, 0x68, 0xec, 0x3e,
  0xd0, 0xa5, 0x57, 0x3f, 0x05, 0x77, 0x28, 0xbf, 0xcb, 0x53, 0x0d, 0xbf,
  0x5c, 0x5a, 0x24, 0x40, 0x6b, 0x05, 0x25, 0x3f, 0x3e, 0x4b, 0x2c, 0x3f,
  0xb8, 0xb4, 0x01, 0x3f, 0xb7, 0x4a, 0x1f, 0xbf, 0x9a, 0x77, 0x00, 0xbf,
  0x4a, 0xfb, 0xff, 0xff, 0x04, 0x00, 0x00, 0x00, 0x40, 0x00, 0x00, 0x00,
  0x2a, 0xb1, 0x9c, 0x3f, 0x26, 0x86, 0x6b, 0x3f, 0x03, 0xa9, 0x40, 0x3f,
  0x7f, 0x53, 0x86, 0x3f, 0x63, 0x5f, 0x25, 0xbf, 0x88, 0xe7, 0xa7, 0x3f,
  0x7e, 0xf8, 0xa2, 0xbf, 0x6b, 0xb9, 0x46, 0xbf, 0x99, 0xc8, 0xa8, 0x3f,
  0x9b, 0x60, 0x98, 0x3f, 0xcc, 0x02, 0x63, 0xbf, 0x80, 0x65, 0x71, 0xbf,
  0x2c, 0x5c, 0x2d, 0xbf, 0xa5, 0x59, 0x96, 0xbf, 0x52, 0xaa, 0xb0, 0x3f,
  0xeb, 0xf8, 0xcb, 0x3f, 0x96, 0xfb, 0xff, 0xff, 0x04, 0x00, 0x00, 0x00,
  0x40, 0x00, 0x00, 0x00, 0xa6, 0xc8, 0xd6, 0xbd, 0xfe, 0xa6, 0xa8, 0xbe,
  0x5d, 0xbb, 0x2a, 0xbd, 0x38, 0xf6, 0x94, 0xbc, 0x4a, 0x8b, 0x15, 0x3e,
  0x67, 0xf2, 0x0c, 0xbd, 0xda, 0x3b, 0x6b, 0x3e, 0x78, 0x1b, 0x08, 0xbe,
  0x12, 0xef, 0xb1, 0xbd, 0x11, 0x76, 0xca, 0xbd, 0x7e, 0xb5, 0xc3, 0xbc,
  0xf6, 0x48, 0xcb, 0xbe, 0x17, 0xeb, 0x2f, 0xbc, 0xb5, 0xac, 0x58, 0xbd,
  0x35, 0xd8, 0x66, 0xbc, 0xa1, 0x2f, 0x09, 0xbe, 0xe2, 0xfb, 0xff, 0xff,
  0x04, 0x00, 0x00, 0x00, 0x04, 0x00, 0x00, 0x00, 0x91, 0x84, 0x8d, 0xbd,
  0xf2, 0xfb, 0xff, 0xff, 0x04, 0x00, 0x00, 0x00, 0x00, 0x04, 0x00, 0x00,
  0x33, 0x97, 0x57, 0x3e, 0x5f, 0xe4, 0x43, 0xbe, 0xb0, 0x33, 0x39, 0x3f,
  0xa2, 0xee, 0x35, 0xbe, 0xea, 0xbc, 0x8b, 0xbe, 0x17, 0xae, 0x19, 0x3f,
  0xf1, 0x84, 0x06, 0xbf, 0x34, 0x32, 0xef, 0x3d, 0xf8, 0xb9, 0xc3, 0x3d,
  0x96, 0x7c, 0x0e, 0xbd, 0xd9, 0x84, 0xf3, 0xbe, 0xed, 0x82, 0x7e, 0x3d,
  0x8d, 0xb6, 0xdc, 0x3d, 0x04, 0xa8, 0x84, 0xbe, 0x13, 0x84, 0x1d, 0x3e,
  0xa1, 0x47, 0x52, 0x3f, 0xcd, 0xeb, 0xb0, 0x3f, 0x55, 0x9e, 0x6b, 0x3f,
  0xec, 0x07, 0x9d, 0x3f, 0xef, 0x86, 0xcf, 0x3f, 0x56, 0x64, 0x0c, 0xbf,
  0xbb, 0x6e, 0x8a, 0x3f, 0xeb, 0xd0, 0x80, 0xbf, 0xbc, 0xe7, 0x8f, 0xbf,
  0x35, 0x68, 0xdb, 0x3f, 0x62, 0xba, 0x8a, 0x3f, 0xdc, 0x9f, 0x8e, 0xbf,
  0x7f, 0xef, 0x09, 0xbf, 0xc4, 0xc7, 0xdf, 0xbe, 0x1e, 0x60, 0x30, 0xbf,
  0xfc, 0x2d, 0xe6, 0x3f, 0x2d, 0x5d, 0xcb, 0x3f, 0xa8, 0x90, 0x1b, 0x3d,
  0xa4, 0x55, 0x83, 0x3d, 0x72, 0x69, 0x34, 0x3f, 0x42, 0xea, 0x56, 0xbd,
  0xe3, 0x3b, 0xcf, 0xbe, 0x86, 0x55, 0xa9, 0x3e, 0xda, 0xcd, 0xa5, 0xbe,
  0x4d, 0xf4, 0x57, 0xbe, 0x4f, 0x7f, 0x5c, 0x3d, 0x7f, 0xbc, 0x1f, 0x3e,
  0x74, 0x70, 0x1d, 0xbf, 0x4d, 0x49, 0x3c, 0x3e, 0x09, 0x75, 0x69, 0xbc,
  0xb4, 0xc0, 0xce, 0xbe, 0x43, 0x4b, 0x49, 0xbd, 0xc0, 0xf0, 0xb2, 0x3e,
  0x12, 0xd4, 0x15, 0xbf, 0xfe, 0x00, 0x25, 0xbd, 0xce, 0x59, 0x2e, 0xbe,
  0x2f, 0x73, 0xb8, 0xbe, 0x06, 0x42, 0x16, 0xbd, 0xe2, 0x81, 0x1f, 0xbf,
  0xfb, 0xbf, 0xe1, 0x3e, 0x55, 0x7b, 0x97, 0xbe, 0x86, 0xad, 0xe3, 0xbe,
  0xea, 0xc4, 0x43, 0xbf, 0x5f, 0x88, 0xe7, 0x3e, 0x2f, 0x0f, 0xaa, 0xbb,
  0x04, 0x24, 0x85, 0x3c, 0x18, 0x98, 0x86, 0x3e, 0x39, 0x43, 0x1a, 0xbf,
  0xf1, 0x6a, 0x65, 0xbf, 0xc0, 0xd9, 0xe0, 0xbe, 0x0e, 0x8c, 0xfc, 0xbd,
  0x9b, 0xe2, 0x99, 0xbe, 0x39, 0x90, 0xd4, 0x3e, 0xd3, 0x30, 0x6e, 0x3e,
  0x22, 0xd1, 0x06, 0xbe, 0x03, 0x7d, 0x61, 0x3e, 0xf2, 0xe4, 0x11, 0x3e,
  0xf0, 0x98, 0xca, 0x3e, 0x9e, 0x63, 0x33, 0x3e, 0x3e, 0xcc, 0x99, 0x3e,
  0x3a, 0xf3, 0xb3, 0x3e, 0xa0, 0x8c, 0xc1, 0x3e, 0x8d, 0x7c, 0x59, 0x3e,
  0x28, 0xec, 0xc2, 0xbe, 0xab, 0xa0, 0x98, 0xbc, 0x05, 0x77, 0x42, 0xbe,
  0x34, 0x79, 0x4f, 0x3e, 0xfd, 0x7b, 0x96, 0x3e, 0xaf, 0x9d, 0xed, 0x3e,
  0xad, 0x05, 0x9e, 0xbe, 0x40, 0xa7, 0x6a, 0x3c, 0x1b, 0x10, 0x4d, 0xbd,
  0x37, 0xe1, 0xfc, 0xbc, 0xf5, 0xd1, 0xde, 0x3e, 0x58, 0xca, 0xb2, 0x3e,
  0xcb, 0x9d, 0x50, 0xbe, 0xeb, 0x57, 0xf8, 0xbe, 0x5a, 0x1e, 0x82, 0xbd,
  0xac, 0x41, 0x77, 0xbe, 0x96, 0xe5, 0x3e, 0x3c, 0xd5, 0x4a, 0x1b, 0x3f,
  0x19, 0xae, 0x97, 0xbf, 0x5a, 0x6a, 0x59, 0xbf, 0x3a, 0xdd, 0x71, 0xbf,
  0x22, 0xaa, 0x8e, 0xbf, 0x6b, 0x97, 0x4f, 0x3f, 0xfe, 0xec, 0x1d, 0xbf,
  0x20, 0xf3, 0x25, 0x3f, 0x74, 0x05, 0x5a, 0x3f, 0x7b, 0x74, 0x7d, 0xbf,
  0x43, 0x1c, 0x5f, 0xbf, 0xcc, 0xa1, 0x1f, 0x3f, 0xc8, 0xa0, 0x7d, 0x3f,
  0x03, 0x2e, 0x25, 0x3f, 0x9b, 0xc0, 0x39, 0x3f, 0x68, 0x74, 0xa2, 0xbf,
  0x75, 0x41, 0x83, 0xbf, 0x08, 0x93, 0x28, 0x3e, 0xaf, 0x45, 0x9a, 0xbe,
  0x63, 0x16, 0x14, 0x3f, 0xe7, 0xe5, 0xb5, 0x3e, 0xa8, 0x09, 0x54, 0xbf,
  0xbe, 0x80, 0x18, 0xbe, 0xa9, 0xad, 0xa8, 0x3d, 0xca, 0xb8, 0xa4, 0xbe,
  0xb5, 0xd1, 0xc5, 0x3d, 0xfc, 0xa8, 0x8b, 0x3e, 0xb8, 0x0f, 0x59, 0xbf,
  0xbb, 0x0b, 0x29, 0xbf, 0x09, 0xec, 0xbf, 0xbc, 0xbc, 0x7c, 0xbd, 0xbe,
  0x65, 0x99, 0x2b, 0x3e, 0x8e, 0x08, 0x23, 0x3f, 0x14, 0x77, 0x96, 0x3f,
  0x8c, 0xbf, 0xca, 0x3f, 0x4b, 0x90, 0xca, 0x3f, 0x8c, 0xc2, 0xfb, 0x3f,
  0x02, 0xd7, 0x8e, 0xbe, 0x17, 0x31, 0xce, 0x3f, 0xc3, 0xe4, 0x76, 0xbf,
  0x3a, 0x06, 0x70, 0xbf, 0x3e, 0x1c, 0xc9, 0x3f, 0xab, 0x79, 0xe8, 0x3f,
  0x99, 0x32, 0x67, 0xbf, 0x74, 0xdd, 0x86, 0xbf, 0x92, 0x79, 0x2c, 0xbf,
  0xeb, 0xcb, 0x33, 0xbf, 0xc7, 0x64, 0xe7, 0x3f, 0x71, 0x10, 0x99, 0x3f,
  0xab, 0x69, 0x72, 0x3e, 0x9c, 0xa3, 0x5a, 0x3e, 0x59, 0x03, 0x37, 0x3f,
  0x37, 0xab, 0x93, 0x3e, 0x90, 0xf2, 0x46, 0xbf, 0x7a, 0x23, 0x4b, 0xbe,
  0x94, 0x71, 0x78, 0xbe, 0x27, 0x9c, 0x1e, 0xbf, 0x94, 0x7b, 0x32, 0x3e,
  0xd9, 0x3f, 0xc0, 0x3c, 0xc0, 0x67, 0x4f, 0xbf, 0x59, 0x92, 0xf0, 0xbe,
  0x4e, 0xba, 0x1a, 0xbe, 0x8b, 0xf6, 0x61, 0xbd, 0x89, 0x44, 0x98, 0xbe,
  0x4b, 0x85, 0x34, 0x3f, 0xaa, 0x2c, 0x0f, 0x40, 0xbd, 0x74, 0xde, 0x3f,
  0x6f, 0xf3, 0x03, 0x40, 0x98, 0x4f, 0xf7, 0x3f, 0x96, 0x95, 0x4d, 0xbf,
  0xe4, 0xa0, 0xdb, 0x3f, 0x11, 0x14, 0xb1, 0xbe, 0x3d, 0xc1, 0x56, 0xbf,
  0x5b, 0x93, 0x12, 0x40, 0xa6, 0x53, 0xed, 0x3f, 0x2a, 0xf9, 0x7b, 0xbf,
  0xfa, 0x70, 0x63, 0xbf, 0x26, 0x15, 0x8c, 0xbf, 0x14, 0x4f, 0x87, 0xbf,
  0x3a, 0x44, 0x01, 0x40, 0x27, 0xea, 0x17, 0x40, 0xf8, 0xfe, 0x39, 0x3f,
  0x4a, 0x47, 0x2d, 0x3f, 0xaa, 0x8e, 0x59, 0x3f, 0x41, 0xc0, 0xad, 0x3f,
  0x1f, 0xbe, 0xc0, 0xbe, 0x31, 0x83, 0x54, 0x3f, 0x3a, 0x4f, 0x34, 0xbf,
  0xd6, 0x24, 0x5f, 0xbf, 0xc6, 0x17, 0x99, 0x3f, 0xa8, 0x94, 0x6c, 0x3f,
  0x53, 0xff, 0x4d, 0xbf, 0xce, 0x3b, 0x74, 0xbf, 0xf7, 0xf9, 0x85, 0xbf,
  0x27, 0x79, 0x3a, 0xbf, 0x97, 0xdd, 0xb8, 0x3f, 0xdc, 0xed, 0xa0, 0x3f,
  0x93, 0xcf, 0xe6, 0xbc, 0xd6, 0x7a, 0x1d, 0xbf, 0xaa, 0x1b, 0x1f, 0xbe,
  0x2d, 0x4f, 0x19, 0xbf, 0x79, 0x21, 0xba, 0xbd, 0x20, 0xa9, 0xc3, 0xbe,
  0x05, 0x6d, 0x7a, 0x3e, 0xac, 0x2e, 0x80, 0xbe, 0x19, 0x8f, 0xc4, 0xbd,
  0x9a, 0x82, 0x39, 0xbf, 0x01, 0xf3, 0xd2, 0x3e, 0x20, 0x12, 0xcf, 0x3e,
  0xd7, 0xa8, 0x87, 0xbe, 0x05, 0xbf, 0xe1, 0x3e, 0x10, 0x69, 0xb7, 0xbe,
  0x9a, 0xfb, 0xf2, 0xbe, 0x4d, 0xd6, 0x3a, 0x3f, 0xe2, 0xda, 0x8d, 0x3e,
  0xdd, 0x9f, 0xbd, 0x3d, 0xa4, 0xc6, 0x05, 0xbd, 0x10, 0xd9, 0xa0, 0xbe,
  0xe2, 0x6c, 0x26, 0x3f, 0xe6, 0x78, 0xea, 0xbe, 0x74, 0x23, 0x68, 0x3e,
  0x12, 0x39, 0x31, 0x3f, 0xb9, 0x17, 0xe7, 0x3e, 0x82, 0x7e, 0x3e, 0xbe,
  0xcc, 0x19, 0x53, 0x3d, 0x05, 0x58, 0xe1, 0xbd, 0xca, 0x89, 0x37, 0x3d,
  0xe8, 0xf6, 0x54, 0x3f, 0x72, 0x66, 0x88, 0x3f, 0x75, 0x87, 0x91, 0x3f,
  0x1a, 0x94, 0x1c, 0x3f, 0x7e, 0x6c, 0x9d, 0x3e, 0x1c, 0x80, 0xbe, 0x3e,
  0xa6, 0xda, 0x10, 0xbd, 0xf6, 0xf3, 0x98, 0x3f, 0x27, 0x65, 0xdf, 0xbe,
  0x5f, 0x1c, 0x30, 0xbd, 0xd5, 0x02, 0xd6, 0x3e, 0x7f, 0x6a, 0x03, 0x3f,
  0x82, 0xc1, 0x1b, 0x3d, 0x0e, 0x6f, 0x2e, 0xbe, 0xbf, 0x2f, 0x49, 0xbc,
  0x43, 0x4a, 0x8f, 0xbe, 0xe2, 0x4d, 0x8f, 0x3f, 0xd4, 0x22, 0xab, 0x3f,
  0x42, 0x2e, 0x98, 0x3f, 0x95, 0x90, 0xe1, 0x3f, 0xc3, 0xc4, 0xc4, 0x3f,
  0x9f, 0xb4, 0xf2, 0x3f, 0xfe, 0x03, 0x60, 0xbe, 0x7d, 0xc3, 0xd0, 0x3f,
  0x86, 0xc0, 0x89, 0xbf, 0x2d, 0x60, 0x2a, 0xbf, 0xdb, 0x45, 0xf8, 0x3f,
  0x2e, 0xa2, 0x8d, 0x3f, 0x02, 0xf5, 0x46, 0xbf, 0x8f, 0xda, 0x36, 0xbf,
  0x08, 0xc5, 0x81, 0xbf, 0xf3, 0x95, 0x94, 0xbf, 0x4d, 0xc7, 0xf1, 0x3f,
  0x2a, 0x1d, 0xe5, 0x3f, 0x00, 0x00, 0x06, 0x00, 0x08, 0x00, 0x04, 0x00,
  0x06, 0x00, 0x00, 0x00, 0x04, 0x00, 0x00, 0x00, 0x40, 0x00, 0x00, 0x00,
  0x4b, 0x15, 0x0f, 0xbf, 0x47, 0xf1, 0x41, 0x3f, 0xcc, 0x06, 0x2f, 0xbf,
  0x68, 0x60, 0x12, 0x3f, 0x19, 0xa7, 0xb8, 0x3e, 0xde, 0xf6, 0xfc, 0xbe,
  0xc6, 0x0c, 0x40, 0xbf, 0x1c, 0x3e, 0x57, 0xbf, 0x8a, 0x25, 0xf5, 0x3e,
  0x02, 0xd3, 0x38, 0xbf, 0x51, 0xa7, 0x52, 0x3f, 0x94, 0x08, 0x9f, 0x3e,
  0xbb, 0xa6, 0xfa, 0x3e, 0x73, 0x49, 0x0a, 0xbf, 0xc8, 0x57, 0x98, 0xbe,
  0x96, 0x96, 0xe7, 0x3e, 0x60, 0xfa, 0xff, 0xff, 0x64, 0xfa, 0xff, 0xff,
  0x0f, 0x00, 0x00, 0x00, 0x4d, 0x4c, 0x49, 0x52, 0x20, 0x43, 0x6f, 0x6e,
  0x76, 0x65, 0x72, 0x74, 0x65, 0x64, 0x2e, 0x00, 0x01, 0x00, 0x00, 0x00,
  0x14, 0x00, 0x00, 0x00, 0x00, 0x00, 0x0e, 0x00, 0x18, 0x00, 0x14, 0x00,
  0x10, 0x00, 0x0c, 0x00, 0x08, 0x00, 0x04, 0x00, 0x0e, 0x00, 0x00, 0x00,
  0x14, 0x00, 0x00, 0x00, 0x1c, 0x00, 0x00, 0x00, 0x1c, 0x01, 0x00, 0x00,
  0x20, 0x01, 0x00, 0x00, 0x24, 0x01, 0x00, 0x00, 0x04, 0x00, 0x00, 0x00,
  0x6d, 0x61, 0x69, 0x6e, 0x00, 0x00, 0x00, 0x00, 0x05, 0x00, 0x00, 0x00,
  0xd0, 0x00, 0x00, 0x00, 0x9c, 0x00, 0x00, 0x00, 0x5c, 0x00, 0x00, 0x00,
  0x38, 0x00, 0x00, 0x00, 0x04, 0x00, 0x00, 0x00, 0x52, 0xff, 0xff, 0xff,
  0x10, 0x00, 0x00, 0x00, 0x00, 0x00, 0x00, 0x08, 0x0c, 0x00, 0x00, 0x00,
  0x10, 0x00, 0x00, 0x00, 0xe4, 0xfa, 0xff, 0xff, 0x01, 0x00, 0x00, 0x00,
  0x0b, 0x00, 0x00, 0x00, 0x03, 0x00, 0x00, 0x00, 0x0a, 0x00, 0x00, 0x00,
  0x01, 0x00, 0x00, 0x00, 0x03, 0x00, 0x00, 0x00, 0xae, 0xff, 0xff, 0xff,
  0x0c, 0x00, 0x00, 0x00, 0x10, 0x00, 0x00, 0x00, 0x01, 0x00, 0x00, 0x00,
  0x01, 0x00, 0x00, 0x00, 0x0a, 0x00, 0x00, 0x00, 0x01, 0x00, 0x00, 0x00,
  0x09, 0x00, 0x00, 0x00, 0xa2, 0xff, 0xff, 0xff, 0x10, 0x00, 0x00, 0x00,
  0x00, 0x00, 0x00, 0x08, 0x0c, 0x00, 0x00, 0x00, 0x10, 0x00, 0x00, 0x00,
  0x34, 0xfb, 0xff, 0xff, 0x01, 0x00, 0x00, 0x00, 0x09, 0x00, 0x00, 0x00,
  0x03, 0x00, 0x00, 0x00, 0x08, 0x00, 0x00, 0x00, 0x02, 0x00, 0x00, 0x00,
  0x04, 0x00, 0x00, 0x00, 0x00, 0x00, 0x0a, 0x00, 0x10, 0x00, 0x0c, 0x00,
  0x08, 0x00, 0x04, 0x00, 0x0a, 0x00, 0x00, 0x00, 0x0c, 0x00, 0x00, 0x00,
  0x10, 0x00, 0x00, 0x00, 0x01, 0x00, 0x00, 0x00, 0x01, 0x00, 0x00, 0x00,
  0x08, 0x00, 0x00, 0x00, 0x01, 0x00, 0x00, 0x00, 0x07, 0x00, 0x00, 0x00,
  0x00, 0x00, 0x0e, 0x00, 0x14, 0x00, 0x00, 0x00, 0x10, 0x00, 0x0c, 0x00,
  0x0b, 0x00, 0x04, 0x00, 0x0e, 0x00, 0x00, 0x00, 0x10, 0x00, 0x00, 0x00,
  0x00, 0x00, 0x00, 0x08, 0x0c, 0x00, 0x00, 0x00, 0x10, 0x00, 0x00, 0x00,
  0xa0, 0xfb, 0xff, 0xff, 0x01, 0x00, 0x00, 0x00, 0x07, 0x00, 0x00, 0x00,
  0x03, 0x00, 0x00, 0x00, 0x00, 0x00, 0x00, 0x00, 0x06, 0x00, 0x00, 0x00,
  0x05, 0x00, 0x00, 0x00, 0x01, 0x00, 0x00, 0x00, 0x0b, 0x00, 0x00, 0x00,
  0x01, 0x00, 0x00, 0x00, 0x00, 0x00, 0x00, 0x00, 0x0c, 0x00, 0x00, 0x00,
  0x08, 0x04, 0x00, 0x00, 0xb0, 0x03, 0x00, 0x00, 0x58, 0x03, 0x00, 0x00,
  0x1c, 0x03, 0x00, 0x00, 0xc0, 0x02, 0x00, 0x00, 0x68, 0x02, 0x00, 0x00,
  0x1c, 0x02, 0x00, 0x00, 0xa0, 0x01, 0x00, 0x00, 0x40, 0x01, 0x00, 0x00,
  0xc0, 0x00, 0x00, 0x00, 0x60, 0x00, 0x00, 0x00, 0x04, 0x00, 0x00, 0x00,
  0x3e, 0xfc, 0xff, 0xff, 0x00, 0x00, 0x00, 0x01, 0x14, 0x00, 0x00, 0x00,
  0x1c, 0x00, 0x00, 0x00, 0x1c, 0x00, 0x00, 0x00, 0x0c, 0x00, 0x00, 0x00,
  0x34, 0x00, 0x00, 0x00, 0x02, 0x00, 0x00, 0x00, 0xff, 0xff, 0xff, 0xff,
  0x01, 0x00, 0x00, 0x00, 0x28, 0xfc, 0xff, 0xff, 0x1b, 0x00, 0x00, 0x00,
  0x53, 0x74, 0x61, 0x74, 0x65, 0x66, 0x75, 0x6c, 0x50, 0x61, 0x72, 0x74,
  0x69, 0x74, 0x69, 0x6f, 0x6e, 0x65, 0x64, 0x43, 0x61, 0x6c, 0x6c, 0x5f,
  0x31, 0x3a, 0x30, 0x00, 0x02, 0x00, 0x00, 0x00, 0x01, 0x00, 0x00, 0x00,
  0x01, 0x00, 0x00, 0x00, 0x96, 0xfc, 0xff, 0xff, 0x00, 0x00, 0x00, 0x01,
  0x14, 0x00, 0x00, 0x00, 0x1c, 0x00, 0x00, 0x00, 0x1c, 0x00, 0x00, 0x00,
  0x0b, 0x00, 0x00, 0x00, 0x38, 0x00, 0x00, 0x00, 0x02, 0x00, 0x00, 0x00,
  0xff, 0xff, 0xff, 0xff, 0x10, 0x00, 0x00, 0x00, 0x80, 0xfc, 0xff, 0xff,
  0x1e, 0x00, 0x00, 0x00, 0x73, 0x65, 0x71, 0x75, 0x65, 0x6e, 0x74, 0x69,
  0x61, 0x6c, 0x5f, 0x31, 0x2f, 0x64, 0x65, 0x6e, 0x73, 0x65, 0x5f, 0x31,
  0x5f, 0x32, 0x2f, 0x53, 0x69, 0x67, 0x6d, 0x6f, 0x69, 0x64, 0x00, 0x00,
  0x02, 0x00, 0x00, 0x00, 0x01, 0x00, 0x00, 0x00, 0x10, 0x00, 0x00, 0x00,
  0xf2, 0xfc, 0xff, 0xff, 0x00, 0x00, 0x00, 0x01, 0x14, 0x00, 0x00, 0x00,
  0x1c, 0x00, 0x00, 0x00, 0x1c, 0x00, 0x00, 0x00, 0x0a, 0x00, 0x00, 0x00,
  0x58, 0x00, 0x00, 0x00, 0x02, 0x00, 0x00, 0x00, 0xff, 0xff, 0xff, 0xff,
  0x10, 0x00, 0x00, 0x00, 0xdc, 0xfc, 0xff, 0xff, 0x3c, 0x00, 0x00, 0x00,
  0x73, 0x65, 0x71, 0x75, 0x65, 0x6e, 0x74, 0x69, 0x61, 0x6c, 0x5f, 0x31,
  0x2f, 0x64, 0x65, 0x6e, 0x73, 0x65, 0x5f, 0x31, 0x5f, 0x32, 0x2f, 0x4d,
  0x61, 0x74, 0x4d, 0x75, 0x6c, 0x3b, 0x73, 0x65, 0x71, 0x75, 0x65, 0x6e,
  0x74, 0x69, 0x61, 0x6c, 0x5f, 0x31, 0x2f, 0x64, 0x65, 0x6e, 0x73, 0x65,
  0x5f, 0x31, 0x5f, 0x32, 0x2f, 0x42, 0x69, 0x61, 0x73, 0x41, 0x64, 0x64,
  0x00, 0x00, 0x00, 0x00, 0x02, 0x00, 0x00, 0x00, 0x01, 0x00, 0x00, 0x00,
  0x10, 0x00, 0x00, 0x00, 0x6e, 0xfd, 0xff, 0xff, 0x00, 0x00, 0x00, 0x01,
  0x14, 0x00, 0x00, 0x00, 0x1c, 0x00, 0x00, 0x00, 0x1c, 0x00, 0x00, 0x00,
  0x09, 0x00, 0x00, 0x00, 0x38, 0x00, 0x00, 0x00, 0x02, 0x00, 0x00, 0x00,
  0xff, 0xff, 0xff, 0xff, 0x10, 0x00, 0x00, 0x00, 0x58, 0xfd, 0xff, 0xff,
  0x1c, 0x00, 0x00, 0x00, 0x73, 0x65, 0x71, 0x75, 0x65, 0x6e, 0x74, 0x69,
  0x61, 0x6c, 0x5f, 0x31, 0x2f, 0x64, 0x65, 0x6e, 0x73, 0x65, 0x5f, 0x31,
  0x2f, 0x53, 0x69, 0x67, 0x6d, 0x6f, 0x69, 0x64, 0x00, 0x00, 0x00, 0x00,
  0x02, 0x00, 0x00, 0x00, 0x01, 0x00, 0x00, 0x00, 0x10, 0x00, 0x00, 0x00,
  0xca, 0xfd, 0xff, 0xff, 0x00, 0x00, 0x00, 0x01, 0x14, 0x00, 0x00, 0x00,
  0x1c, 0x00, 0x00, 0x00, 0x1c, 0x00, 0x00, 0x00, 0x08, 0x00, 0x00, 0x00,
  0x54, 0x00, 0x00, 0x00, 0x02, 0x00, 0x00, 0x00, 0xff, 0xff, 0xff, 0xff,
  0x10, 0x00, 0x00, 0x00, 0xb4, 0xfd, 0xff, 0xff, 0x38, 0x00, 0x00, 0x00,
  0x73, 0x65, 0x71, 0x75, 0x65, 0x6e, 0x74, 0x69, 0x61, 0x6c, 0x5f, 0x31,
  0x2f, 0x64, 0x65, 0x6e, 0x73, 0x65, 0x5f, 0x31, 0x2f, 0x4d, 0x61, 0x74,
  0x4d, 0x75, 0x6c, 0x3b, 0x73, 0x65, 0x71, 0x75, 0x65, 0x6e, 0x74, 0x69,
  0x61, 0x6c, 0x5f, 0x31, 0x2f, 0x64, 0x65, 0x6e, 0x73, 0x65, 0x5f, 0x31,
  0x2f, 0x42, 0x69, 0x61, 0x73, 0x41, 0x64, 0x64, 0x00, 0x00, 0x00, 0x00,
  0x02, 0x00, 0x00, 0x00, 0x01, 0x00, 0x00, 0x00, 0x10, 0x00, 0x00, 0x00,
  0x96, 0xfe, 0xff, 0xff, 0x00, 0x00, 0x00, 0x01, 0x10, 0x00, 0x00, 0x00,
  0x10, 0x00, 0x00, 0x00, 0x07, 0x00, 0x00, 0x00, 0x28, 0x00, 0x00, 0x00,
  0x1c, 0xfe, 0xff, 0xff, 0x1b, 0x00, 0x00, 0x00, 0x73, 0x65, 0x71, 0x75,
  0x65, 0x6e, 0x74, 0x69, 0x61, 0x6c, 0x5f, 0x31, 0x2f, 0x64, 0x65, 0x6e,
  0x73, 0x65, 0x5f, 0x31, 0x2f, 0x4d, 0x61, 0x74, 0x4d, 0x75, 0x6c, 0x00,
  0x02, 0x00, 0x00, 0x00, 0x10, 0x00, 0x00, 0x00, 0x01, 0x00, 0x00, 0x00,
  0xde, 0xfe, 0xff, 0xff, 0x00, 0x00, 0x00, 0x01, 0x10, 0x00, 0x00, 0x00,
  0x10, 0x00, 0x00, 0x00, 0x06, 0x00, 0x00, 0x00, 0x38, 0x00, 0x00, 0x00,
  0x64, 0xfe, 0xff, 0xff, 0x2b, 0x00, 0x00, 0x00, 0x73, 0x65, 0x71, 0x75,
  0x65, 0x6e, 0x74, 0x69, 0x61, 0x6c, 0x5f, 0x31, 0x2f, 0x64, 0x65, 0x6e,
  0x73, 0x65, 0x5f, 0x31, 0x2f, 0x42, 0x69, 0x61, 0x73, 0x41, 0x64, 0x64,
  0x2f, 0x52, 0x65, 0x61, 0x64, 0x56, 0x61, 0x72, 0x69, 0x61, 0x62, 0x6c,
  0x65, 0x4f, 0x70, 0x00, 0x01, 0x00, 0x00, 0x00, 0x10, 0x00, 0x00, 0x00,
  0x32, 0xff, 0xff, 0xff, 0x00, 0x00, 0x00, 0x01, 0x10, 0x00, 0x00, 0x00,
  0x10, 0x00, 0x00, 0x00, 0x05, 0x00, 0x00, 0x00, 0x3c, 0x00, 0x00, 0x00,
  0xb8, 0xfe, 0xff, 0xff, 0x2d, 0x00, 0x00, 0x00, 0x73, 0x65, 0x71, 0x75,
  0x65, 0x6e, 0x74, 0x69, 0x61, 0x6c, 0x5f, 0x31, 0x2f, 0x64, 0x65, 0x6e,
  0x73, 0x65, 0x5f, 0x31, 0x5f, 0x32, 0x2f, 0x42, 0x69, 0x61, 0x73, 0x41,
  0x64, 0x64, 0x2f, 0x52, 0x65, 0x61, 0x64, 0x56, 0x61, 0x72, 0x69, 0x61,
  0x62, 0x6c, 0x65, 0x4f, 0x70, 0x00, 0x00, 0x00, 0x01, 0x00, 0x00, 0x00,
  0x10, 0x00, 0x00, 0x00, 0x8a, 0xff, 0xff, 0xff, 0x00, 0x00, 0x00, 0x01,
  0x10, 0x00, 0x00, 0x00, 0x10, 0x00, 0x00, 0x00, 0x04, 0x00, 0x00, 0x00,
  0x1c, 0x00, 0x00, 0x00, 0x10, 0xff, 0xff, 0xff, 0x0f, 0x00, 0x00, 0x00,
  0x61, 0x72, 0x69, 0x74, 0x68, 0x2e, 0x63, 0x6f, 0x6e, 0x73, 0x74, 0x61,
  0x6e, 0x74, 0x32, 0x00, 0x01, 0x00, 0x00, 0x00, 0x01, 0x00, 0x00, 0x00,
  0xc2, 0xff, 0xff, 0xff, 0x00, 0x00, 0x00, 0x01, 0x10, 0x00, 0x00, 0x00,
  0x10, 0x00, 0x00, 0x00, 0x03, 0x00, 0x00, 0x00, 0x1c, 0x00, 0x00, 0x00,
  0x48, 0xff, 0xff, 0xff, 0x0f, 0x00, 0x00, 0x00, 0x61, 0x72, 0x69, 0x74,
  0x68, 0x2e, 0x63, 0x6f, 0x6e, 0x73, 0x74, 0x61, 0x6e, 0x74, 0x31, 0x00,
  0x02, 0x00, 0x00, 0x00, 0x10, 0x00, 0x00, 0x00, 0x10, 0x00, 0x00, 0x00,
  0x00, 0x00, 0x16, 0x00, 0x18, 0x00, 0x14, 0x00, 0x00, 0x00, 0x10, 0x00,
  0x0c, 0x00, 0x08, 0x00, 0x00, 0x00, 0x00, 0x00, 0x00, 0x00, 0x07, 0x00,
  0x16, 0x00, 0x00, 0x00, 0x00, 0x00, 0x00, 0x01, 0x10, 0x00, 0x00, 0x00,
  0x10, 0x00, 0x00, 0x00, 0x02, 0x00, 0x00, 0x00, 0x1c, 0x00, 0x00, 0x00,
  0x9c, 0xff, 0xff, 0xff, 0x0e, 0x00, 0x00, 0x00, 0x61, 0x72, 0x69, 0x74,
  0x68, 0x2e, 0x63, 0x6f, 0x6e, 0x73, 0x74, 0x61, 0x6e, 0x74, 0x00, 0x00,
  0x02, 0x00, 0x00, 0x00, 0x01, 0x00, 0x00, 0x00, 0x10, 0x00, 0x00, 0x00,
  0x00, 0x00, 0x16, 0x00, 0x1c, 0x00, 0x18, 0x00, 0x00, 0x00, 0x14, 0x00,
  0x10, 0x00, 0x0c, 0x00, 0x00, 0x00, 0x00, 0x00, 0x08, 0x00, 0x07, 0x00,
  0x16, 0x00, 0x00, 0x00, 0x00, 0x00, 0x00, 0x01, 0x14, 0x00, 0x00, 0x00,
  0x20, 0x00, 0x00, 0x00, 0x20, 0x00, 0x00, 0x00, 0x01, 0x00, 0x00, 0x00,
  0x3c, 0x00, 0x00, 0x00, 0x02, 0x00, 0x00, 0x00, 0xff, 0xff, 0xff, 0xff,
  0x01, 0x00, 0x00, 0x00, 0x04, 0x00, 0x04, 0x00, 0x04, 0x00, 0x00, 0x00,
  0x1e, 0x00, 0x00, 0x00, 0x73, 0x65, 0x72, 0x76, 0x69, 0x6e, 0x67, 0x5f,
  0x64, 0x65, 0x66, 0x61, 0x75, 0x6c, 0x74, 0x5f, 0x6b, 0x65, 0x72, 0x61,
  0x73, 0x5f, 0x74, 0x65, 0x6e, 0x73, 0x6f, 0x72, 0x3a, 0x30, 0x00, 0x00,
  0x02, 0x00, 0x00, 0x00, 0x01, 0x00, 0x00, 0x00, 0x01, 0x00, 0x00, 0x00,
  0x02, 0x00, 0x00, 0x00, 0x20, 0x00, 0x00, 0x00, 0x04, 0x00, 0x00, 0x00,
  0xf4, 0xff, 0xff, 0xff, 0x0e, 0x00, 0x00, 0x00, 0x00, 0x00, 0x00, 0x0e,
  0x0c, 0x00, 0x0c, 0x00, 0x0b, 0x00, 0x00, 0x00, 0x00, 0x00, 0x04, 0x00,
  0x0c, 0x00, 0x00, 0x00, 0x09, 0x00, 0x00, 0x00, 0x00, 0x00, 0x00, 0x09
 
};

#endif //SINE_MODEL_H