#ifndef MODEL_H
#define MODEL_H


unsigned int model_len = 3396;
unsigned char model[] = {
 0x1c, 0x00, 0x00, 0x00, 0x54, 0x46, 0x4c, 0x33, 0x14, 0x00, 0x20, 0x00,
  0x1c, 0x00, 0x18, 0x00, 0x14, 0x00, 0x10, 0x00, 0x0c, 0x00, 0x00, 0x00,
  0x08, 0x00, 0x04, 0x00, 0x14, 0x00, 0x00, 0x00, 0x1c, 0x00, 0x00, 0x00,
  0x8c, 0x00, 0x00, 0x00, 0xe4, 0x00, 0x00, 0x00, 0x18, 0x07, 0x00, 0x00,
  0x28, 0x07, 0x00, 0x00, 0xe0, 0x0c, 0x00, 0x00, 0x03, 0x00, 0x00, 0x00,
  0x01, 0x00, 0x00, 0x00, 0x04, 0x00, 0x00, 0x00, 0x16, 0xf8, 0xff, 0xff,
  0x0c, 0x00, 0x00, 0x00, 0x1c, 0x00, 0x00, 0x00, 0x3c, 0x00, 0x00, 0x00,
  0x0f, 0x00, 0x00, 0x00, 0x73, 0x65, 0x72, 0x76, 0x69, 0x6e, 0x67, 0x5f,
  0x64, 0x65, 0x66, 0x61, 0x75, 0x6c, 0x74, 0x00, 0x01, 0x00, 0x00, 0x00,
  0x04, 0x00, 0x00, 0x00, 0x90, 0xff, 0xff, 0xff, 0x0b, 0x00, 0x00, 0x00,
  0x04, 0x00, 0x00, 0x00, 0x08, 0x00, 0x00, 0x00, 0x6f, 0x75, 0x74, 0x70,
  0x75, 0x74, 0x5f, 0x30, 0x00, 0x00, 0x00, 0x00, 0x01, 0x00, 0x00, 0x00,
  0x04, 0x00, 0x00, 0x00, 0xaa, 0xf9, 0xff, 0xff, 0x04, 0x00, 0x00, 0x00,
  0x0c, 0x00, 0x00, 0x00, 0x6b, 0x65, 0x72, 0x61, 0x73, 0x5f, 0x74, 0x65,
  0x6e, 0x73, 0x6f, 0x72, 0x00, 0x00, 0x00, 0x00, 0x02, 0x00, 0x00, 0x00,
  0x34, 0x00, 0x00, 0x00, 0x04, 0x00, 0x00, 0x00, 0xdc, 0xff, 0xff, 0xff,
  0x0e, 0x00, 0x00, 0x00, 0x04, 0x00, 0x00, 0x00, 0x13, 0x00, 0x00, 0x00,
  0x43, 0x4f, 0x4e, 0x56, 0x45, 0x52, 0x53, 0x49, 0x4f, 0x4e, 0x5f, 0x4d,
  0x45, 0x54, 0x41, 0x44, 0x41, 0x54, 0x41, 0x00, 0x08, 0x00, 0x0c, 0x00,
  0x08, 0x00, 0x04, 0x00, 0x08, 0x00, 0x00, 0x00, 0x0d, 0x00, 0x00, 0x00,
  0x04, 0x00, 0x00, 0x00, 0x13, 0x00, 0x00, 0x00, 0x6d, 0x69, 0x6e, 0x5f,
  0x72, 0x75, 0x6e, 0x74, 0x69, 0x6d, 0x65, 0x5f, 0x76, 0x65, 0x72, 0x73,
  0x69, 0x6f, 0x6e, 0x00, 0x0f, 0x00, 0x00, 0x00, 0x30, 0x06, 0x00, 0x00,
  0x28, 0x06, 0x00, 0x00, 0xd8, 0x05, 0x00, 0x00, 0xc0, 0x01, 0x00, 0x00,
  0xac, 0x01, 0x00, 0x00, 0x5c, 0x01, 0x00, 0x00, 0x0c, 0x01, 0x00, 0x00,
  0xbc, 0x00, 0x00, 0x00, 0xb4, 0x00, 0x00, 0x00, 0xac, 0x00, 0x00, 0x00,
  0xa4, 0x00, 0x00, 0x00, 0x9c, 0x00, 0x00, 0x00, 0x94, 0x00, 0x00, 0x00,
  0x74, 0x00, 0x00, 0x00, 0x04, 0x00, 0x00, 0x00, 0x62, 0xfa, 0xff, 0xff,
  0x04, 0x00, 0x00, 0x00, 0x60, 0x00, 0x00, 0x00, 0x0c, 0x00, 0x00, 0x00,
  0x08, 0x00, 0x0e, 0x00, 0x08, 0x00, 0x04, 0x00, 0x08, 0x00, 0x00, 0x00,
  0x10, 0x00, 0x00, 0x00, 0x28, 0x00, 0x00, 0x00, 0x00, 0x00, 0x06, 0x00,
  0x08, 0x00, 0x04, 0x00, 0x06, 0x00, 0x00, 0x00, 0x04, 0x00, 0x00, 0x00,
  0x01, 0x00, 0x00, 0x00, 0xea, 0x03, 0x00, 0x00, 0x0c, 0x00, 0x18, 0x00,
  0x14, 0x00, 0x10, 0x00, 0x0c, 0x00, 0x04, 0x00, 0x0c, 0x00, 0x00, 0x00,
  0x48, 0x0f, 0x67, 0x69, 0x7f, 0x52, 0x02, 0xc4, 0x02, 0x00, 0x00, 0x00,
  0x02, 0x00, 0x00, 0x00, 0x04, 0x00, 0x00, 0x00, 0x06, 0x00, 0x00, 0x00,
  0x32, 0x2e, 0x31, 0x38, 0x2e, 0x30, 0x00, 0x00, 0xce, 0xfa, 0xff, 0xff,
  0x04, 0x00, 0x00, 0x00, 0x10, 0x00, 0x00, 0x00, 0x31, 0x2e, 0x31, 0x34,
  0x2e, 0x30, 0x00, 0x00, 0x00, 0x00, 0x00, 0x00, 0x00, 0x00, 0x00, 0x00,
  0xf8, 0xf4, 0xff, 0xff, 0xfc, 0xf4, 0xff, 0xff, 0x00, 0xf5, 0xff, 0xff,
  0x04, 0xf5, 0xff, 0xff, 0x08, 0xf5, 0xff, 0xff, 0xfe, 0xfa, 0xff, 0xff,
  0x04, 0x00, 0x00, 0x00, 0x40, 0x00, 0x00, 0x00, 0xe2, 0xee, 0xc7, 0x3f,
  0xe6, 0xd2, 0x90, 0x3f, 0xe0, 0x18, 0x73, 0xbf, 0x6b, 0x74, 0x28, 0xbf,
  0x45, 0x89, 0x24, 0xbf, 0x05, 0x3c, 0x31, 0x40, 0x6d, 0xa2, 0x8b, 0x3f,
  0x07, 0x32, 0x33, 0xbf, 0xa8, 0x54, 0x34, 0xbf, 0x23, 0xe4, 0x5c, 0xbf,
  0xca, 0x7d, 0x21, 0xbf, 0x1e, 0xca, 0x05, 0xbf, 0xad, 0x40, 0x41, 0xbf,
  0x2e, 0x06, 0x4b, 0xbf, 0xa2, 0x1a, 0x37, 0xbf, 0x4f, 0xb1, 0x24, 0xbf,
  0x4a, 0xfb, 0xff, 0xff, 0x04, 0x00, 0x00, 0x00, 0x40, 0x00, 0x00, 0x00,
  0x17, 0xe8, 0x5d, 0xbf, 0x18, 0xd4, 0x33, 0xbf, 0x01, 0x6c, 0xa3, 0x3e,
  0x41, 0xaf, 0x85, 0x3f, 0x5f, 0xea, 0xc5, 0x3f, 0xaf, 0xd2, 0x6a, 0xbf,
  0x88, 0x6f, 0x41, 0xbf, 0x55, 0x44, 0xa6, 0x3f, 0x32, 0x97, 0x94, 0x3f,
  0xb8, 0x51, 0x18, 0x3f, 0xab, 0xb8, 0x36, 0x3f, 0xa7, 0xb1, 0x5e, 0x3f,
  0xff, 0xb8, 0x9c, 0x3f, 0x00, 0x33, 0x9c, 0x3f, 0x84, 0x66, 0x8d, 0x3f,
  0x8c, 0x6e, 0x8d, 0x3f, 0x96, 0xfb, 0xff, 0xff, 0x04, 0x00, 0x00, 0x00,
  0x40, 0x00, 0x00, 0x00, 0x72, 0xa2, 0xdb, 0xbd, 0xed, 0x5c, 0x88, 0x3d,
  0xd1, 0xcf, 0xc0, 0xbe, 0xd1, 0x29, 0x87, 0x3e, 0x4f, 0x1d, 0xa8, 0xbc,
  0x5a, 0x43, 0x46, 0xbe, 0x77, 0xb9, 0xce, 0xbe, 0xd2, 0xe5, 0x56, 0x3e,
  0x42, 0x48, 0x8d, 0xbe, 0xed, 0x25, 0x5a, 0xbe, 0x60, 0x96, 0xe2, 0x3e,
  0x78, 0x13, 0x9a, 0xbe, 0x6b, 0x0c, 0xbe, 0xbe, 0xac, 0x5b, 0x5c, 0xbd,
  0xa1, 0x90, 0x91, 0x3e, 0x9f, 0xdd, 0x60, 0x3e, 0xe2, 0xfb, 0xff, 0xff,
  0x04, 0x00, 0x00, 0x00, 0x04, 0x00, 0x00, 0x00, 0xe1, 0x97, 0xb5, 0x3c,
  0xf2, 0xfb, 0xff, 0xff, 0x04, 0x00, 0x00, 0x00, 0x00, 0x04, 0x00, 0x00,
  0x03, 0x36, 0xb8, 0x3d, 0x24, 0xaa, 0x07, 0x3e, 0x16, 0x73, 0x28, 0xbf,
  0x91, 0x30, 0xc2, 0xbf, 0xb9, 0x01, 0x14, 0xc0, 0x7e, 0x93, 0xdf, 0x3e,
  0xcd, 0x3e, 0xb6, 0xbd, 0x49, 0xb0, 0xea, 0xbf, 0x92, 0xc1, 0xd2, 0xbf,
  0x88, 0x1f, 0x63, 0xbf, 0x20, 0x18, 0xd1, 0xbf, 0xc7, 0x9e, 0xe2, 0xbf,
  0xaf, 0x7e, 0xba, 0xbf, 0x41, 0x6b, 0xe9, 0xbf, 0x43, 0xdc, 0xcf, 0xbf,
  0x3e, 0xc0, 0xa2, 0xbf, 0x3b, 0xb9, 0xd7, 0xbd, 0x5a, 0x84, 0xf9, 0xbe,
  0x81, 0x10, 0x42, 0x3f, 0x4a, 0xa8, 0x4f, 0x3d, 0x03, 0x4d, 0x5d, 0xbc,
  0x61, 0xb3, 0x91, 0x3e, 0xfa, 0xea, 0xe0, 0xbe, 0xa1, 0x57, 0xdc, 0x3e,
  0x05, 0xdf, 0xa7, 0x3e, 0x62, 0xa1, 0x0c, 0x3f, 0x9e, 0x2d, 0x23, 0xbe,
  0x77, 0xee, 0xa4, 0xbe, 0x8e, 0x64, 0xae, 0x3e, 0xb6, 0x6c, 0x65, 0x3f,
  0x5c, 0x5a, 0x19, 0x3f, 0xf2, 0xcb, 0x8c, 0x3e, 0x0a, 0x8d, 0x81, 0xbf,
  0x75, 0xd0, 0xf1, 0xbe, 0x94, 0x15, 0xd9, 0x3e, 0x39, 0xda, 0x74, 0x3f,
  0x4f, 0xdb, 0xe0, 0x3f, 0x2b, 0x32, 0x3e, 0xbf, 0xc5, 0x72, 0x68, 0xbf,
  0xc2, 0xa0, 0x83, 0x3f, 0xdb, 0x45, 0xb3, 0x3f, 0xc6, 0x0d, 0x99, 0x3f,
  0xfa, 0xd9, 0x90, 0x3f, 0x36, 0xcc, 0x64, 0x3f, 0xca, 0xcf, 0x9e, 0x3f,
  0x7c, 0x77, 0xcc, 0x3f, 0xd8, 0x65, 0x9b, 0x3f, 0x99, 0x2a, 0x22, 0x3f,
  0x4d, 0xbf, 0x49, 0x3f, 0x87, 0xe9, 0xfd, 0x3e, 0x11, 0x1a, 0x4a, 0xbf,
  0x7b, 0x10, 0xc0, 0xbf, 0xe6, 0xae, 0xb5, 0xbf, 0x14, 0x4e, 0x72, 0x3f,
  0xf2, 0xda, 0x80, 0x3f, 0xb5, 0x38, 0xc1, 0xbf, 0x72, 0x22, 0x80, 0xbf,
  0x20, 0x6d, 0x61, 0xbf, 0xdb, 0x95, 0x69, 0xbf, 0x75, 0xf8, 0x28, 0xbf,
  0x53, 0x39, 0xd5, 0xbf, 0x13, 0x7e, 0xaf, 0xbf, 0xd0, 0xc8, 0x5a, 0xbf,
  0x8c, 0xca, 0x65, 0xbf, 0x0c, 0x56, 0x74, 0xbd, 0x7a, 0x33, 0x25, 0x3f,
  0xe7, 0x14, 0x40, 0xbf, 0x6e, 0x4f, 0x02, 0xc0, 0x46, 0xf0, 0x11, 0xc0,
  0x19, 0xc3, 0x10, 0xbe, 0x6c, 0x6b, 0x86, 0x3e, 0x4e, 0x42, 0x20, 0xc0,
  0xd0, 0x67, 0xc8, 0xbf, 0xdd, 0x8a, 0x97, 0xbf, 0x72, 0xd5, 0xc0, 0xbf,
  0xae, 0xd5, 0x9e, 0xbf, 0xb9, 0x6e, 0x13, 0xc0, 0xe7, 0xa3, 0x18, 0xc0,
  0x70, 0x87, 0x13, 0xc0, 0x59, 0x68, 0xdb, 0xbf, 0xeb, 0x8a, 0x72, 0xbf,
  0xe8, 0x21, 0x2f, 0xbf, 0xe1, 0x31, 0x9d, 0x3f, 0xa5, 0xd9, 0xbb, 0x3f,
  0x09, 0xc7, 0x02, 0x40, 0x5e, 0x68, 0x44, 0xbf, 0x11, 0xaa, 0x84, 0xbf,
  0x78, 0xdf, 0xf0, 0x3f, 0x94, 0x88, 0xdb, 0x3f, 0x49, 0x4b, 0xea, 0x3f,
  0xf8, 0x71, 0xe1, 0x3f, 0x18, 0x96, 0xb1, 0x3f, 0x40, 0x00, 0x09, 0x40,
  0x77, 0x55, 0x13, 0x40, 0x5f, 0x1c, 0xed, 0x3f, 0x58, 0x8a, 0xb4, 0x3f,
  0xe2, 0x73, 0xb0, 0xbe, 0x3c, 0x74, 0x11, 0xbf, 0x1d, 0xb6, 0x8e, 0x3d,
  0x1b, 0x23, 0xfa, 0x3d, 0x42, 0xb4, 0x01, 0x3e, 0xf6, 0xc2, 0x69, 0xbf,
  0xb5, 0x0b, 0xc3, 0xbe, 0x8c, 0x07, 0x2c, 0x3e, 0x24, 0xf7, 0xdf, 0xbd,
  0xb2, 0x15, 0xff, 0x3e, 0xf2, 0x95, 0x4c, 0x3e, 0x7a, 0xc1, 0xe6, 0x3d,
  0xc7, 0x8a, 0x1f, 0x3e, 0x82, 0xd7, 0x78, 0x3e, 0x89, 0x66, 0x17, 0x3e,
  0x98, 0xe1, 0x06, 0x3e, 0x16, 0xca, 0x04, 0x3e, 0x75, 0xb5, 0x56, 0xbe,
  0x3e, 0xd4, 0x02, 0x3d, 0x94, 0x14, 0xb8, 0xbd, 0x9a, 0x3c, 0xb8, 0xbe,
  0x50, 0xf5, 0x5d, 0x3f, 0x27, 0x6f, 0x94, 0x3e, 0x1a, 0x5f, 0xeb, 0xbd,
  0xbc, 0x05, 0xfd, 0xbe, 0x25, 0x17, 0x4a, 0x3d, 0xa6, 0xdc, 0xa1, 0x3c,
  0x57, 0x81, 0x01, 0xbf, 0x58, 0x6e, 0xb5, 0x3e, 0x0e, 0x2e, 0xd4, 0xbe,
  0xe8, 0x09, 0xf9, 0xbb, 0xae, 0x29, 0x22, 0xbc, 0x41, 0xee, 0x9c, 0xbe,
  0xb1, 0x13, 0x24, 0xbf, 0x5e, 0x71, 0x00, 0x3f, 0x90, 0x18, 0x04, 0x3f,
  0xe3, 0xf3, 0x41, 0xbe, 0x37, 0x12, 0x55, 0xbf, 0xd1, 0xd9, 0xee, 0xbd,
  0x38, 0xde, 0x03, 0x3d, 0x59, 0x3b, 0x48, 0x3e, 0x15, 0xb2, 0x56, 0xbe,
  0x13, 0xfb, 0xeb, 0x3e, 0x26, 0x8d, 0xed, 0x3e, 0x21, 0x3e, 0xca, 0xbe,
  0x6e, 0xcd, 0x1d, 0xbe, 0x70, 0xa5, 0xc1, 0x3e, 0x0f, 0xf1, 0x3c, 0x3e,
  0x4c, 0x1d, 0x7c, 0x3d, 0x2b, 0x8a, 0xb6, 0xbe, 0x96, 0xbe, 0x93, 0xbe,
  0xaa, 0x92, 0xcc, 0xbe, 0x7b, 0x74, 0x6f, 0xbf, 0x96, 0x5f, 0x84, 0xbe,
  0x87, 0xa8, 0x8e, 0xbd, 0xfb, 0xcb, 0x15, 0xbf, 0x27, 0x03, 0x4a, 0xbf,
  0x13, 0x69, 0x4c, 0xbf, 0xc3, 0x97, 0x60, 0xbf, 0x20, 0x38, 0xb3, 0xbe,
  0x7a, 0x13, 0x8d, 0xbf, 0xf5, 0x78, 0x94, 0xbf, 0x00, 0x28, 0x88, 0xbf,
  0x54, 0x53, 0x57, 0xbf, 0x83, 0xee, 0x62, 0x3f, 0xda, 0x71, 0xc0, 0x3e,
  0x35, 0xc6, 0xa0, 0xbe, 0x8f, 0x6a, 0x69, 0xbf, 0x3c, 0x0b, 0x82, 0xbf,
  0xd7, 0x57, 0x03, 0x3f, 0x5a, 0xe3, 0x4e, 0x3f, 0x4d, 0xba, 0x40, 0xbf,
  0xe3, 0x5f, 0x40, 0xbf, 0xe6, 0xfa, 0x2c, 0xbf, 0x6a, 0xf6, 0x2b, 0xbf,
  0x3d, 0x24, 0x12, 0x3d, 0x7f, 0x5a, 0x5f, 0xbf, 0xba, 0x06, 0x71, 0xbf,
  0xc1, 0x10, 0x7d, 0xbf, 0xa1, 0xa6, 0x7d, 0xbd, 0xc1, 0xe9, 0x45, 0xbf,
  0x66, 0xde, 0x40, 0xbc, 0xab, 0x40, 0x3e, 0x3e, 0x52, 0x3b, 0x05, 0xbe,
  0x7b, 0xf2, 0xa0, 0x3e, 0xf4, 0x2e, 0x5b, 0xbe, 0xa4, 0xaf, 0xcd, 0x3d,
  0x3a, 0x15, 0xa6, 0x3e, 0xc9, 0x38, 0x8f, 0x3e, 0xc8, 0x20, 0xb8, 0x3e,
  0x7a, 0x08, 0x03, 0x3f, 0xb0, 0xb8, 0x82, 0x3e, 0x32, 0x18, 0x06, 0xbe,
  0x08, 0xb1, 0x9f, 0xbc, 0xf5, 0x7f, 0xa0, 0xbe, 0x9b, 0x92, 0x63, 0x3e,
  0x97, 0x5a, 0x87, 0xbf, 0x11, 0x9c, 0x37, 0xbf, 0x36, 0xfc, 0x56, 0x3f,
  0xc9, 0x24, 0x84, 0x3e, 0xfc, 0x2f, 0x3f, 0xbe, 0x62, 0x81, 0xa6, 0xbf,
  0xa7, 0x6b, 0x0a, 0xbf, 0x62, 0xbe, 0xb0, 0x3e, 0x6b, 0xbb, 0x32, 0x3e,
  0x3f, 0x57, 0x06, 0x3f, 0x37, 0x71, 0x2c, 0x3f, 0x21, 0x9f, 0x56, 0x3d,
  0x2f, 0x74, 0xba, 0xbe, 0x5e, 0xa0, 0x15, 0x3f, 0x91, 0x77, 0xd7, 0x3e,
  0xd9, 0x0b, 0x2a, 0x3d, 0x1d, 0x91, 0xa3, 0x3e, 0x1f, 0xa2, 0x01, 0xbe,
  0x22, 0x36, 0xaf, 0xbf, 0x09, 0x27, 0x07, 0xc0, 0x90, 0x20, 0x27, 0xc0,
  0xc6, 0xce, 0xe2, 0x3d, 0x26, 0x43, 0xfc, 0x3e, 0x20, 0x95, 0x04, 0xc0,
  0x87, 0xf7, 0x0b, 0xc0, 0x0e, 0x42, 0x95, 0xbf, 0x7d, 0x69, 0xa6, 0xbf,
  0xe6, 0xab, 0xb4, 0xbf, 0x23, 0xa4, 0xe4, 0xbf, 0xfb, 0x0b, 0xd7, 0xbf,
  0x65, 0x00, 0x07, 0xc0, 0x76, 0x2e, 0x16, 0xc0, 0x77, 0x42, 0x76, 0x3f,
  0x64, 0x26, 0x9b, 0x3f, 0xb4, 0xd8, 0xbe, 0xbf, 0xa1, 0x1a, 0x0b, 0xc0,
  0x71, 0xaf, 0x04, 0xc0, 0x20, 0x79, 0x50, 0x3f, 0xe2, 0x2c, 0xf4, 0x3e,
  0x83, 0xe1, 0x09, 0xc0, 0xc5, 0xe8, 0x07, 0xc0, 0xdb, 0xb3, 0xbc, 0xbf,
  0xb9, 0x67, 0xea, 0xbf, 0x31, 0x03, 0x7d, 0xbf, 0xeb, 0x92, 0x03, 0xc0,
  0x13, 0xb2, 0x1f, 0xc0, 0x10, 0x14, 0xcd, 0xbf, 0xf4, 0xd2, 0xf3, 0xbf,
  0x67, 0xde, 0x81, 0x3f, 0xa3, 0xeb, 0x6f, 0x3f, 0x7f, 0x3c, 0xd6, 0xbe,
  0x50, 0x61, 0x58, 0xbf, 0xb9, 0x6c, 0x7d, 0xbf, 0x1e, 0x14, 0x44, 0x3f,
  0x34, 0xed, 0x17, 0x3f, 0xe8, 0xde, 0xcb, 0xbf, 0x97, 0x63, 0xcb, 0xbf,
  0x39, 0x62, 0x98, 0xbf, 0x5b, 0xca, 0xea, 0xbe, 0x32, 0x00, 0x37, 0xbf,
  0x03, 0x41, 0x58, 0xbf, 0xbf, 0xc1, 0xcf, 0xbf, 0xab, 0xb1, 0x89, 0xbf,
  0x97, 0xb9, 0xbe, 0xbf, 0x00, 0x00, 0x06, 0x00, 0x08, 0x00, 0x04, 0x00,
  0x06, 0x00, 0x00, 0x00, 0x04, 0x00, 0x00, 0x00, 0x40, 0x00, 0x00, 0x00,
  0x2e, 0xb3, 0x34, 0x3f, 0x49, 0x37, 0xe9, 0x3e, 0xcc, 0x8c, 0xd6, 0x3e,
  0x96, 0x30, 0x02, 0xbf, 0x2d, 0x12, 0x6b, 0x3f, 0x04, 0xb3, 0xee, 0x3e,
  0x85, 0x8d, 0x14, 0xbf, 0xbd, 0x43, 0x09, 0x3f, 0x68, 0xdb, 0xa1, 0xbe,
  0xf4, 0xb5, 0x64, 0x3e, 0x1b, 0x28, 0xd5, 0xbe, 0x48, 0x84, 0xae, 0xbe,
  0xee, 0xfa, 0x87, 0xbf, 0xda, 0x25, 0x6c, 0x3f, 0x17, 0x5e, 0x0d, 0xbf,
  0x60, 0x36, 0x2e, 0xbf, 0x60, 0xfa, 0xff, 0xff, 0x64, 0xfa, 0xff, 0xff,
  0x0f, 0x00, 0x00, 0x00, 0x4d, 0x4c, 0x49, 0x52, 0x20, 0x43, 0x6f, 0x6e,
  0x76, 0x65, 0x72, 0x74, 0x65, 0x64, 0x2e, 0x00, 0x01, 0x00, 0x00, 0x00,
  0x14, 0x00, 0x00, 0x00, 0x00, 0x00, 0x0e, 0x00, 0x18, 0x00, 0x14, 0x00,
  0x10, 0x00, 0x0c, 0x00, 0x08, 0x00, 0x04, 0x00, 0x0e, 0x00, 0x00, 0x00,
  0x14, 0x00, 0x00, 0x00, 0x1c, 0x00, 0x00, 0x00, 0x1c, 0x01, 0x00, 0x00,
  0x20, 0x01, 0x00, 0x00, 0x24, 0x01, 0x00, 0x00, 0x04, 0x00, 0x00, 0x00,
  0x6d, 0x61, 0x69, 0x6e, 0x00, 0x00, 0x00, 0x00, 0x05, 0x00, 0x00, 0x00,
  0xd0, 0x00, 0x00, 0x00, 0x9c, 0x00, 0x00, 0x00, 0x5c, 0x00, 0x00, 0x00,
  0x38, 0x00, 0x00, 0x00, 0x04, 0x00, 0x00, 0x00, 0x52, 0xff, 0xff, 0xff,
  0x10, 0x00, 0x00, 0x00, 0x00, 0x00, 0x00, 0x08, 0x0c, 0x00, 0x00, 0x00,
  0x10, 0x00, 0x00, 0x00, 0xe4, 0xfa, 0xff, 0xff, 0x01, 0x00, 0x00, 0x00,
  0x0b, 0x00, 0x00, 0x00, 0x03, 0x00, 0x00, 0x00, 0x0a, 0x00, 0x00, 0x00,
  0x01, 0x00, 0x00, 0x00, 0x03, 0x00, 0x00, 0x00, 0xae, 0xff, 0xff, 0xff,
  0x0c, 0x00, 0x00, 0x00, 0x10, 0x00, 0x00, 0x00, 0x01, 0x00, 0x00, 0x00,
  0x01, 0x00, 0x00, 0x00, 0x0a, 0x00, 0x00, 0x00, 0x01, 0x00, 0x00, 0x00,
  0x09, 0x00, 0x00, 0x00, 0xa2, 0xff, 0xff, 0xff, 0x10, 0x00, 0x00, 0x00,
  0x00, 0x00, 0x00, 0x08, 0x0c, 0x00, 0x00, 0x00, 0x10, 0x00, 0x00, 0x00,
  0x34, 0xfb, 0xff, 0xff, 0x01, 0x00, 0x00, 0x00, 0x09, 0x00, 0x00, 0x00,
  0x03, 0x00, 0x00, 0x00, 0x08, 0x00, 0x00, 0x00, 0x02, 0x00, 0x00, 0x00,
  0x04, 0x00, 0x00, 0x00, 0x00, 0x00, 0x0a, 0x00, 0x10, 0x00, 0x0c, 0x00,
  0x08, 0x00, 0x04, 0x00, 0x0a, 0x00, 0x00, 0x00, 0x0c, 0x00, 0x00, 0x00,
  0x10, 0x00, 0x00, 0x00, 0x01, 0x00, 0x00, 0x00, 0x01, 0x00, 0x00, 0x00,
  0x08, 0x00, 0x00, 0x00, 0x01, 0x00, 0x00, 0x00, 0x07, 0x00, 0x00, 0x00,
  0x00, 0x00, 0x0e, 0x00, 0x14, 0x00, 0x00, 0x00, 0x10, 0x00, 0x0c, 0x00,
  0x0b, 0x00, 0x04, 0x00, 0x0e, 0x00, 0x00, 0x00, 0x10, 0x00, 0x00, 0x00,
  0x00, 0x00, 0x00, 0x08, 0x0c, 0x00, 0x00, 0x00, 0x10, 0x00, 0x00, 0x00,
  0xa0, 0xfb, 0xff, 0xff, 0x01, 0x00, 0x00, 0x00, 0x07, 0x00, 0x00, 0x00,
  0x03, 0x00, 0x00, 0x00, 0x00, 0x00, 0x00, 0x00, 0x06, 0x00, 0x00, 0x00,
  0x05, 0x00, 0x00, 0x00, 0x01, 0x00, 0x00, 0x00, 0x0b, 0x00, 0x00, 0x00,
  0x01, 0x00, 0x00, 0x00, 0x00, 0x00, 0x00, 0x00, 0x0c, 0x00, 0x00, 0x00,
  0x08, 0x04, 0x00, 0x00, 0xb0, 0x03, 0x00, 0x00, 0x58, 0x03, 0x00, 0x00,
  0x1c, 0x03, 0x00, 0x00, 0xc0, 0x02, 0x00, 0x00, 0x68, 0x02, 0x00, 0x00,
  0x1c, 0x02, 0x00, 0x00, 0xa0, 0x01, 0x00, 0x00, 0x40, 0x01, 0x00, 0x00,
  0xc0, 0x00, 0x00, 0x00, 0x60, 0x00, 0x00, 0x00, 0x04, 0x00, 0x00, 0x00,
  0x3e, 0xfc, 0xff, 0xff, 0x00, 0x00, 0x00, 0x01, 0x14, 0x00, 0x00, 0x00,
  0x1c, 0x00, 0x00, 0x00, 0x1c, 0x00, 0x00, 0x00, 0x0c, 0x00, 0x00, 0x00,
  0x34, 0x00, 0x00, 0x00, 0x02, 0x00, 0x00, 0x00, 0xff, 0xff, 0xff, 0xff,
  0x01, 0x00, 0x00, 0x00, 0x28, 0xfc, 0xff, 0xff, 0x1b, 0x00, 0x00, 0x00,
  0x53, 0x74, 0x61, 0x74, 0x65, 0x66, 0x75, 0x6c, 0x50, 0x61, 0x72, 0x74,
  0x69, 0x74, 0x69, 0x6f, 0x6e, 0x65, 0x64, 0x43, 0x61, 0x6c, 0x6c, 0x5f,
  0x31, 0x3a, 0x30, 0x00, 0x02, 0x00, 0x00, 0x00, 0x01, 0x00, 0x00, 0x00,
  0x01, 0x00, 0x00, 0x00, 0x96, 0xfc, 0xff, 0xff, 0x00, 0x00, 0x00, 0x01,
  0x14, 0x00, 0x00, 0x00, 0x1c, 0x00, 0x00, 0x00, 0x1c, 0x00, 0x00, 0x00,
  0x0b, 0x00, 0x00, 0x00, 0x38, 0x00, 0x00, 0x00, 0x02, 0x00, 0x00, 0x00,
  0xff, 0xff, 0xff, 0xff, 0x10, 0x00, 0x00, 0x00, 0x80, 0xfc, 0xff, 0xff,
  0x1e, 0x00, 0x00, 0x00, 0x73, 0x65, 0x71, 0x75, 0x65, 0x6e, 0x74, 0x69,
  0x61, 0x6c, 0x5f, 0x31, 0x2f, 0x64, 0x65, 0x6e, 0x73, 0x65, 0x5f, 0x31,
  0x5f, 0x32, 0x2f, 0x53, 0x69, 0x67, 0x6d, 0x6f, 0x69, 0x64, 0x00, 0x00,
  0x02, 0x00, 0x00, 0x00, 0x01, 0x00, 0x00, 0x00, 0x10, 0x00, 0x00, 0x00,
  0xf2, 0xfc, 0xff, 0xff, 0x00, 0x00, 0x00, 0x01, 0x14, 0x00, 0x00, 0x00,
  0x1c, 0x00, 0x00, 0x00, 0x1c, 0x00, 0x00, 0x00, 0x0a, 0x00, 0x00, 0x00,
  0x58, 0x00, 0x00, 0x00, 0x02, 0x00, 0x00, 0x00, 0xff, 0xff, 0xff, 0xff,
  0x10, 0x00, 0x00, 0x00, 0xdc, 0xfc, 0xff, 0xff, 0x3c, 0x00, 0x00, 0x00,
  0x73, 0x65, 0x71, 0x75, 0x65, 0x6e, 0x74, 0x69, 0x61, 0x6c, 0x5f, 0x31,
  0x2f, 0x64, 0x65, 0x6e, 0x73, 0x65, 0x5f, 0x31, 0x5f, 0x32, 0x2f, 0x4d,
  0x61, 0x74, 0x4d, 0x75, 0x6c, 0x3b, 0x73, 0x65, 0x71, 0x75, 0x65, 0x6e,
  0x74, 0x69, 0x61, 0x6c, 0x5f, 0x31, 0x2f, 0x64, 0x65, 0x6e, 0x73, 0x65,
  0x5f, 0x31, 0x5f, 0x32, 0x2f, 0x42, 0x69, 0x61, 0x73, 0x41, 0x64, 0x64,
  0x00, 0x00, 0x00, 0x00, 0x02, 0x00, 0x00, 0x00, 0x01, 0x00, 0x00, 0x00,
  0x10, 0x00, 0x00, 0x00, 0x6e, 0xfd, 0xff, 0xff, 0x00, 0x00, 0x00, 0x01,
  0x14, 0x00, 0x00, 0x00, 0x1c, 0x00, 0x00, 0x00, 0x1c, 0x00, 0x00, 0x00,
  0x09, 0x00, 0x00, 0x00, 0x38, 0x00, 0x00, 0x00, 0x02, 0x00, 0x00, 0x00,
  0xff, 0xff, 0xff, 0xff, 0x10, 0x00, 0x00, 0x00, 0x58, 0xfd, 0xff, 0xff,
  0x1c, 0x00, 0x00, 0x00, 0x73, 0x65, 0x71, 0x75, 0x65, 0x6e, 0x74, 0x69,
  0x61, 0x6c, 0x5f, 0x31, 0x2f, 0x64, 0x65, 0x6e, 0x73, 0x65, 0x5f, 0x31,
  0x2f, 0x53, 0x69, 0x67, 0x6d, 0x6f, 0x69, 0x64, 0x00, 0x00, 0x00, 0x00,
  0x02, 0x00, 0x00, 0x00, 0x01, 0x00, 0x00, 0x00, 0x10, 0x00, 0x00, 0x00,
  0xca, 0xfd, 0xff, 0xff, 0x00, 0x00, 0x00, 0x01, 0x14, 0x00, 0x00, 0x00,
  0x1c, 0x00, 0x00, 0x00, 0x1c, 0x00, 0x00, 0x00, 0x08, 0x00, 0x00, 0x00,
  0x54, 0x00, 0x00, 0x00, 0x02, 0x00, 0x00, 0x00, 0xff, 0xff, 0xff, 0xff,
  0x10, 0x00, 0x00, 0x00, 0xb4, 0xfd, 0xff, 0xff, 0x38, 0x00, 0x00, 0x00,
  0x73, 0x65, 0x71, 0x75, 0x65, 0x6e, 0x74, 0x69, 0x61, 0x6c, 0x5f, 0x31,
  0x2f, 0x64, 0x65, 0x6e, 0x73, 0x65, 0x5f, 0x31, 0x2f, 0x4d, 0x61, 0x74,
  0x4d, 0x75, 0x6c, 0x3b, 0x73, 0x65, 0x71, 0x75, 0x65, 0x6e, 0x74, 0x69,
  0x61, 0x6c, 0x5f, 0x31, 0x2f, 0x64, 0x65, 0x6e, 0x73, 0x65, 0x5f, 0x31,
  0x2f, 0x42, 0x69, 0x61, 0x73, 0x41, 0x64, 0x64, 0x00, 0x00, 0x00, 0x00,
  0x02, 0x00, 0x00, 0x00, 0x01, 0x00, 0x00, 0x00, 0x10, 0x00, 0x00, 0x00,
  0x96, 0xfe, 0xff, 0xff, 0x00, 0x00, 0x00, 0x01, 0x10, 0x00, 0x00, 0x00,
  0x10, 0x00, 0x00, 0x00, 0x07, 0x00, 0x00, 0x00, 0x28, 0x00, 0x00, 0x00,
  0x1c, 0xfe, 0xff, 0xff, 0x1b, 0x00, 0x00, 0x00, 0x73, 0x65, 0x71, 0x75,
  0x65, 0x6e, 0x74, 0x69, 0x61, 0x6c, 0x5f, 0x31, 0x2f, 0x64, 0x65, 0x6e,
  0x73, 0x65, 0x5f, 0x31, 0x2f, 0x4d, 0x61, 0x74, 0x4d, 0x75, 0x6c, 0x00,
  0x02, 0x00, 0x00, 0x00, 0x10, 0x00, 0x00, 0x00, 0x01, 0x00, 0x00, 0x00,
  0xde, 0xfe, 0xff, 0xff, 0x00, 0x00, 0x00, 0x01, 0x10, 0x00, 0x00, 0x00,
  0x10, 0x00, 0x00, 0x00, 0x06, 0x00, 0x00, 0x00, 0x38, 0x00, 0x00, 0x00,
  0x64, 0xfe, 0xff, 0xff, 0x2b, 0x00, 0x00, 0x00, 0x73, 0x65, 0x71, 0x75,
  0x65, 0x6e, 0x74, 0x69, 0x61, 0x6c, 0x5f, 0x31, 0x2f, 0x64, 0x65, 0x6e,
  0x73, 0x65, 0x5f, 0x31, 0x2f, 0x42, 0x69, 0x61, 0x73, 0x41, 0x64, 0x64,
  0x2f, 0x52, 0x65, 0x61, 0x64, 0x56, 0x61, 0x72, 0x69, 0x61, 0x62, 0x6c,
  0x65, 0x4f, 0x70, 0x00, 0x01, 0x00, 0x00, 0x00, 0x10, 0x00, 0x00, 0x00,
  0x32, 0xff, 0xff, 0xff, 0x00, 0x00, 0x00, 0x01, 0x10, 0x00, 0x00, 0x00,
  0x10, 0x00, 0x00, 0x00, 0x05, 0x00, 0x00, 0x00, 0x3c, 0x00, 0x00, 0x00,
  0xb8, 0xfe, 0xff, 0xff, 0x2d, 0x00, 0x00, 0x00, 0x73, 0x65, 0x71, 0x75,
  0x65, 0x6e, 0x74, 0x69, 0x61, 0x6c, 0x5f, 0x31, 0x2f, 0x64, 0x65, 0x6e,
  0x73, 0x65, 0x5f, 0x31, 0x5f, 0x32, 0x2f, 0x42, 0x69, 0x61, 0x73, 0x41,
  0x64, 0x64, 0x2f, 0x52, 0x65, 0x61, 0x64, 0x56, 0x61, 0x72, 0x69, 0x61,
  0x62, 0x6c, 0x65, 0x4f, 0x70, 0x00, 0x00, 0x00, 0x01, 0x00, 0x00, 0x00,
  0x10, 0x00, 0x00, 0x00, 0x8a, 0xff, 0xff, 0xff, 0x00, 0x00, 0x00, 0x01,
  0x10, 0x00, 0x00, 0x00, 0x10, 0x00, 0x00, 0x00, 0x04, 0x00, 0x00, 0x00,
  0x1c, 0x00, 0x00, 0x00, 0x10, 0xff, 0xff, 0xff, 0x0f, 0x00, 0x00, 0x00,
  0x61, 0x72, 0x69, 0x74, 0x68, 0x2e, 0x63, 0x6f, 0x6e, 0x73, 0x74, 0x61,
  0x6e, 0x74, 0x32, 0x00, 0x01, 0x00, 0x00, 0x00, 0x01, 0x00, 0x00, 0x00,
  0xc2, 0xff, 0xff, 0xff, 0x00, 0x00, 0x00, 0x01, 0x10, 0x00, 0x00, 0x00,
  0x10, 0x00, 0x00, 0x00, 0x03, 0x00, 0x00, 0x00, 0x1c, 0x00, 0x00, 0x00,
  0x48, 0xff, 0xff, 0xff, 0x0f, 0x00, 0x00, 0x00, 0x61, 0x72, 0x69, 0x74,
  0x68, 0x2e, 0x63, 0x6f, 0x6e, 0x73, 0x74, 0x61, 0x6e, 0x74, 0x31, 0x00,
  0x02, 0x00, 0x00, 0x00, 0x10, 0x00, 0x00, 0x00, 0x10, 0x00, 0x00, 0x00,
  0x00, 0x00, 0x16, 0x00, 0x18, 0x00, 0x14, 0x00, 0x00, 0x00, 0x10, 0x00,
  0x0c, 0x00, 0x08, 0x00, 0x00, 0x00, 0x00, 0x00, 0x00, 0x00, 0x07, 0x00,
  0x16, 0x00, 0x00, 0x00, 0x00, 0x00, 0x00, 0x01, 0x10, 0x00, 0x00, 0x00,
  0x10, 0x00, 0x00, 0x00, 0x02, 0x00, 0x00, 0x00, 0x1c, 0x00, 0x00, 0x00,
  0x9c, 0xff, 0xff, 0xff, 0x0e, 0x00, 0x00, 0x00, 0x61, 0x72, 0x69, 0x74,
  0x68, 0x2e, 0x63, 0x6f, 0x6e, 0x73, 0x74, 0x61, 0x6e, 0x74, 0x00, 0x00,
  0x02, 0x00, 0x00, 0x00, 0x01, 0x00, 0x00, 0x00, 0x10, 0x00, 0x00, 0x00,
  0x00, 0x00, 0x16, 0x00, 0x1c, 0x00, 0x18, 0x00, 0x00, 0x00, 0x14, 0x00,
  0x10, 0x00, 0x0c, 0x00, 0x00, 0x00, 0x00, 0x00, 0x08, 0x00, 0x07, 0x00,
  0x16, 0x00, 0x00, 0x00, 0x00, 0x00, 0x00, 0x01, 0x14, 0x00, 0x00, 0x00,
  0x20, 0x00, 0x00, 0x00, 0x20, 0x00, 0x00, 0x00, 0x01, 0x00, 0x00, 0x00,
  0x3c, 0x00, 0x00, 0x00, 0x02, 0x00, 0x00, 0x00, 0xff, 0xff, 0xff, 0xff,
  0x01, 0x00, 0x00, 0x00, 0x04, 0x00, 0x04, 0x00, 0x04, 0x00, 0x00, 0x00,
  0x1e, 0x00, 0x00, 0x00, 0x73, 0x65, 0x72, 0x76, 0x69, 0x6e, 0x67, 0x5f,
  0x64, 0x65, 0x66, 0x61, 0x75, 0x6c, 0x74, 0x5f, 0x6b, 0x65, 0x72, 0x61,
  0x73, 0x5f, 0x74, 0x65, 0x6e, 0x73, 0x6f, 0x72, 0x3a, 0x30, 0x00, 0x00,
  0x02, 0x00, 0x00, 0x00, 0x01, 0x00, 0x00, 0x00, 0x01, 0x00, 0x00, 0x00,
  0x02, 0x00, 0x00, 0x00, 0x20, 0x00, 0x00, 0x00, 0x04, 0x00, 0x00, 0x00,
  0xf4, 0xff, 0xff, 0xff, 0x0e, 0x00, 0x00, 0x00, 0x00, 0x00, 0x00, 0x0e,
  0x0c, 0x00, 0x0c, 0x00, 0x0b, 0x00, 0x00, 0x00, 0x00, 0x00, 0x04, 0x00,
  0x0c, 0x00, 0x00, 0x00, 0x09, 0x00, 0x00, 0x00, 0x00, 0x00, 0x00, 0x09
 
};

#endif //MODEL_H